{
  "version": "1.0",
  "truncation": null,
  "padding": null,
  "added_tokens": [
    {
      "id": 0,
      "content": "[PAD]",
      "single_word": false,
      "lstrip": false,
      "rstrip": false,
      "normalized": false,
      "special": true
    },
    {
      "id": 1,
      "content": "[UNK]",
      "single_word": false,
      "lstrip": false,
      "rstrip": false,
      "normalized": false,
      "special": true
    },
    {
      "id": 2,
      "content": "[BOS]",
      "single_word": false,
      "lstrip": false,
      "rstrip": false,
      "normalized": false,
      "special": true
    },
    {
      "id": 3,
      "content": "[EOS]",
      "single_word": false,
      "lstrip": false,
      "rstrip": false,
      "normalized": false,
      "special": true
    },
    {
      "id": 4,
      "content": "__src_en__",
      "single_word": false,
      "lstrip": false,
      "rstrip": false,
      "normalized": false,
      "special": true
    },
    {
      "id": 5,
      "content": "__tgt_vi__",
      "single_word": false,
      "lstrip": false,
      "rstrip": false,
      "normalized": false,
      "special": true
    },
    {
      "id": 6,
      "content": "__tgt_ja__",
      "single_word": false,
      "lstrip": false,
      "rstrip": false,
      "normalized": false,
      "special": true
    },
    {
      "id": 7,
      "content": "__tgt_zh__",
      "single_word": false,
      "lstrip": false,
      "rstrip": false,
      "normalized": false,
      "special": true
    }
  ],
  "normalizer": null,
  "pre_tokenizer": {
    "type": "Whitespace"
  },
  "post_processor": {
    "type": "TemplateProcessing",
    "single": [
      {
        "SpecialToken": {
          "id": "[BOS]",
          "type_id": 0
        }
      },
      {
        "Sequence": {
          "id": "A",
          "type_id": 0
        }
      },
      {
        "SpecialToken": {
          "id": "[EOS]",
          "type_id": 0
        }
      }
    ],
    "pair": [
      {
        "Sequence": {
          "id": "A",
          "type_id": 0
        }
      },
      {
        "Sequence": {
          "id": "B",
          "type_id": 1
        }
      }
    ],
    "special_tokens": {
      "[BOS]": {
        "id": "[BOS]",
        "ids": [
          2
        ],
        "tokens": [
          "[BOS]"
        ]
      },
      "[EOS]": {
        "id": "[EOS]",
        "ids": [
          3
        ],
        "tokens": [
          "[EOS]"
        ]
      }
    }
  },
  "decoder": null,
  "model": {
    "type": "BPE",
    "dropout": null,
    "unk_token": "[UNK]",
    "continuing_subword_prefix": null,
    "end_of_word_suffix": null,
    "fuse_unk": false,
    "byte_fallback": false,
    "ignore_merges": false,
    "vocab": {
      "[PAD]": 0,
      "[UNK]": 1,
      "[BOS]": 2,
      "[EOS]": 3,
      "__src_en__": 4,
      "__tgt_vi__": 5,
      "__tgt_ja__": 6,
      "__tgt_zh__": 7,
      "!": 8,
      "\"": 9,
      "#": 10,
      "$": 11,
      "%": 12,
      "&": 13,
      "'": 14,
      "(": 15,
      ")": 16,
      "*": 17,
      "+": 18,
      ",": 19,
      "-": 20,
      ".": 21,
      "/": 22,
      "0": 23,
      "1": 24,
      "2": 25,
      "3": 26,
      "4": 27,
      "5": 28,
      "6": 29,
      "7": 30,
      "8": 31,
      "9": 32,
      ":": 33,
      ";": 34,
      "<": 35,
      "=": 36,
      ">": 37,
      "?": 38,
      "@": 39,
      "A": 40,
      "B": 41,
      "C": 42,
      "D": 43,
      "E": 44,
      "F": 45,
      "G": 46,
      "H": 47,
      "I": 48,
      "J": 49,
      "K": 50,
      "L": 51,
      "M": 52,
      "N": 53,
      "O": 54,
      "P": 55,
      "Q": 56,
      "R": 57,
      "S": 58,
      "T": 59,
      "U": 60,
      "V": 61,
      "W": 62,
      "X": 63,
      "Y": 64,
      "Z": 65,
      "[": 66,
      "\\": 67,
      "]": 68,
      "^": 69,
      "_": 70,
      "`": 71,
      "a": 72,
      "b": 73,
      "c": 74,
      "d": 75,
      "e": 76,
      "f": 77,
      "g": 78,
      "h": 79,
      "i": 80,
      "j": 81,
      "k": 82,
      "l": 83,
      "m": 84,
      "n": 85,
      "o": 86,
      "p": 87,
      "q": 88,
      "r": 89,
      "s": 90,
      "t": 91,
      "u": 92,
      "v": 93,
      "w": 94,
      "x": 95,
      "y": 96,
      "z": 97,
      "{": 98,
      "}": 99,
      "~": 100,
      "¡": 101,
      "¢": 102,
      "£": 103,
      "¤": 104,
      "¥": 105,
      "¦": 106,
      "§": 107,
      "¨": 108,
      "©": 109,
      "ª": 110,
      "¬": 111,
      "®": 112,
      "¯": 113,
      "°": 114,
      "±": 115,
      "²": 116,
      "³": 117,
      "´": 118,
      "µ": 119,
      "¶": 120,
      "·": 121,
      "¸": 122,
      "¹": 123,
      "º": 124,
      "¼": 125,
      "½": 126,
      "¾": 127,
      "¿": 128,
      "À": 129,
      "Á": 130,
      "Â": 131,
      "Ã": 132,
      "Ä": 133,
      "Ç": 134,
      "É": 135,
      "Ê": 136,
      "Ì": 137,
      "Í": 138,
      "Ï": 139,
      "Ñ": 140,
      "Ò": 141,
      "Ó": 142,
      "Ô": 143,
      "Õ": 144,
      "Ö": 145,
      "×": 146,
      "Ù": 147,
      "Ú": 148,
      "Ü": 149,
      "Ý": 150,
      "ß": 151,
      "à": 152,
      "á": 153,
      "â": 154,
      "ã": 155,
      "ä": 156,
      "å": 157,
      "æ": 158,
      "ç": 159,
      "è": 160,
      "é": 161,
      "ê": 162,
      "ë": 163,
      "ì": 164,
      "í": 165,
      "î": 166,
      "ï": 167,
      "ð": 168,
      "ñ": 169,
      "ò": 170,
      "ó": 171,
      "ô": 172,
      "õ": 173,
      "ö": 174,
      "÷": 175,
      "ø": 176,
      "ù": 177,
      "ú": 178,
      "û": 179,
      "ü": 180,
      "ý": 181,
      "þ": 182,
      "ÿ": 183,
      "Ā": 184,
      "ā": 185,
      "Ă": 186,
      "ă": 187,
      "ć": 188,
      "Č": 189,
      "č": 190,
      "Đ": 191,
      "đ": 192,
      "ē": 193,
      "ė": 194,
      "ğ": 195,
      "ģ": 196,
      "Ĩ": 197,
      "ĩ": 198,
      "ī": 199,
      "İ": 200,
      "ı": 201,
      "Ĵ": 202,
      "ł": 203,
      "ń": 204,
      "ō": 205,
      "œ": 206,
      "ś": 207,
      "Ş": 208,
      "ş": 209,
      "Š": 210,
      "š": 211,
      "ũ": 212,
      "ū": 213,
      "ŭ": 214,
      "ű": 215,
      "ŵ": 216,
      "ź": 217,
      "ż": 218,
      "Ž": 219,
      "ž": 220,
      "Ơ": 221,
      "ơ": 222,
      "Ư": 223,
      "ư": 224,
      "ǎ": 225,
      "ǐ": 226,
      "ǖ": 227,
      "ǜ": 228,
      "ȫ": 229,
      "Ȼ": 230,
      "ȼ": 231,
      "Ɋ": 232,
      "ɒ": 233,
      "ʖ": 234,
      "ʱ": 235,
      "ʹ": 236,
      "ʽ": 237,
      "ˆ": 238,
      "ˊ": 239,
      "ˋ": 240,
      "˙": 241,
      "̀": 242,
      "́": 243,
      "̡": 244,
      "̣": 245,
      "͢": 246,
      "Ϳ": 247,
      "Α": 248,
      "Β": 249,
      "Γ": 250,
      "Ε": 251,
      "Η": 252,
      "Θ": 253,
      "Ι": 254,
      "Ν": 255,
      "Ξ": 256,
      "Ο": 257,
      "Ρ": 258,
      "Σ": 259,
      "Τ": 260,
      "Ω": 261,
      "α": 262,
      "β": 263,
      "γ": 264,
      "δ": 265,
      "μ": 266,
      "ο": 267,
      "π": 268,
      "ρ": 269,
      "σ": 270,
      "τ": 271,
      "ψ": 272,
      "Б": 273,
      "В": 274,
      "Г": 275,
      "М": 276,
      "Т": 277,
      "Ф": 278,
      "Ч": 279,
      "Ш": 280,
      "Ь": 281,
      "г": 282,
      "е": 283,
      "и": 284,
      "к": 285,
      "м": 286,
      "о": 287,
      "п": 288,
      "р": 289,
      "т": 290,
      "ц": 291,
      "ч": 292,
      "щ": 293,
      "ъ": 294,
      "э": 295,
      "ї": 296,
      "Ҁ": 297,
      "ҥ": 298,
      "һ": 299,
      "Ӄ": 300,
      "ӈ": 301,
      "Ӊ": 302,
      "Ӑ": 303,
      "Ӛ": 304,
      "Ԋ": 305,
      "Ԡ": 306,
      "Ԥ": 307,
      "Լ": 308,
      "չ": 309,
      "ց": 310,
      "֡": 311,
      "֧": 312,
      "֪": 313,
      "ד": 314,
      "ע": 315,
      "ש": 316,
      "،": 317,
      "؟": 318,
      "ُ": 319,
      "ݿ": 320,
      "ย": 321,
      "ร": 322,
      "อ": 323,
      "่": 324,
      "๘": 325,
      "ဪ": 326,
      "Ⴗ": 327,
      "Ạ": 328,
      "ạ": 329,
      "Ả": 330,
      "ả": 331,
      "Ấ": 332,
      "ấ": 333,
      "Ầ": 334,
      "ầ": 335,
      "Ẩ": 336,
      "ẩ": 337,
      "ẫ": 338,
      "Ậ": 339,
      "ậ": 340,
      "Ắ": 341,
      "ắ": 342,
      "ằ": 343,
      "ẳ": 344,
      "ẵ": 345,
      "ặ": 346,
      "ẹ": 347,
      "Ẻ": 348,
      "ẻ": 349,
      "ẽ": 350,
      "Ế": 351,
      "ế": 352,
      "ề": 353,
      "Ể": 354,
      "ể": 355,
      "ễ": 356,
      "Ệ": 357,
      "ệ": 358,
      "ỉ": 359,
      "Ị": 360,
      "ị": 361,
      "ọ": 362,
      "ỏ": 363,
      "Ố": 364,
      "ố": 365,
      "Ồ": 366,
      "ồ": 367,
      "Ổ": 368,
      "ổ": 369,
      "ỗ": 370,
      "Ộ": 371,
      "ộ": 372,
      "Ớ": 373,
      "ớ": 374,
      "Ờ": 375,
      "ờ": 376,
      "Ở": 377,
      "ở": 378,
      "ỡ": 379,
      "ợ": 380,
      "Ụ": 381,
      "ụ": 382,
      "Ủ": 383,
      "ủ": 384,
      "Ứ": 385,
      "ứ": 386,
      "Ừ": 387,
      "ừ": 388,
      "Ử": 389,
      "ử": 390,
      "Ữ": 391,
      "ữ": 392,
      "Ự": 393,
      "ự": 394,
      "ỳ": 395,
      "Ỵ": 396,
      "ỵ": 397,
      "ỷ": 398,
      "ỹ": 399,
      "Ἧ": 400,
      "‐": 401,
      "„": 402,
      "†": 403,
      "•": 404,
      "․": 405,
      "…": 406,
      "‧": 407,
      "‰": 408,
      "′": 409,
      "″": 410,
      "‵": 411,
      "※": 412,
      "₤": 413,
      "€": 414,
      "℃": 415,
      "™": 416,
      "Ⅱ": 417,
      "→": 418,
      "↖": 419,
      "∑": 420,
      "−": 421,
      "∗": 422,
      "∨": 423,
      "∮": 424,
      "∵": 425,
      "∼": 426,
      "≒": 427,
      "≪": 428,
      "≫": 429,
      "⊿": 430,
      "⎄": 431,
      "⑩": 432,
      "⑴": 433,
      "⑵": 434,
      "⑶": 435,
      "⑷": 436,
      "⑸": 437,
      "⑼": 438,
      "⒃": 439,
      "─": 440,
      "━": 441,
      "┄": 442,
      "┍": 443,
      "┕": 444,
      "┣": 445,
      "┤": 446,
      "┦": 447,
      "┪": 448,
      "┬": 449,
      "┮": 450,
      "┰": 451,
      "┿": 452,
      "╀": 453,
      "╢": 454,
      "╧": 455,
      "╯": 456,
      "■": 457,
      "□": 458,
      "▪": 459,
      "►": 460,
      "○": 461,
      "●": 462,
      "☎": 463,
      "♀": 464,
      "♦": 465,
      "♪": 466,
      "♫": 467,
      "♬": 468,
      "➡": 469,
      "ⰲ": 470,
      "⼯": 471,
      "、": 472,
      "。": 473,
      "々": 474,
      "〇": 475,
      "〈": 476,
      "〉": 477,
      "《": 478,
      "》": 479,
      "「": 480,
      "」": 481,
      "『": 482,
      "』": 483,
      "【": 484,
      "】": 485,
      "〔": 486,
      "〕": 487,
      "〜": 488,
      "〝": 489,
      "〞": 490,
      "〟": 491,
      "ぁ": 492,
      "あ": 493,
      "ぃ": 494,
      "い": 495,
      "ぅ": 496,
      "う": 497,
      "ぇ": 498,
      "え": 499,
      "ぉ": 500,
      "お": 501,
      "か": 502,
      "が": 503,
      "き": 504,
      "ぎ": 505,
      "く": 506,
      "ぐ": 507,
      "け": 508,
      "げ": 509,
      "こ": 510,
      "ご": 511,
      "さ": 512,
      "ざ": 513,
      "し": 514,
      "じ": 515,
      "す": 516,
      "ず": 517,
      "せ": 518,
      "ぜ": 519,
      "そ": 520,
      "ぞ": 521,
      "た": 522,
      "だ": 523,
      "ち": 524,
      "ぢ": 525,
      "っ": 526,
      "つ": 527,
      "づ": 528,
      "て": 529,
      "で": 530,
      "と": 531,
      "ど": 532,
      "な": 533,
      "に": 534,
      "ぬ": 535,
      "ね": 536,
      "の": 537,
      "は": 538,
      "ば": 539,
      "ぱ": 540,
      "ひ": 541,
      "び": 542,
      "ぴ": 543,
      "ふ": 544,
      "ぶ": 545,
      "ぷ": 546,
      "へ": 547,
      "べ": 548,
      "ぺ": 549,
      "ほ": 550,
      "ぼ": 551,
      "ぽ": 552,
      "ま": 553,
      "み": 554,
      "む": 555,
      "め": 556,
      "も": 557,
      "ゃ": 558,
      "や": 559,
      "ゅ": 560,
      "ゆ": 561,
      "ょ": 562,
      "よ": 563,
      "ら": 564,
      "り": 565,
      "る": 566,
      "れ": 567,
      "ろ": 568,
      "ゎ": 569,
      "わ": 570,
      "ゐ": 571,
      "ゑ": 572,
      "を": 573,
      "ん": 574,
      "゛": 575,
      "゜": 576,
      "ァ": 577,
      "ア": 578,
      "ィ": 579,
      "イ": 580,
      "ゥ": 581,
      "ウ": 582,
      "ェ": 583,
      "エ": 584,
      "ォ": 585,
      "オ": 586,
      "カ": 587,
      "ガ": 588,
      "キ": 589,
      "ギ": 590,
      "ク": 591,
      "グ": 592,
      "ケ": 593,
      "ゲ": 594,
      "コ": 595,
      "ゴ": 596,
      "サ": 597,
      "ザ": 598,
      "シ": 599,
      "ジ": 600,
      "ス": 601,
      "ズ": 602,
      "セ": 603,
      "ゼ": 604,
      "ソ": 605,
      "ゾ": 606,
      "タ": 607,
      "ダ": 608,
      "チ": 609,
      "ヂ": 610,
      "ッ": 611,
      "ツ": 612,
      "ヅ": 613,
      "テ": 614,
      "デ": 615,
      "ト": 616,
      "ド": 617,
      "ナ": 618,
      "ニ": 619,
      "ヌ": 620,
      "ネ": 621,
      "ノ": 622,
      "ハ": 623,
      "バ": 624,
      "パ": 625,
      "ヒ": 626,
      "ビ": 627,
      "ピ": 628,
      "フ": 629,
      "ブ": 630,
      "プ": 631,
      "ヘ": 632,
      "ベ": 633,
      "ペ": 634,
      "ホ": 635,
      "ボ": 636,
      "ポ": 637,
      "マ": 638,
      "ミ": 639,
      "ム": 640,
      "メ": 641,
      "モ": 642,
      "ャ": 643,
      "ヤ": 644,
      "ュ": 645,
      "ユ": 646,
      "ョ": 647,
      "ヨ": 648,
      "ラ": 649,
      "リ": 650,
      "ル": 651,
      "レ": 652,
      "ロ": 653,
      "ワ": 654,
      "ヰ": 655,
      "ン": 656,
      "ヴ": 657,
      "ヵ": 658,
      "ヶ": 659,
      "・": 660,
      "ー": 661,
      "ㄆ": 662,
      "ㄇ": 663,
      "ㄈ": 664,
      "ㄓ": 665,
      "ㄛ": 666,
      "ㄠ": 667,
      "ㄢ": 668,
      "ㄣ": 669,
      "ㄤ": 670,
      "ㄥ": 671,
      "ㄨ": 672,
      "ㄩ": 673,
      "㈠": 674,
      "㈡": 675,
      "㈢": 676,
      "㈣": 677,
      "㈤": 678,
      "㈥": 679,
      "㈦": 680,
      "㈧": 681,
      "㈨": 682,
      "㈩": 683,
      "㊣": 684,
      "㊽": 685,
      "㎎": 686,
      "㎝": 687,
      "㎡": 688,
      "㏄": 689,
      "㏑": 690,
      "䁿": 691,
      "一": 692,
      "丁": 693,
      "七": 694,
      "万": 695,
      "丈": 696,
      "三": 697,
      "上": 698,
      "下": 699,
      "不": 700,
      "与": 701,
      "丐": 702,
      "丑": 703,
      "专": 704,
      "且": 705,
      "世": 706,
      "丘": 707,
      "丙": 708,
      "业": 709,
      "丛": 710,
      "东": 711,
      "丝": 712,
      "丞": 713,
      "丟": 714,
      "両": 715,
      "丢": 716,
      "两": 717,
      "严": 718,
      "並": 719,
      "丧": 720,
      "个": 721,
      "丫": 722,
      "中": 723,
      "丰": 724,
      "串": 725,
      "临": 726,
      "丶": 727,
      "丸": 728,
      "丹": 729,
      "为": 730,
      "主": 731,
      "丼": 732,
      "丽": 733,
      "举": 734,
      "丿": 735,
      "乃": 736,
      "久": 737,
      "么": 738,
      "义": 739,
      "之": 740,
      "乌": 741,
      "乍": 742,
      "乎": 743,
      "乏": 744,
      "乐": 745,
      "乒": 746,
      "乓": 747,
      "乔": 748,
      "乖": 749,
      "乗": 750,
      "乘": 751,
      "乙": 752,
      "九": 753,
      "乞": 754,
      "也": 755,
      "习": 756,
      "乡": 757,
      "书": 758,
      "买": 759,
      "乱": 760,
      "乳": 761,
      "乾": 762,
      "亀": 763,
      "亂": 764,
      "了": 765,
      "予": 766,
      "争": 767,
      "事": 768,
      "二": 769,
      "于": 770,
      "亏": 771,
      "云": 772,
      "互": 773,
      "五": 774,
      "井": 775,
      "亚": 776,
      "些": 777,
      "亜": 778,
      "亞": 779,
      "亟": 780,
      "亡": 781,
      "亢": 782,
      "交": 783,
      "亥": 784,
      "亦": 785,
      "产": 786,
      "亨": 787,
      "亩": 788,
      "享": 789,
      "京": 790,
      "亭": 791,
      "亮": 792,
      "亲": 793,
      "亵": 794,
      "人": 795,
      "亿": 796,
      "什": 797,
      "仁": 798,
      "仅": 799,
      "仆": 800,
      "仇": 801,
      "今": 802,
      "介": 803,
      "仍": 804,
      "从": 805,
      "仏": 806,
      "仑": 807,
      "仓": 808,
      "仔": 809,
      "仕": 810,
      "他": 811,
      "仗": 812,
      "付": 813,
      "仙": 814,
      "仟": 815,
      "代": 816,
      "令": 817,
      "以": 818,
      "仪": 819,
      "们": 820,
      "仮": 821,
      "仰": 822,
      "仲": 823,
      "件": 824,
      "价": 825,
      "任": 826,
      "份": 827,
      "仿": 828,
      "企": 829,
      "伊": 830,
      "伍": 831,
      "伎": 832,
      "伏": 833,
      "伐": 834,
      "休": 835,
      "众": 836,
      "优": 837,
      "伙": 838,
      "会": 839,
      "伝": 840,
      "伞": 841,
      "伟": 842,
      "传": 843,
      "伤": 844,
      "伦": 845,
      "伪": 846,
      "伯": 847,
      "估": 848,
      "伴": 849,
      "伶": 850,
      "伸": 851,
      "伺": 852,
      "似": 853,
      "伽": 854,
      "但": 855,
      "位": 856,
      "低": 857,
      "住": 858,
      "佐": 859,
      "佑": 860,
      "体": 861,
      "佔": 862,
      "何": 863,
      "余": 864,
      "佛": 865,
      "作": 866,
      "你": 867,
      "佣": 868,
      "佩": 869,
      "佬": 870,
      "佳": 871,
      "併": 872,
      "佽": 873,
      "使": 874,
      "侄": 875,
      "來": 876,
      "侈": 877,
      "例": 878,
      "侍": 879,
      "侏": 880,
      "侘": 881,
      "供": 882,
      "侜": 883,
      "依": 884,
      "侠": 885,
      "価": 886,
      "侣": 887,
      "侥": 888,
      "侦": 889,
      "侧": 890,
      "侨": 891,
      "侪": 892,
      "侬": 893,
      "侮": 894,
      "侯": 895,
      "侳": 896,
      "侵": 897,
      "侶": 898,
      "便": 899,
      "係": 900,
      "促": 901,
      "俄": 902,
      "俇": 903,
      "俊": 904,
      "俏": 905,
      "俐": 906,
      "俑": 907,
      "俗": 908,
      "俘": 909,
      "俚": 910,
      "保": 911,
      "俟": 912,
      "俠": 913,
      "信": 914,
      "俩": 915,
      "俭": 916,
      "修": 917,
      "俯": 918,
      "俱": 919,
      "俳": 920,
      "俸": 921,
      "俺": 922,
      "俾": 923,
      "倆": 924,
      "倉": 925,
      "個": 926,
      "倍": 927,
      "們": 928,
      "倒": 929,
      "倖": 930,
      "倘": 931,
      "候": 932,
      "倚": 933,
      "借": 934,
      "倡": 935,
      "倣": 936,
      "値": 937,
      "倦": 938,
      "倩": 939,
      "倪": 940,
      "倫": 941,
      "债": 942,
      "值": 943,
      "倾": 944,
      "假": 945,
      "偉": 946,
      "偌": 947,
      "偎": 948,
      "偏": 949,
      "偕": 950,
      "做": 951,
      "停": 952,
      "健": 953,
      "側": 954,
      "偵": 955,
      "偶": 956,
      "偷": 957,
      "偽": 958,
      "偿": 959,
      "傀": 960,
      "傅": 961,
      "傍": 962,
      "傑": 963,
      "傘": 964,
      "備": 965,
      "傢": 966,
      "傣": 967,
      "储": 968,
      "催": 969,
      "傭": 970,
      "傲": 971,
      "傳": 972,
      "債": 973,
      "傷": 974,
      "傻": 975,
      "傾": 976,
      "僅": 977,
      "働": 978,
      "像": 979,
      "僕": 980,
      "僚": 981,
      "僧": 982,
      "僮": 983,
      "僳": 984,
      "僵": 985,
      "價": 986,
      "僻": 987,
      "儀": 988,
      "儂": 989,
      "億": 990,
      "儒": 991,
      "儘": 992,
      "償": 993,
      "儡": 994,
      "優": 995,
      "儲": 996,
      "儿": 997,
      "允": 998,
      "元": 999,
      "兄": 1000,
      "充": 1001,
      "兆": 1002,
      "兇": 1003,
      "先": 1004,
      "光": 1005,
      "克": 1006,
      "免": 1007,
      "兎": 1008,
      "児": 1009,
      "兑": 1010,
      "兒": 1011,
      "兔": 1012,
      "党": 1013,
      "兜": 1014,
      "兢": 1015,
      "入": 1016,
      "內": 1017,
      "全": 1018,
      "兩": 1019,
      "八": 1020,
      "公": 1021,
      "六": 1022,
      "兮": 1023,
      "兰": 1024,
      "共": 1025,
      "关": 1026,
      "兴": 1027,
      "兵": 1028,
      "其": 1029,
      "具": 1030,
      "典": 1031,
      "兹": 1032,
      "养": 1033,
      "兼": 1034,
      "兽": 1035,
      "冀": 1036,
      "内": 1037,
      "円": 1038,
      "冇": 1039,
      "冈": 1040,
      "冉": 1041,
      "冊": 1042,
      "册": 1043,
      "再": 1044,
      "冑": 1045,
      "冒": 1046,
      "冕": 1047,
      "冗": 1048,
      "写": 1049,
      "冚": 1050,
      "军": 1051,
      "农": 1052,
      "冠": 1053,
      "冢": 1054,
      "冤": 1055,
      "冥": 1056,
      "冬": 1057,
      "冯": 1058,
      "冰": 1059,
      "冲": 1060,
      "决": 1061,
      "冴": 1062,
      "况": 1063,
      "冶": 1064,
      "冷": 1065,
      "冻": 1066,
      "净": 1067,
      "凄": 1068,
      "凅": 1069,
      "准": 1070,
      "凉": 1071,
      "凌": 1072,
      "凍": 1073,
      "减": 1074,
      "凑": 1075,
      "凛": 1076,
      "凝": 1077,
      "几": 1078,
      "凡": 1079,
      "凤": 1080,
      "処": 1081,
      "凧": 1082,
      "凭": 1083,
      "凯": 1084,
      "凰": 1085,
      "凱": 1086,
      "凳": 1087,
      "凵": 1088,
      "凶": 1089,
      "凸": 1090,
      "凹": 1091,
      "出": 1092,
      "击": 1093,
      "函": 1094,
      "凿": 1095,
      "刀": 1096,
      "刁": 1097,
      "刃": 1098,
      "分": 1099,
      "切": 1100,
      "刈": 1101,
      "刊": 1102,
      "刎": 1103,
      "刑": 1104,
      "划": 1105,
      "列": 1106,
      "刘": 1107,
      "则": 1108,
      "刚": 1109,
      "创": 1110,
      "初": 1111,
      "删": 1112,
      "判": 1113,
      "別": 1114,
      "利": 1115,
      "别": 1116,
      "刮": 1117,
      "到": 1118,
      "制": 1119,
      "刷": 1120,
      "券": 1121,
      "刹": 1122,
      "刺": 1123,
      "刻": 1124,
      "剁": 1125,
      "剂": 1126,
      "剃": 1127,
      "則": 1128,
      "削": 1129,
      "前": 1130,
      "剐": 1131,
      "剑": 1132,
      "剒": 1133,
      "剔": 1134,
      "剖": 1135,
      "剛": 1136,
      "剝": 1137,
      "剣": 1138,
      "剤": 1139,
      "剥": 1140,
      "剧": 1141,
      "剩": 1142,
      "剪": 1143,
      "副": 1144,
      "剰": 1145,
      "割": 1146,
      "創": 1147,
      "剷": 1148,
      "剿": 1149,
      "劃": 1150,
      "劇": 1151,
      "劈": 1152,
      "劉": 1153,
      "劑": 1154,
      "力": 1155,
      "劝": 1156,
      "办": 1157,
      "功": 1158,
      "加": 1159,
      "务": 1160,
      "劣": 1161,
      "动": 1162,
      "助": 1163,
      "努": 1164,
      "劫": 1165,
      "励": 1166,
      "劲": 1167,
      "劳": 1168,
      "労": 1169,
      "効": 1170,
      "劾": 1171,
      "势": 1172,
      "勁": 1173,
      "勃": 1174,
      "勇": 1175,
      "勉": 1176,
      "勋": 1177,
      "勒": 1178,
      "動": 1179,
      "勘": 1180,
      "務": 1181,
      "勝": 1182,
      "勞": 1183,
      "募": 1184,
      "勢": 1185,
      "勤": 1186,
      "勧": 1187,
      "勲": 1188,
      "勵": 1189,
      "勸": 1190,
      "勺": 1191,
      "勾": 1192,
      "勿": 1193,
      "匀": 1194,
      "匂": 1195,
      "包": 1196,
      "匆": 1197,
      "匈": 1198,
      "匕": 1199,
      "化": 1200,
      "北": 1201,
      "匙": 1202,
      "匠": 1203,
      "匡": 1204,
      "匣": 1205,
      "匪": 1206,
      "匮": 1207,
      "匹": 1208,
      "区": 1209,
      "医": 1210,
      "匿": 1211,
      "區": 1212,
      "十": 1213,
      "千": 1214,
      "升": 1215,
      "午": 1216,
      "半": 1217,
      "卍": 1218,
      "华": 1219,
      "协": 1220,
      "卑": 1221,
      "卒": 1222,
      "卓": 1223,
      "協": 1224,
      "单": 1225,
      "卖": 1226,
      "南": 1227,
      "単": 1228,
      "博": 1229,
      "卜": 1230,
      "占": 1231,
      "卡": 1232,
      "卢": 1233,
      "卦": 1234,
      "卧": 1235,
      "卫": 1236,
      "卯": 1237,
      "印": 1238,
      "危": 1239,
      "即": 1240,
      "却": 1241,
      "卵": 1242,
      "卷": 1243,
      "卸": 1244,
      "卻": 1245,
      "卿": 1246,
      "厂": 1247,
      "厄": 1248,
      "厅": 1249,
      "历": 1250,
      "厉": 1251,
      "压": 1252,
      "厌": 1253,
      "厕": 1254,
      "厘": 1255,
      "厚": 1256,
      "厝": 1257,
      "原": 1258,
      "厢": 1259,
      "厦": 1260,
      "厨": 1261,
      "厩": 1262,
      "厭": 1263,
      "厲": 1264,
      "厳": 1265,
      "去": 1266,
      "县": 1267,
      "叁": 1268,
      "参": 1269,
      "參": 1270,
      "又": 1271,
      "叉": 1272,
      "及": 1273,
      "友": 1274,
      "双": 1275,
      "反": 1276,
      "収": 1277,
      "发": 1278,
      "叔": 1279,
      "取": 1280,
      "受": 1281,
      "变": 1282,
      "叙": 1283,
      "叛": 1284,
      "叟": 1285,
      "叠": 1286,
      "口": 1287,
      "古": 1288,
      "句": 1289,
      "另": 1290,
      "叨": 1291,
      "叩": 1292,
      "只": 1293,
      "叫": 1294,
      "召": 1295,
      "叭": 1296,
      "叮": 1297,
      "可": 1298,
      "台": 1299,
      "叱": 1300,
      "史": 1301,
      "右": 1302,
      "叵": 1303,
      "叶": 1304,
      "号": 1305,
      "司": 1306,
      "叹": 1307,
      "叽": 1308,
      "吁": 1309,
      "吃": 1310,
      "各": 1311,
      "吆": 1312,
      "合": 1313,
      "吉": 1314,
      "吊": 1315,
      "吋": 1316,
      "同": 1317,
      "名": 1318,
      "后": 1319,
      "吏": 1320,
      "吐": 1321,
      "向": 1322,
      "吓": 1323,
      "吔": 1324,
      "吕": 1325,
      "吖": 1326,
      "吗": 1327,
      "君": 1328,
      "吝": 1329,
      "吞": 1330,
      "吟": 1331,
      "吠": 1332,
      "否": 1333,
      "吧": 1334,
      "吨": 1335,
      "吩": 1336,
      "含": 1337,
      "听": 1338,
      "吭": 1339,
      "吮": 1340,
      "启": 1341,
      "吱": 1342,
      "吳": 1343,
      "吴": 1344,
      "吵": 1345,
      "吶": 1346,
      "吸": 1347,
      "吹": 1348,
      "吻": 1349,
      "吼": 1350,
      "吾": 1351,
      "呀": 1352,
      "呂": 1353,
      "呃": 1354,
      "呆": 1355,
      "呈": 1356,
      "呉": 1357,
      "告": 1358,
      "呋": 1359,
      "呐": 1360,
      "呑": 1361,
      "呒": 1362,
      "呕": 1363,
      "呗": 1364,
      "员": 1365,
      "呛": 1366,
      "呜": 1367,
      "呢": 1368,
      "呣": 1369,
      "呦": 1370,
      "呧": 1371,
      "周": 1372,
      "呪": 1373,
      "呱": 1374,
      "味": 1375,
      "呵": 1376,
      "呸": 1377,
      "呻": 1378,
      "呼": 1379,
      "命": 1380,
      "咀": 1381,
      "咁": 1382,
      "咄": 1383,
      "咆": 1384,
      "咋": 1385,
      "和": 1386,
      "咎": 1387,
      "咏": 1388,
      "咐": 1389,
      "咒": 1390,
      "咔": 1391,
      "咕": 1392,
      "咖": 1393,
      "咗": 1394,
      "咙": 1395,
      "咚": 1396,
      "咥": 1397,
      "咦": 1398,
      "咧": 1399,
      "咨": 1400,
      "咩": 1401,
      "咪": 1402,
      "咫": 1403,
      "咬": 1404,
      "咭": 1405,
      "咯": 1406,
      "咱": 1407,
      "咲": 1408,
      "咳": 1409,
      "咸": 1410,
      "咻": 1411,
      "咽": 1412,
      "哀": 1413,
      "品": 1414,
      "哄": 1415,
      "哆": 1416,
      "哇": 1417,
      "哈": 1418,
      "哉": 1419,
      "响": 1420,
      "哎": 1421,
      "哑": 1422,
      "哔": 1423,
      "哗": 1424,
      "哝": 1425,
      "哞": 1426,
      "哟": 1427,
      "員": 1428,
      "哥": 1429,
      "哦": 1430,
      "哨": 1431,
      "哩": 1432,
      "哪": 1433,
      "哭": 1434,
      "哮": 1435,
      "哲": 1436,
      "哺": 1437,
      "哼": 1438,
      "唄": 1439,
      "唆": 1440,
      "唇": 1441,
      "唉": 1442,
      "唐": 1443,
      "唑": 1444,
      "唔": 1445,
      "唖": 1446,
      "唗": 1447,
      "唠": 1448,
      "唤": 1449,
      "唬": 1450,
      "售": 1451,
      "唯": 1452,
      "唱": 1453,
      "唷": 1454,
      "唸": 1455,
      "唾": 1456,
      "啁": 1457,
      "啃": 1458,
      "啄": 1459,
      "商": 1460,
      "啊": 1461,
      "問": 1462,
      "啓": 1463,
      "啜": 1464,
      "啞": 1465,
      "啟": 1466,
      "啡": 1467,
      "啤": 1468,
      "啥": 1469,
      "啦": 1470,
      "啧": 1471,
      "啬": 1472,
      "啰": 1473,
      "啱": 1474,
      "啸": 1475,
      "啻": 1476,
      "啾": 1477,
      "喀": 1478,
      "喂": 1479,
      "喃": 1480,
      "善": 1481,
      "喇": 1482,
      "喉": 1483,
      "喊": 1484,
      "喋": 1485,
      "喎": 1486,
      "喔": 1487,
      "喘": 1488,
      "喙": 1489,
      "喚": 1490,
      "喜": 1491,
      "喝": 1492,
      "喧": 1493,
      "喩": 1494,
      "喪": 1495,
      "喫": 1496,
      "喬": 1497,
      "單": 1498,
      "喰": 1499,
      "喳": 1500,
      "喵": 1501,
      "営": 1502,
      "喷": 1503,
      "喺": 1504,
      "喻": 1505,
      "喽": 1506,
      "嗅": 1507,
      "嗇": 1508,
      "嗎": 1509,
      "嗑": 1510,
      "嗒": 1511,
      "嗓": 1512,
      "嗚": 1513,
      "嗜": 1514,
      "嗝": 1515,
      "嗡": 1516,
      "嗣": 1517,
      "嗤": 1518,
      "嗦": 1519,
      "嗨": 1520,
      "嗬": 1521,
      "嗯": 1522,
      "嗷": 1523,
      "嗽": 1524,
      "嗾": 1525,
      "嘀": 1526,
      "嘆": 1527,
      "嘉": 1528,
      "嘎": 1529,
      "嘔": 1530,
      "嘗": 1531,
      "嘘": 1532,
      "嘛": 1533,
      "嘞": 1534,
      "嘟": 1535,
      "嘢": 1536,
      "嘣": 1537,
      "嘩": 1538,
      "嘭": 1539,
      "嘱": 1540,
      "嘲": 1541,
      "嘴": 1542,
      "嘶": 1543,
      "嘻": 1544,
      "嘿": 1545,
      "噂": 1546,
      "噌": 1547,
      "噎": 1548,
      "噓": 1549,
      "噛": 1550,
      "噜": 1551,
      "噢": 1552,
      "器": 1553,
      "噩": 1554,
      "噪": 1555,
      "噫": 1556,
      "噬": 1557,
      "噴": 1558,
      "噸": 1559,
      "嚇": 1560,
      "嚎": 1561,
      "嚏": 1562,
      "嚐": 1563,
      "嚒": 1564,
      "嚓": 1565,
      "嚟": 1566,
      "嚢": 1567,
      "嚣": 1568,
      "嚮": 1569,
      "嚯": 1570,
      "嚴": 1571,
      "嚷": 1572,
      "嚼": 1573,
      "囀": 1574,
      "囁": 1575,
      "囉": 1576,
      "囊": 1577,
      "囑": 1578,
      "囔": 1579,
      "囚": 1580,
      "四": 1581,
      "回": 1582,
      "因": 1583,
      "团": 1584,
      "団": 1585,
      "囤": 1586,
      "园": 1587,
      "囮": 1588,
      "困": 1589,
      "囱": 1590,
      "囲": 1591,
      "図": 1592,
      "围": 1593,
      "囹": 1594,
      "固": 1595,
      "国": 1596,
      "图": 1597,
      "囿": 1598,
      "圃": 1599,
      "圄": 1600,
      "圆": 1601,
      "圈": 1602,
      "國": 1603,
      "圍": 1604,
      "圏": 1605,
      "園": 1606,
      "圓": 1607,
      "圖": 1608,
      "團": 1609,
      "土": 1610,
      "圣": 1611,
      "圧": 1612,
      "在": 1613,
      "圭": 1614,
      "地": 1615,
      "圳": 1616,
      "场": 1617,
      "圾": 1618,
      "址": 1619,
      "坂": 1620,
      "均": 1621,
      "坊": 1622,
      "坍": 1623,
      "坎": 1624,
      "坏": 1625,
      "坐": 1626,
      "坑": 1627,
      "块": 1628,
      "坚": 1629,
      "坛": 1630,
      "坝": 1631,
      "坞": 1632,
      "坟": 1633,
      "坠": 1634,
      "坡": 1635,
      "坤": 1636,
      "坦": 1637,
      "坨": 1638,
      "坩": 1639,
      "坪": 1640,
      "坯": 1641,
      "坳": 1642,
      "坴": 1643,
      "坻": 1644,
      "垀": 1645,
      "垂": 1646,
      "垃": 1647,
      "垄": 1648,
      "型": 1649,
      "垒": 1650,
      "垢": 1651,
      "垣": 1652,
      "垦": 1653,
      "垩": 1654,
      "垫": 1655,
      "垮": 1656,
      "埃": 1657,
      "埋": 1658,
      "城": 1659,
      "埒": 1660,
      "埔": 1661,
      "域": 1662,
      "埠": 1663,
      "執": 1664,
      "培": 1665,
      "基": 1666,
      "堀": 1667,
      "堂": 1668,
      "堅": 1669,
      "堆": 1670,
      "堑": 1671,
      "堕": 1672,
      "堝": 1673,
      "堡": 1674,
      "堤": 1675,
      "堪": 1676,
      "報": 1677,
      "場": 1678,
      "堵": 1679,
      "塀": 1680,
      "塁": 1681,
      "塊": 1682,
      "塌": 1683,
      "塑": 1684,
      "塔": 1685,
      "塗": 1686,
      "塘": 1687,
      "塚": 1688,
      "塞": 1689,
      "塩": 1690,
      "填": 1691,
      "塵": 1692,
      "塾": 1693,
      "境": 1694,
      "墅": 1695,
      "墓": 1696,
      "増": 1697,
      "墙": 1698,
      "墜": 1699,
      "增": 1700,
      "墟": 1701,
      "墨": 1702,
      "墩": 1703,
      "墮": 1704,
      "墳": 1705,
      "壁": 1706,
      "壇": 1707,
      "壊": 1708,
      "壌": 1709,
      "壑": 1710,
      "壓": 1711,
      "壕": 1712,
      "壞": 1713,
      "壤": 1714,
      "壩": 1715,
      "士": 1716,
      "壮": 1717,
      "壯": 1718,
      "声": 1719,
      "売": 1720,
      "壳": 1721,
      "壶": 1722,
      "壹": 1723,
      "壺": 1724,
      "壽": 1725,
      "处": 1726,
      "备": 1727,
      "変": 1728,
      "复": 1729,
      "夏": 1730,
      "夕": 1731,
      "外": 1732,
      "多": 1733,
      "夜": 1734,
      "够": 1735,
      "夠": 1736,
      "夢": 1737,
      "夥": 1738,
      "大": 1739,
      "天": 1740,
      "太": 1741,
      "夫": 1742,
      "夭": 1743,
      "央": 1744,
      "夯": 1745,
      "失": 1746,
      "头": 1747,
      "夷": 1748,
      "夸": 1749,
      "夹": 1750,
      "夺": 1751,
      "夾": 1752,
      "奄": 1753,
      "奇": 1754,
      "奈": 1755,
      "奉": 1756,
      "奋": 1757,
      "奎": 1758,
      "奏": 1759,
      "契": 1760,
      "奔": 1761,
      "奖": 1762,
      "套": 1763,
      "奠": 1764,
      "奢": 1765,
      "奥": 1766,
      "奧": 1767,
      "奨": 1768,
      "奪": 1769,
      "奮": 1770,
      "女": 1771,
      "奴": 1772,
      "奶": 1773,
      "奸": 1774,
      "她": 1775,
      "奻": 1776,
      "好": 1777,
      "奾": 1778,
      "如": 1779,
      "妃": 1780,
      "妄": 1781,
      "妆": 1782,
      "妇": 1783,
      "妈": 1784,
      "妊": 1785,
      "妍": 1786,
      "妒": 1787,
      "妓": 1788,
      "妖": 1789,
      "妙": 1790,
      "妞": 1791,
      "妥": 1792,
      "妨": 1793,
      "妩": 1794,
      "妬": 1795,
      "妮": 1796,
      "妲": 1797,
      "妳": 1798,
      "妹": 1799,
      "妻": 1800,
      "姆": 1801,
      "姉": 1802,
      "姊": 1803,
      "始": 1804,
      "姐": 1805,
      "姑": 1806,
      "姓": 1807,
      "委": 1808,
      "姗": 1809,
      "姘": 1810,
      "姚": 1811,
      "姜": 1812,
      "姥": 1813,
      "姦": 1814,
      "姨": 1815,
      "姪": 1816,
      "姫": 1817,
      "姬": 1818,
      "姻": 1819,
      "姿": 1820,
      "威": 1821,
      "娃": 1822,
      "娄": 1823,
      "娅": 1824,
      "娆": 1825,
      "娇": 1826,
      "娘": 1827,
      "娛": 1828,
      "娜": 1829,
      "娟": 1830,
      "娠": 1831,
      "娣": 1832,
      "娥": 1833,
      "娩": 1834,
      "娯": 1835,
      "娱": 1836,
      "娴": 1837,
      "娶": 1838,
      "娼": 1839,
      "婆": 1840,
      "婉": 1841,
      "婊": 1842,
      "婓": 1843,
      "婚": 1844,
      "婢": 1845,
      "婦": 1846,
      "婪": 1847,
      "婭": 1848,
      "婴": 1849,
      "婶": 1850,
      "婷": 1851,
      "婿": 1852,
      "媒": 1853,
      "媚": 1854,
      "媳": 1855,
      "媽": 1856,
      "嫁": 1857,
      "嫂": 1858,
      "嫉": 1859,
      "嫌": 1860,
      "嫖": 1861,
      "嫩": 1862,
      "嬉": 1863,
      "嬌": 1864,
      "嬢": 1865,
      "嬰": 1866,
      "嬴": 1867,
      "嬷": 1868,
      "孀": 1869,
      "孃": 1870,
      "子": 1871,
      "孑": 1872,
      "孔": 1873,
      "孕": 1874,
      "字": 1875,
      "存": 1876,
      "孙": 1877,
      "孜": 1878,
      "孝": 1879,
      "孟": 1880,
      "季": 1881,
      "孤": 1882,
      "学": 1883,
      "孩": 1884,
      "孫": 1885,
      "孬": 1886,
      "孳": 1887,
      "孵": 1888,
      "學": 1889,
      "孺": 1890,
      "孽": 1891,
      "宁": 1892,
      "它": 1893,
      "宅": 1894,
      "宇": 1895,
      "守": 1896,
      "安": 1897,
      "宋": 1898,
      "完": 1899,
      "宏": 1900,
      "宒": 1901,
      "宓": 1902,
      "宕": 1903,
      "宗": 1904,
      "官": 1905,
      "宙": 1906,
      "定": 1907,
      "宛": 1908,
      "宜": 1909,
      "宝": 1910,
      "实": 1911,
      "実": 1912,
      "宠": 1913,
      "审": 1914,
      "客": 1915,
      "宣": 1916,
      "室": 1917,
      "宥": 1918,
      "宪": 1919,
      "宫": 1920,
      "宮": 1921,
      "宰": 1922,
      "害": 1923,
      "宴": 1924,
      "宵": 1925,
      "家": 1926,
      "容": 1927,
      "宽": 1928,
      "宾": 1929,
      "宿": 1930,
      "寂": 1931,
      "寄": 1932,
      "寅": 1933,
      "密": 1934,
      "寇": 1935,
      "富": 1936,
      "寐": 1937,
      "寒": 1938,
      "寓": 1939,
      "寛": 1940,
      "寝": 1941,
      "寞": 1942,
      "察": 1943,
      "寡": 1944,
      "寢": 1945,
      "寤": 1946,
      "寥": 1947,
      "實": 1948,
      "寧": 1949,
      "寨": 1950,
      "審": 1951,
      "寫": 1952,
      "寬": 1953,
      "寮": 1954,
      "寰": 1955,
      "寵": 1956,
      "寶": 1957,
      "寸": 1958,
      "对": 1959,
      "寺": 1960,
      "寻": 1961,
      "导": 1962,
      "対": 1963,
      "寿": 1964,
      "封": 1965,
      "専": 1966,
      "射": 1967,
      "将": 1968,
      "將": 1969,
      "專": 1970,
      "尉": 1971,
      "尊": 1972,
      "尋": 1973,
      "對": 1974,
      "導": 1975,
      "小": 1976,
      "少": 1977,
      "尔": 1978,
      "尖": 1979,
      "尘": 1980,
      "尚": 1981,
      "尝": 1982,
      "尤": 1983,
      "尧": 1984,
      "尬": 1985,
      "就": 1986,
      "尴": 1987,
      "尸": 1988,
      "尹": 1989,
      "尺": 1990,
      "尻": 1991,
      "尼": 1992,
      "尽": 1993,
      "尾": 1994,
      "尿": 1995,
      "局": 1996,
      "屁": 1997,
      "层": 1998,
      "居": 1999,
      "屈": 2000,
      "屉": 2001,
      "届": 2002,
      "屋": 2003,
      "屌": 2004,
      "屍": 2005,
      "屎": 2006,
      "屏": 2007,
      "屑": 2008,
      "展": 2009,
      "属": 2010,
      "屠": 2011,
      "屡": 2012,
      "層": 2013,
      "履": 2014,
      "屬": 2015,
      "屯": 2016,
      "山": 2017,
      "屿": 2018,
      "岁": 2019,
      "岂": 2020,
      "岆": 2021,
      "岌": 2022,
      "岐": 2023,
      "岔": 2024,
      "岖": 2025,
      "岗": 2026,
      "岛": 2027,
      "岡": 2028,
      "岩": 2029,
      "岬": 2030,
      "岭": 2031,
      "岱": 2032,
      "岳": 2033,
      "岸": 2034,
      "岿": 2035,
      "峈": 2036,
      "峙": 2037,
      "峠": 2038,
      "峡": 2039,
      "峥": 2040,
      "峦": 2041,
      "峪": 2042,
      "峭": 2043,
      "峰": 2044,
      "島": 2045,
      "峻": 2046,
      "崇": 2047,
      "崎": 2048,
      "崔": 2049,
      "崖": 2050,
      "崛": 2051,
      "崩": 2052,
      "崭": 2053,
      "崴": 2054,
      "崽": 2055,
      "嵌": 2056,
      "嵐": 2057,
      "嵘": 2058,
      "嵴": 2059,
      "嶋": 2060,
      "巅": 2061,
      "巒": 2062,
      "川": 2063,
      "州": 2064,
      "巡": 2065,
      "巢": 2066,
      "巣": 2067,
      "工": 2068,
      "左": 2069,
      "巧": 2070,
      "巨": 2071,
      "巩": 2072,
      "巫": 2073,
      "差": 2074,
      "己": 2075,
      "已": 2076,
      "巳": 2077,
      "巴": 2078,
      "巷": 2079,
      "巻": 2080,
      "巾": 2081,
      "币": 2082,
      "市": 2083,
      "布": 2084,
      "帅": 2085,
      "帆": 2086,
      "师": 2087,
      "希": 2088,
      "帐": 2089,
      "帕": 2090,
      "帖": 2091,
      "帘": 2092,
      "帛": 2093,
      "帜": 2094,
      "帝": 2095,
      "帥": 2096,
      "带": 2097,
      "帧": 2098,
      "師": 2099,
      "席": 2100,
      "帮": 2101,
      "帯": 2102,
      "帰": 2103,
      "帳": 2104,
      "帶": 2105,
      "帷": 2106,
      "常": 2107,
      "帽": 2108,
      "幅": 2109,
      "幇": 2110,
      "幌": 2111,
      "幕": 2112,
      "幢": 2113,
      "幣": 2114,
      "幫": 2115,
      "干": 2116,
      "平": 2117,
      "年": 2118,
      "并": 2119,
      "幸": 2120,
      "幹": 2121,
      "幺": 2122,
      "幻": 2123,
      "幼": 2124,
      "幽": 2125,
      "幾": 2126,
      "广": 2127,
      "庁": 2128,
      "広": 2129,
      "庄": 2130,
      "庆": 2131,
      "庇": 2132,
      "床": 2133,
      "序": 2134,
      "库": 2135,
      "应": 2136,
      "底": 2137,
      "店": 2138,
      "庙": 2139,
      "府": 2140,
      "庞": 2141,
      "废": 2142,
      "度": 2143,
      "座": 2144,
      "庫": 2145,
      "庭": 2146,
      "庶": 2147,
      "康": 2148,
      "庸": 2149,
      "廁": 2150,
      "廃": 2151,
      "廉": 2152,
      "廊": 2153,
      "廓": 2154,
      "廖": 2155,
      "廚": 2156,
      "廠": 2157,
      "廢": 2158,
      "廣": 2159,
      "廳": 2160,
      "延": 2161,
      "廷": 2162,
      "建": 2163,
      "廻": 2164,
      "开": 2165,
      "弁": 2166,
      "异": 2167,
      "弃": 2168,
      "弄": 2169,
      "弈": 2170,
      "弊": 2171,
      "式": 2172,
      "弑": 2173,
      "弓": 2174,
      "弔": 2175,
      "引": 2176,
      "弗": 2177,
      "弘": 2178,
      "弛": 2179,
      "弟": 2180,
      "张": 2181,
      "弥": 2182,
      "弦": 2183,
      "弧": 2184,
      "弭": 2185,
      "弯": 2186,
      "弱": 2187,
      "張": 2188,
      "強": 2189,
      "弹": 2190,
      "强": 2191,
      "弾": 2192,
      "彆": 2193,
      "彈": 2194,
      "彌": 2195,
      "归": 2196,
      "当": 2197,
      "录": 2198,
      "彗": 2199,
      "彙": 2200,
      "形": 2201,
      "彥": 2202,
      "彦": 2203,
      "彩": 2204,
      "彪": 2205,
      "彫": 2206,
      "彭": 2207,
      "彰": 2208,
      "影": 2209,
      "彷": 2210,
      "役": 2211,
      "彻": 2212,
      "彼": 2213,
      "彿": 2214,
      "往": 2215,
      "征": 2216,
      "径": 2217,
      "待": 2218,
      "徇": 2219,
      "很": 2220,
      "徉": 2221,
      "徊": 2222,
      "律": 2223,
      "後": 2224,
      "徐": 2225,
      "徒": 2226,
      "従": 2227,
      "徕": 2228,
      "得": 2229,
      "徘": 2230,
      "徙": 2231,
      "徜": 2232,
      "從": 2233,
      "御": 2234,
      "復": 2235,
      "循": 2236,
      "微": 2237,
      "徳": 2238,
      "徴": 2239,
      "德": 2240,
      "徹": 2241,
      "徽": 2242,
      "心": 2243,
      "必": 2244,
      "忆": 2245,
      "忌": 2246,
      "忍": 2247,
      "忏": 2248,
      "忒": 2249,
      "志": 2250,
      "忘": 2251,
      "忙": 2252,
      "応": 2253,
      "忠": 2254,
      "忤": 2255,
      "忧": 2256,
      "快": 2257,
      "忭": 2258,
      "忱": 2259,
      "念": 2260,
      "忽": 2261,
      "怀": 2262,
      "态": 2263,
      "怂": 2264,
      "怎": 2265,
      "怒": 2266,
      "怕": 2267,
      "怖": 2268,
      "怜": 2269,
      "思": 2270,
      "怠": 2271,
      "怡": 2272,
      "急": 2273,
      "性": 2274,
      "怨": 2275,
      "怪": 2276,
      "怯": 2277,
      "总": 2278,
      "恁": 2279,
      "恅": 2280,
      "恆": 2281,
      "恋": 2282,
      "恍": 2283,
      "恐": 2284,
      "恒": 2285,
      "恕": 2286,
      "恙": 2287,
      "恢": 2288,
      "恤": 2289,
      "恥": 2290,
      "恨": 2291,
      "恩": 2292,
      "恪": 2293,
      "恫": 2294,
      "恬": 2295,
      "恭": 2296,
      "息": 2297,
      "恰": 2298,
      "恳": 2299,
      "恵": 2300,
      "恶": 2301,
      "恼": 2302,
      "恿": 2303,
      "悄": 2304,
      "悅": 2305,
      "悉": 2306,
      "悍": 2307,
      "悔": 2308,
      "悖": 2309,
      "悗": 2310,
      "悚": 2311,
      "悛": 2312,
      "悝": 2313,
      "悟": 2314,
      "悠": 2315,
      "患": 2316,
      "悦": 2317,
      "悧": 2318,
      "您": 2319,
      "悩": 2320,
      "悪": 2321,
      "悬": 2322,
      "悯": 2323,
      "悲": 2324,
      "悶": 2325,
      "悸": 2326,
      "悼": 2327,
      "情": 2328,
      "惊": 2329,
      "惋": 2330,
      "惑": 2331,
      "惕": 2332,
      "惚": 2333,
      "惛": 2334,
      "惜": 2335,
      "惟": 2336,
      "惠": 2337,
      "惡": 2338,
      "惦": 2339,
      "惧": 2340,
      "惨": 2341,
      "惩": 2342,
      "惫": 2343,
      "惭": 2344,
      "惮": 2345,
      "惯": 2346,
      "惰": 2347,
      "惱": 2348,
      "想": 2349,
      "惶": 2350,
      "惹": 2351,
      "惺": 2352,
      "愁": 2353,
      "愆": 2354,
      "愈": 2355,
      "愉": 2356,
      "意": 2357,
      "愕": 2358,
      "愚": 2359,
      "愛": 2360,
      "感": 2361,
      "愣": 2362,
      "愤": 2363,
      "愧": 2364,
      "愿": 2365,
      "慄": 2366,
      "慈": 2367,
      "態": 2368,
      "慌": 2369,
      "慎": 2370,
      "慑": 2371,
      "慕": 2372,
      "慘": 2373,
      "慢": 2374,
      "慣": 2375,
      "慧": 2376,
      "慨": 2377,
      "慮": 2378,
      "慰": 2379,
      "慶": 2380,
      "慷": 2381,
      "慾": 2382,
      "憂": 2383,
      "憊": 2384,
      "憋": 2385,
      "憎": 2386,
      "憐": 2387,
      "憑": 2388,
      "憒": 2389,
      "憚": 2390,
      "憤": 2391,
      "憧": 2392,
      "憩": 2393,
      "憫": 2394,
      "憬": 2395,
      "憲": 2396,
      "憶": 2397,
      "憾": 2398,
      "懂": 2399,
      "懇": 2400,
      "懈": 2401,
      "應": 2402,
      "懊": 2403,
      "懐": 2404,
      "懑": 2405,
      "懒": 2406,
      "懦": 2407,
      "懧": 2408,
      "懲": 2409,
      "懶": 2410,
      "懷": 2411,
      "懸": 2412,
      "懼": 2413,
      "懿": 2414,
      "戀": 2415,
      "戈": 2416,
      "戊": 2417,
      "戍": 2418,
      "戏": 2419,
      "成": 2420,
      "我": 2421,
      "戒": 2422,
      "或": 2423,
      "战": 2424,
      "戚": 2425,
      "戛": 2426,
      "戟": 2427,
      "戦": 2428,
      "截": 2429,
      "戮": 2430,
      "戯": 2431,
      "戰": 2432,
      "戲": 2433,
      "戳": 2434,
      "戴": 2435,
      "戶": 2436,
      "户": 2437,
      "戸": 2438,
      "戻": 2439,
      "房": 2440,
      "所": 2441,
      "扁": 2442,
      "扂": 2443,
      "扇": 2444,
      "扈": 2445,
      "扉": 2446,
      "手": 2447,
      "才": 2448,
      "扎": 2449,
      "扑": 2450,
      "扒": 2451,
      "打": 2452,
      "扔": 2453,
      "払": 2454,
      "托": 2455,
      "扛": 2456,
      "扞": 2457,
      "扣": 2458,
      "执": 2459,
      "扩": 2460,
      "扪": 2461,
      "扫": 2462,
      "扬": 2463,
      "扭": 2464,
      "扮": 2465,
      "扯": 2466,
      "扰": 2467,
      "扱": 2468,
      "扳": 2469,
      "扶": 2470,
      "批": 2471,
      "扼": 2472,
      "找": 2473,
      "承": 2474,
      "技": 2475,
      "抄": 2476,
      "抉": 2477,
      "把": 2478,
      "抑": 2479,
      "抒": 2480,
      "抓": 2481,
      "投": 2482,
      "抖": 2483,
      "抗": 2484,
      "折": 2485,
      "抚": 2486,
      "抛": 2487,
      "抜": 2488,
      "択": 2489,
      "抡": 2490,
      "抢": 2491,
      "护": 2492,
      "报": 2493,
      "抨": 2494,
      "披": 2495,
      "抬": 2496,
      "抱": 2497,
      "抵": 2498,
      "抹": 2499,
      "押": 2500,
      "抽": 2501,
      "拂": 2502,
      "担": 2503,
      "拆": 2504,
      "拇": 2505,
      "拈": 2506,
      "拉": 2507,
      "拋": 2508,
      "拌": 2509,
      "拍": 2510,
      "拎": 2511,
      "拐": 2512,
      "拒": 2513,
      "拓": 2514,
      "拔": 2515,
      "拖": 2516,
      "拗": 2517,
      "拘": 2518,
      "拙": 2519,
      "拚": 2520,
      "招": 2521,
      "拜": 2522,
      "拝": 2523,
      "拟": 2524,
      "拠": 2525,
      "拡": 2526,
      "拢": 2527,
      "拣": 2528,
      "拥": 2529,
      "拦": 2530,
      "拧": 2531,
      "拨": 2532,
      "择": 2533,
      "括": 2534,
      "拭": 2535,
      "拮": 2536,
      "拯": 2537,
      "拱": 2538,
      "拳": 2539,
      "拴": 2540,
      "拶": 2541,
      "拷": 2542,
      "拸": 2543,
      "拼": 2544,
      "拽": 2545,
      "拾": 2546,
      "拿": 2547,
      "持": 2548,
      "挂": 2549,
      "指": 2550,
      "按": 2551,
      "挑": 2552,
      "挖": 2553,
      "挙": 2554,
      "挚": 2555,
      "挝": 2556,
      "挞": 2557,
      "挟": 2558,
      "挠": 2559,
      "挡": 2560,
      "挣": 2561,
      "挤": 2562,
      "挥": 2563,
      "挨": 2564,
      "挪": 2565,
      "挫": 2566,
      "振": 2567,
      "挲": 2568,
      "挺": 2569,
      "挽": 2570,
      "挾": 2571,
      "挿": 2572,
      "捂": 2573,
      "捅": 2574,
      "捆": 2575,
      "捉": 2576,
      "捍": 2577,
      "捏": 2578,
      "捐": 2579,
      "捕": 2580,
      "捗": 2581,
      "捜": 2582,
      "捞": 2583,
      "损": 2584,
      "捡": 2585,
      "换": 2586,
      "捣": 2587,
      "捧": 2588,
      "捨": 2589,
      "捩": 2590,
      "据": 2591,
      "捲": 2592,
      "捷": 2593,
      "捻": 2594,
      "掀": 2595,
      "掂": 2596,
      "掃": 2597,
      "掇": 2598,
      "授": 2599,
      "掉": 2600,
      "掌": 2601,
      "掍": 2602,
      "掏": 2603,
      "掐": 2604,
      "排": 2605,
      "掘": 2606,
      "掛": 2607,
      "掟": 2608,
      "掠": 2609,
      "採": 2610,
      "探": 2611,
      "接": 2612,
      "控": 2613,
      "推": 2614,
      "掩": 2615,
      "措": 2616,
      "掬": 2617,
      "掰": 2618,
      "掲": 2619,
      "掴": 2620,
      "掷": 2621,
      "掺": 2622,
      "掻": 2623,
      "揀": 2624,
      "揃": 2625,
      "揆": 2626,
      "揉": 2627,
      "揍": 2628,
      "描": 2629,
      "提": 2630,
      "插": 2631,
      "揚": 2632,
      "換": 2633,
      "握": 2634,
      "揣": 2635,
      "揩": 2636,
      "揪": 2637,
      "揭": 2638,
      "揮": 2639,
      "援": 2640,
      "揺": 2641,
      "揽": 2642,
      "搁": 2643,
      "搂": 2644,
      "搅": 2645,
      "損": 2646,
      "搏": 2647,
      "搔": 2648,
      "搖": 2649,
      "搗": 2650,
      "搜": 2651,
      "搞": 2652,
      "搬": 2653,
      "搭": 2654,
      "搶": 2655,
      "携": 2656,
      "搽": 2657,
      "搾": 2658,
      "摀": 2659,
      "摁": 2660,
      "摂": 2661,
      "摄": 2662,
      "摆": 2663,
      "摇": 2664,
      "摈": 2665,
      "摊": 2666,
      "摒": 2667,
      "摔": 2668,
      "摘": 2669,
      "摧": 2670,
      "摩": 2671,
      "摸": 2672,
      "摹": 2673,
      "摺": 2674,
      "撂": 2675,
      "撃": 2676,
      "撇": 2677,
      "撐": 2678,
      "撑": 2679,
      "撒": 2680,
      "撕": 2681,
      "撞": 2682,
      "撤": 2683,
      "撫": 2684,
      "撬": 2685,
      "播": 2686,
      "撮": 2687,
      "撰": 2688,
      "撲": 2689,
      "撵": 2690,
      "撹": 2691,
      "撼": 2692,
      "撿": 2693,
      "擁": 2694,
      "擂": 2695,
      "擅": 2696,
      "擇": 2697,
      "擊": 2698,
      "擋": 2699,
      "操": 2700,
      "擎": 2701,
      "擒": 2702,
      "擔": 2703,
      "據": 2704,
      "擠": 2705,
      "擦": 2706,
      "擬": 2707,
      "擱": 2708,
      "擲": 2709,
      "擴": 2710,
      "擾": 2711,
      "攀": 2712,
      "攏": 2713,
      "攒": 2714,
      "攔": 2715,
      "攜": 2716,
      "攝": 2717,
      "攣": 2718,
      "攥": 2719,
      "攪": 2720,
      "攫": 2721,
      "支": 2722,
      "收": 2723,
      "攸": 2724,
      "改": 2725,
      "攻": 2726,
      "放": 2727,
      "政": 2728,
      "故": 2729,
      "效": 2730,
      "敌": 2731,
      "敏": 2732,
      "救": 2733,
      "敕": 2734,
      "敖": 2735,
      "敗": 2736,
      "敘": 2737,
      "教": 2738,
      "敛": 2739,
      "敞": 2740,
      "敢": 2741,
      "散": 2742,
      "敦": 2743,
      "敬": 2744,
      "数": 2745,
      "敲": 2746,
      "整": 2747,
      "敵": 2748,
      "敷": 2749,
      "數": 2750,
      "斃": 2751,
      "文": 2752,
      "斉": 2753,
      "斋": 2754,
      "斌": 2755,
      "斎": 2756,
      "斐": 2757,
      "斑": 2758,
      "斕": 2759,
      "斗": 2760,
      "料": 2761,
      "斜": 2762,
      "斟": 2763,
      "斡": 2764,
      "斤": 2765,
      "斥": 2766,
      "斧": 2767,
      "斩": 2768,
      "斬": 2769,
      "断": 2770,
      "斯": 2771,
      "新": 2772,
      "斷": 2773,
      "方": 2774,
      "於": 2775,
      "施": 2776,
      "旁": 2777,
      "旅": 2778,
      "旋": 2779,
      "族": 2780,
      "旗": 2781,
      "无": 2782,
      "既": 2783,
      "日": 2784,
      "旦": 2785,
      "旧": 2786,
      "旨": 2787,
      "早": 2788,
      "旬": 2789,
      "旱": 2790,
      "时": 2791,
      "旷": 2792,
      "旺": 2793,
      "昂": 2794,
      "昆": 2795,
      "昇": 2796,
      "昌": 2797,
      "明": 2798,
      "昏": 2799,
      "昒": 2800,
      "易": 2801,
      "昔": 2802,
      "星": 2803,
      "映": 2804,
      "春": 2805,
      "昧": 2806,
      "昨": 2807,
      "昭": 2808,
      "是": 2809,
      "昵": 2810,
      "昼": 2811,
      "显": 2812,
      "時": 2813,
      "晃": 2814,
      "晋": 2815,
      "晒": 2816,
      "晓": 2817,
      "晕": 2818,
      "晚": 2819,
      "晟": 2820,
      "晤": 2821,
      "晦": 2822,
      "晨": 2823,
      "晩": 2824,
      "普": 2825,
      "景": 2826,
      "晰": 2827,
      "晴": 2828,
      "晶": 2829,
      "智": 2830,
      "晾": 2831,
      "暁": 2832,
      "暂": 2833,
      "暇": 2834,
      "暈": 2835,
      "暑": 2836,
      "暖": 2837,
      "暗": 2838,
      "暢": 2839,
      "暦": 2840,
      "暧": 2841,
      "暨": 2842,
      "暫": 2843,
      "暮": 2844,
      "暴": 2845,
      "暹": 2846,
      "曇": 2847,
      "曉": 2848,
      "曖": 2849,
      "曙": 2850,
      "曜": 2851,
      "曝": 2852,
      "曦": 2853,
      "曰": 2854,
      "曲": 2855,
      "更": 2856,
      "書": 2857,
      "曹": 2858,
      "曼": 2859,
      "曽": 2860,
      "曾": 2861,
      "替": 2862,
      "最": 2863,
      "會": 2864,
      "月": 2865,
      "有": 2866,
      "朋": 2867,
      "服": 2868,
      "朔": 2869,
      "朕": 2870,
      "朗": 2871,
      "望": 2872,
      "朝": 2873,
      "期": 2874,
      "朦": 2875,
      "朧": 2876,
      "木": 2877,
      "未": 2878,
      "末": 2879,
      "本": 2880,
      "札": 2881,
      "朮": 2882,
      "术": 2883,
      "朱": 2884,
      "朴": 2885,
      "朵": 2886,
      "机": 2887,
      "朽": 2888,
      "杀": 2889,
      "杂": 2890,
      "权": 2891,
      "杅": 2892,
      "杆": 2893,
      "杉": 2894,
      "李": 2895,
      "杏": 2896,
      "材": 2897,
      "村": 2898,
      "杖": 2899,
      "杜": 2900,
      "杞": 2901,
      "束": 2902,
      "杠": 2903,
      "条": 2904,
      "来": 2905,
      "杨": 2906,
      "杭": 2907,
      "杯": 2908,
      "杰": 2909,
      "東": 2910,
      "松": 2911,
      "板": 2912,
      "极": 2913,
      "构": 2914,
      "枉": 2915,
      "析": 2916,
      "枑": 2917,
      "枕": 2918,
      "林": 2919,
      "枚": 2920,
      "果": 2921,
      "枝": 2922,
      "枠": 2923,
      "枢": 2924,
      "枣": 2925,
      "枪": 2926,
      "枭": 2927,
      "枯": 2928,
      "架": 2929,
      "枷": 2930,
      "柁": 2931,
      "柄": 2932,
      "柏": 2933,
      "某": 2934,
      "柑": 2935,
      "染": 2936,
      "柔": 2937,
      "柚": 2938,
      "柜": 2939,
      "柠": 2940,
      "查": 2941,
      "柬": 2942,
      "柯": 2943,
      "柰": 2944,
      "柱": 2945,
      "柲": 2946,
      "柳": 2947,
      "柴": 2948,
      "柵": 2949,
      "査": 2950,
      "柿": 2951,
      "栄": 2952,
      "栅": 2953,
      "标": 2954,
      "栈": 2955,
      "栉": 2956,
      "栋": 2957,
      "栎": 2958,
      "栏": 2959,
      "树": 2960,
      "栓": 2961,
      "栖": 2962,
      "栗": 2963,
      "校": 2964,
      "栩": 2965,
      "株": 2966,
      "样": 2967,
      "核": 2968,
      "根": 2969,
      "格": 2970,
      "栽": 2971,
      "桀": 2972,
      "桁": 2973,
      "桂": 2974,
      "桃": 2975,
      "桅": 2976,
      "框": 2977,
      "案": 2978,
      "桌": 2979,
      "桎": 2980,
      "桑": 2981,
      "桔": 2982,
      "桜": 2983,
      "桝": 2984,
      "桟": 2985,
      "桢": 2986,
      "档": 2987,
      "桥": 2988,
      "桦": 2989,
      "桩": 2990,
      "桲": 2991,
      "桶": 2992,
      "梁": 2993,
      "梅": 2994,
      "梆": 2995,
      "梏": 2996,
      "梒": 2997,
      "梗": 2998,
      "條": 2999,
      "梢": 3000,
      "梦": 3001,
      "梧": 3002,
      "梨": 3003,
      "梭": 3004,
      "梯": 3005,
      "械": 3006,
      "梱": 3007,
      "梳": 3008,
      "梵": 3009,
      "梶": 3010,
      "检": 3011,
      "棄": 3012,
      "棉": 3013,
      "棋": 3014,
      "棍": 3015,
      "棒": 3016,
      "棕": 3017,
      "棗": 3018,
      "棘": 3019,
      "棚": 3020,
      "棟": 3021,
      "棠": 3022,
      "森": 3023,
      "棱": 3024,
      "棲": 3025,
      "棵": 3026,
      "棺": 3027,
      "椄": 3028,
      "椅": 3029,
      "植": 3030,
      "椎": 3031,
      "椒": 3032,
      "検": 3033,
      "椭": 3034,
      "椰": 3035,
      "椿": 3036,
      "楊": 3037,
      "楓": 3038,
      "楚": 3039,
      "楛": 3040,
      "楝": 3041,
      "楠": 3042,
      "楢": 3043,
      "楣": 3044,
      "楦": 3045,
      "業": 3046,
      "極": 3047,
      "楷": 3048,
      "楼": 3049,
      "楽": 3050,
      "概": 3051,
      "榄": 3052,
      "榅": 3053,
      "榈": 3054,
      "榎": 3055,
      "榔": 3056,
      "榜": 3057,
      "榨": 3058,
      "榮": 3059,
      "榴": 3060,
      "榻": 3061,
      "槁": 3062,
      "構": 3063,
      "槌": 3064,
      "槍": 3065,
      "様": 3066,
      "槙": 3067,
      "槛": 3068,
      "槟": 3069,
      "槲": 3070,
      "槽": 3071,
      "樁": 3072,
      "樂": 3073,
      "樓": 3074,
      "標": 3075,
      "樟": 3076,
      "模": 3077,
      "樣": 3078,
      "権": 3079,
      "横": 3080,
      "樫": 3081,
      "樱": 3082,
      "樹": 3083,
      "樺": 3084,
      "樽": 3085,
      "橄": 3086,
      "橇": 3087,
      "橋": 3088,
      "橘": 3089,
      "橙": 3090,
      "機": 3091,
      "橡": 3092,
      "橫": 3093,
      "橱": 3094,
      "檀": 3095,
      "檎": 3096,
      "檔": 3097,
      "檢": 3098,
      "檬": 3099,
      "檯": 3100,
      "檻": 3101,
      "櫑": 3102,
      "櫓": 3103,
      "櫚": 3104,
      "欄": 3105,
      "權": 3106,
      "欑": 3107,
      "欒": 3108,
      "欠": 3109,
      "次": 3110,
      "欢": 3111,
      "欣": 3112,
      "欧": 3113,
      "欲": 3114,
      "欸": 3115,
      "欺": 3116,
      "款": 3117,
      "歇": 3118,
      "歉": 3119,
      "歌": 3120,
      "歐": 3121,
      "歓": 3122,
      "歡": 3123,
      "止": 3124,
      "正": 3125,
      "此": 3126,
      "步": 3127,
      "武": 3128,
      "歧": 3129,
      "歩": 3130,
      "歪": 3131,
      "歯": 3132,
      "歲": 3133,
      "歳": 3134,
      "歴": 3135,
      "歷": 3136,
      "歸": 3137,
      "歹": 3138,
      "死": 3139,
      "歼": 3140,
      "殃": 3141,
      "殆": 3142,
      "殉": 3143,
      "殊": 3144,
      "残": 3145,
      "殒": 3146,
      "殓": 3147,
      "殖": 3148,
      "殘": 3149,
      "殴": 3150,
      "段": 3151,
      "殷": 3152,
      "殺": 3153,
      "殻": 3154,
      "殼": 3155,
      "殿": 3156,
      "毀": 3157,
      "毁": 3158,
      "毅": 3159,
      "毋": 3160,
      "母": 3161,
      "毎": 3162,
      "每": 3163,
      "毒": 3164,
      "比": 3165,
      "毕": 3166,
      "毖": 3167,
      "毗": 3168,
      "毙": 3169,
      "毛": 3170,
      "毞": 3171,
      "毡": 3172,
      "毫": 3173,
      "毯": 3174,
      "氏": 3175,
      "氐": 3176,
      "民": 3177,
      "氓": 3178,
      "气": 3179,
      "気": 3180,
      "氛": 3181,
      "氟": 3182,
      "氢": 3183,
      "氣": 3184,
      "氧": 3185,
      "氨": 3186,
      "氪": 3187,
      "氮": 3188,
      "氯": 3189,
      "氰": 3190,
      "水": 3191,
      "氷": 3192,
      "永": 3193,
      "氾": 3194,
      "汀": 3195,
      "汁": 3196,
      "求": 3197,
      "汇": 3198,
      "汉": 3199,
      "汎": 3200,
      "汐": 3201,
      "汗": 3202,
      "汚": 3203,
      "汝": 3204,
      "汞": 3205,
      "江": 3206,
      "池": 3207,
      "污": 3208,
      "汤": 3209,
      "汪": 3210,
      "汰": 3211,
      "汲": 3212,
      "汶": 3213,
      "汹": 3214,
      "決": 3215,
      "汽": 3216,
      "沁": 3217,
      "沂": 3218,
      "沃": 3219,
      "沈": 3220,
      "沉": 3221,
      "沌": 3222,
      "沐": 3223,
      "沒": 3224,
      "沖": 3225,
      "沙": 3226,
      "沛": 3227,
      "沟": 3228,
      "没": 3229,
      "沢": 3230,
      "沥": 3231,
      "沦": 3232,
      "沧": 3233,
      "沫": 3234,
      "沮": 3235,
      "河": 3236,
      "沸": 3237,
      "油": 3238,
      "治": 3239,
      "沼": 3240,
      "沾": 3241,
      "沿": 3242,
      "況": 3243,
      "泄": 3244,
      "泉": 3245,
      "泊": 3246,
      "泌": 3247,
      "法": 3248,
      "泗": 3249,
      "泛": 3250,
      "泞": 3251,
      "泡": 3252,
      "波": 3253,
      "泣": 3254,
      "泥": 3255,
      "注": 3256,
      "泪": 3257,
      "泰": 3258,
      "泳": 3259,
      "泵": 3260,
      "泷": 3261,
      "泻": 3262,
      "泼": 3263,
      "泽": 3264,
      "洁": 3265,
      "洄": 3266,
      "洋": 3267,
      "洒": 3268,
      "洗": 3269,
      "洙": 3270,
      "洛": 3271,
      "洞": 3272,
      "洟": 3273,
      "津": 3274,
      "洩": 3275,
      "洪": 3276,
      "洱": 3277,
      "洲": 3278,
      "活": 3279,
      "洼": 3280,
      "洽": 3281,
      "派": 3282,
      "流": 3283,
      "浄": 3284,
      "浅": 3285,
      "浆": 3286,
      "浇": 3287,
      "测": 3288,
      "济": 3289,
      "浏": 3290,
      "浑": 3291,
      "浓": 3292,
      "浜": 3293,
      "浣": 3294,
      "浦": 3295,
      "浩": 3296,
      "浪": 3297,
      "浬": 3298,
      "浮": 3299,
      "浴": 3300,
      "海": 3301,
      "浸": 3302,
      "涂": 3303,
      "涅": 3304,
      "消": 3305,
      "涉": 3306,
      "涌": 3307,
      "涎": 3308,
      "涕": 3309,
      "涙": 3310,
      "涛": 3311,
      "涜": 3312,
      "涝": 3313,
      "涟": 3314,
      "涡": 3315,
      "涣": 3316,
      "涤": 3317,
      "润": 3318,
      "涨": 3319,
      "涩": 3320,
      "涮": 3321,
      "涯": 3322,
      "液": 3323,
      "涴": 3324,
      "涵": 3325,
      "涸": 3326,
      "涼": 3327,
      "淀": 3328,
      "淆": 3329,
      "淇": 3330,
      "淋": 3331,
      "淌": 3332,
      "淏": 3333,
      "淑": 3334,
      "淘": 3335,
      "淚": 3336,
      "淡": 3337,
      "淤": 3338,
      "淨": 3339,
      "淪": 3340,
      "淫": 3341,
      "淮": 3342,
      "深": 3343,
      "淳": 3344,
      "淵": 3345,
      "混": 3346,
      "淹": 3347,
      "添": 3348,
      "清": 3349,
      "渇": 3350,
      "済": 3351,
      "渉": 3352,
      "渊": 3353,
      "渋": 3354,
      "渍": 3355,
      "渎": 3356,
      "渐": 3357,
      "渓": 3358,
      "渔": 3359,
      "渗": 3360,
      "減": 3361,
      "渝": 3362,
      "渠": 3363,
      "渡": 3364,
      "渣": 3365,
      "渥": 3366,
      "渦": 3367,
      "温": 3368,
      "測": 3369,
      "渭": 3370,
      "港": 3371,
      "渴": 3372,
      "游": 3373,
      "渺": 3374,
      "湄": 3375,
      "湎": 3376,
      "湖": 3377,
      "湛": 3378,
      "湧": 3379,
      "湯": 3380,
      "湾": 3381,
      "湿": 3382,
      "満": 3383,
      "溃": 3384,
      "溅": 3385,
      "溉": 3386,
      "源": 3387,
      "準": 3388,
      "溘": 3389,
      "溜": 3390,
      "溝": 3391,
      "溢": 3392,
      "溪": 3393,
      "溫": 3394,
      "溯": 3395,
      "溴": 3396,
      "溶": 3397,
      "溺": 3398,
      "溼": 3399,
      "滅": 3400,
      "滋": 3401,
      "滑": 3402,
      "滓": 3403,
      "滔": 3404,
      "滕": 3405,
      "滚": 3406,
      "滝": 3407,
      "滞": 3408,
      "满": 3409,
      "滤": 3410,
      "滥": 3411,
      "滨": 3412,
      "滩": 3413,
      "滲": 3414,
      "滴": 3415,
      "滾": 3416,
      "滿": 3417,
      "漁": 3418,
      "漂": 3419,
      "漆": 3420,
      "漏": 3421,
      "漑": 3422,
      "漓": 3423,
      "演": 3424,
      "漕": 3425,
      "漠": 3426,
      "漢": 3427,
      "漩": 3428,
      "漪": 3429,
      "漫": 3430,
      "漬": 3431,
      "漯": 3432,
      "漱": 3433,
      "漲": 3434,
      "漸": 3435,
      "漾": 3436,
      "漿": 3437,
      "潅": 3438,
      "潇": 3439,
      "潔": 3440,
      "潘": 3441,
      "潛": 3442,
      "潜": 3443,
      "潢": 3444,
      "潤": 3445,
      "潭": 3446,
      "潮": 3447,
      "潰": 3448,
      "潺": 3449,
      "澄": 3450,
      "澈": 3451,
      "澜": 3452,
      "澡": 3453,
      "澤": 3454,
      "澪": 3455,
      "澳": 3456,
      "澹": 3457,
      "激": 3458,
      "濁": 3459,
      "濃": 3460,
      "濑": 3461,
      "濒": 3462,
      "濛": 3463,
      "濟": 3464,
      "濡": 3465,
      "濫": 3466,
      "濯": 3467,
      "濳": 3468,
      "瀑": 3469,
      "瀕": 3470,
      "瀚": 3471,
      "瀝": 3472,
      "瀬": 3473,
      "灌": 3474,
      "灘": 3475,
      "灣": 3476,
      "火": 3477,
      "灭": 3478,
      "灯": 3479,
      "灰": 3480,
      "灵": 3481,
      "灶": 3482,
      "灸": 3483,
      "灼": 3484,
      "災": 3485,
      "灾": 3486,
      "灿": 3487,
      "炉": 3488,
      "炊": 3489,
      "炎": 3490,
      "炒": 3491,
      "炕": 3492,
      "炖": 3493,
      "炙": 3494,
      "炫": 3495,
      "炬": 3496,
      "炭": 3497,
      "炮": 3498,
      "炯": 3499,
      "炳": 3500,
      "炸": 3501,
      "点": 3502,
      "為": 3503,
      "炼": 3504,
      "烁": 3505,
      "烂": 3506,
      "烃": 3507,
      "烈": 3508,
      "烊": 3509,
      "烏": 3510,
      "烘": 3511,
      "烙": 3512,
      "烛": 3513,
      "烟": 3514,
      "烤": 3515,
      "烦": 3516,
      "烧": 3517,
      "烩": 3518,
      "烫": 3519,
      "烬": 3520,
      "热": 3521,
      "烯": 3522,
      "烷": 3523,
      "烹": 3524,
      "焉": 3525,
      "焊": 3526,
      "焔": 3527,
      "焕": 3528,
      "焙": 3529,
      "焚": 3530,
      "無": 3531,
      "焦": 3532,
      "焰": 3533,
      "然": 3534,
      "焼": 3535,
      "煅": 3536,
      "煉": 3537,
      "煌": 3538,
      "煎": 3539,
      "煙": 3540,
      "煞": 3541,
      "煤": 3542,
      "照": 3543,
      "煩": 3544,
      "煮": 3545,
      "煲": 3546,
      "煽": 3547,
      "熄": 3548,
      "熊": 3549,
      "熏": 3550,
      "熔": 3551,
      "熙": 3552,
      "熟": 3553,
      "熨": 3554,
      "熬": 3555,
      "熱": 3556,
      "熾": 3557,
      "燃": 3558,
      "燈": 3559,
      "燎": 3560,
      "燐": 3561,
      "燒": 3562,
      "燕": 3563,
      "燙": 3564,
      "營": 3565,
      "燠": 3566,
      "燥": 3567,
      "燦": 3568,
      "燭": 3569,
      "燮": 3570,
      "燻": 3571,
      "燼": 3572,
      "爆": 3573,
      "爐": 3574,
      "爛": 3575,
      "爪": 3576,
      "爬": 3577,
      "爭": 3578,
      "爱": 3579,
      "爲": 3580,
      "爵": 3581,
      "父": 3582,
      "爷": 3583,
      "爸": 3584,
      "爹": 3585,
      "爺": 3586,
      "爽": 3587,
      "爾": 3588,
      "牆": 3589,
      "片": 3590,
      "版": 3591,
      "牌": 3592,
      "牒": 3593,
      "牙": 3594,
      "牛": 3595,
      "牝": 3596,
      "牟": 3597,
      "牠": 3598,
      "牡": 3599,
      "牢": 3600,
      "牦": 3601,
      "牧": 3602,
      "物": 3603,
      "牲": 3604,
      "牵": 3605,
      "特": 3606,
      "牺": 3607,
      "牽": 3608,
      "犀": 3609,
      "犁": 3610,
      "犊": 3611,
      "犒": 3612,
      "犖": 3613,
      "犠": 3614,
      "犢": 3615,
      "犧": 3616,
      "犬": 3617,
      "犯": 3618,
      "犰": 3619,
      "状": 3620,
      "犹": 3621,
      "狀": 3622,
      "狂": 3623,
      "狄": 3624,
      "狈": 3625,
      "狐": 3626,
      "狒": 3627,
      "狗": 3628,
      "狙": 3629,
      "狟": 3630,
      "狠": 3631,
      "狡": 3632,
      "狥": 3633,
      "狦": 3634,
      "狩": 3635,
      "独": 3636,
      "狭": 3637,
      "狮": 3638,
      "狱": 3639,
      "狳": 3640,
      "狶": 3641,
      "狸": 3642,
      "狼": 3643,
      "狽": 3644,
      "猁": 3645,
      "猌": 3646,
      "猎": 3647,
      "猔": 3648,
      "猖": 3649,
      "猛": 3650,
      "猜": 3651,
      "猝": 3652,
      "猟": 3653,
      "猡": 3654,
      "猥": 3655,
      "猩": 3656,
      "猪": 3657,
      "猫": 3658,
      "猬": 3659,
      "猭": 3660,
      "献": 3661,
      "猴": 3662,
      "猵": 3663,
      "猶": 3664,
      "猾": 3665,
      "猿": 3666,
      "獃": 3667,
      "獄": 3668,
      "獅": 3669,
      "獎": 3670,
      "獗": 3671,
      "獣": 3672,
      "獨": 3673,
      "獭": 3674,
      "獰": 3675,
      "獲": 3676,
      "獵": 3677,
      "獶": 3678,
      "獸": 3679,
      "獹": 3680,
      "獺": 3681,
      "獻": 3682,
      "獽": 3683,
      "玂": 3684,
      "玄": 3685,
      "率": 3686,
      "玉": 3687,
      "王": 3688,
      "玙": 3689,
      "玛": 3690,
      "玡": 3691,
      "玥": 3692,
      "玩": 3693,
      "玫": 3694,
      "玮": 3695,
      "环": 3696,
      "现": 3697,
      "玱": 3698,
      "玲": 3699,
      "玷": 3700,
      "玻": 3701,
      "珀": 3702,
      "珂": 3703,
      "珃": 3704,
      "珅": 3705,
      "珆": 3706,
      "珈": 3707,
      "珊": 3708,
      "珍": 3709,
      "珏": 3710,
      "珗": 3711,
      "珠": 3712,
      "珨": 3713,
      "班": 3714,
      "珮": 3715,
      "珼": 3716,
      "現": 3717,
      "球": 3718,
      "琅": 3719,
      "理": 3720,
      "琌": 3721,
      "琐": 3722,
      "琘": 3723,
      "琛": 3724,
      "琢": 3725,
      "琥": 3726,
      "琩": 3727,
      "琪": 3728,
      "琳": 3729,
      "琴": 3730,
      "琵": 3731,
      "琶": 3732,
      "琼": 3733,
      "瑆": 3734,
      "瑈": 3735,
      "瑕": 3736,
      "瑙": 3737,
      "瑚": 3738,
      "瑜": 3739,
      "瑞": 3740,
      "瑟": 3741,
      "瑪": 3742,
      "瑰": 3743,
      "瑶": 3744,
      "瑾": 3745,
      "瑿": 3746,
      "璃": 3747,
      "璓": 3748,
      "璚": 3749,
      "璣": 3750,
      "璧": 3751,
      "璭": 3752,
      "環": 3753,
      "璵": 3754,
      "璶": 3755,
      "璸": 3756,
      "瓁": 3757,
      "瓆": 3758,
      "瓊": 3759,
      "瓒": 3760,
      "瓜": 3761,
      "瓢": 3762,
      "瓣": 3763,
      "瓦": 3764,
      "瓳": 3765,
      "瓶": 3766,
      "瓷": 3767,
      "瓸": 3768,
      "瓿": 3769,
      "甃": 3770,
      "甄": 3771,
      "甘": 3772,
      "甚": 3773,
      "甜": 3774,
      "生": 3775,
      "甡": 3776,
      "產": 3777,
      "産": 3778,
      "甥": 3779,
      "甦": 3780,
      "用": 3781,
      "甩": 3782,
      "甫": 3783,
      "田": 3784,
      "由": 3785,
      "甲": 3786,
      "申": 3787,
      "电": 3788,
      "男": 3789,
      "甸": 3790,
      "町": 3791,
      "画": 3792,
      "畅": 3793,
      "畉": 3794,
      "界": 3795,
      "畍": 3796,
      "畏": 3797,
      "畐": 3798,
      "畑": 3799,
      "畒": 3800,
      "畔": 3801,
      "留": 3802,
      "畜": 3803,
      "畢": 3804,
      "略": 3805,
      "番": 3806,
      "畫": 3807,
      "異": 3808,
      "畳": 3809,
      "畴": 3810,
      "當": 3811,
      "畸": 3812,
      "疆": 3813,
      "疉": 3814,
      "疎": 3815,
      "疏": 3816,
      "疑": 3817,
      "疗": 3818,
      "疙": 3819,
      "疚": 3820,
      "疟": 3821,
      "疡": 3822,
      "疤": 3823,
      "疫": 3824,
      "疭": 3825,
      "疯": 3826,
      "疲": 3827,
      "疵": 3828,
      "疹": 3829,
      "疻": 3830,
      "疼": 3831,
      "疽": 3832,
      "疾": 3833,
      "病": 3834,
      "症": 3835,
      "痊": 3836,
      "痒": 3837,
      "痕": 3838,
      "痘": 3839,
      "痙": 3840,
      "痛": 3841,
      "痞": 3842,
      "痢": 3843,
      "痣": 3844,
      "痨": 3845,
      "痩": 3846,
      "痪": 3847,
      "痫": 3848,
      "痰": 3849,
      "痴": 3850,
      "痷": 3851,
      "痹": 3852,
      "痺": 3853,
      "痻": 3854,
      "痼": 3855,
      "瘀": 3856,
      "瘂": 3857,
      "瘆": 3858,
      "瘋": 3859,
      "瘍": 3860,
      "瘘": 3861,
      "瘟": 3862,
      "瘠": 3863,
      "瘤": 3864,
      "瘦": 3865,
      "瘧": 3866,
      "瘩": 3867,
      "瘫": 3868,
      "瘸": 3869,
      "瘾": 3870,
      "療": 3871,
      "癇": 3872,
      "癌": 3873,
      "癒": 3874,
      "癖": 3875,
      "癘": 3876,
      "癚": 3877,
      "癠": 3878,
      "癪": 3879,
      "癫": 3880,
      "癬": 3881,
      "癮": 3882,
      "癱": 3883,
      "癳": 3884,
      "癸": 3885,
      "発": 3886,
      "登": 3887,
      "發": 3888,
      "白": 3889,
      "百": 3890,
      "皂": 3891,
      "的": 3892,
      "皆": 3893,
      "皇": 3894,
      "皊": 3895,
      "皑": 3896,
      "皮": 3897,
      "皱": 3898,
      "皿": 3899,
      "盂": 3900,
      "盃": 3901,
      "盆": 3902,
      "盈": 3903,
      "益": 3904,
      "盎": 3905,
      "盏": 3906,
      "盐": 3907,
      "监": 3908,
      "盒": 3909,
      "盔": 3910,
      "盖": 3911,
      "盗": 3912,
      "盘": 3913,
      "盛": 3914,
      "盜": 3915,
      "盞": 3916,
      "盟": 3917,
      "盡": 3918,
      "盢": 3919,
      "監": 3920,
      "盤": 3921,
      "盧": 3922,
      "盪": 3923,
      "目": 3924,
      "盯": 3925,
      "盲": 3926,
      "直": 3927,
      "相": 3928,
      "盼": 3929,
      "盽": 3930,
      "盾": 3931,
      "盿": 3932,
      "省": 3933,
      "眃": 3934,
      "眈": 3935,
      "眉": 3936,
      "眊": 3937,
      "看": 3938,
      "県": 3939,
      "眏": 3940,
      "眒": 3941,
      "眔": 3942,
      "眕": 3943,
      "眖": 3944,
      "真": 3945,
      "眠": 3946,
      "眤": 3947,
      "眨": 3948,
      "眩": 3949,
      "眯": 3950,
      "眶": 3951,
      "眷": 3952,
      "眸": 3953,
      "眺": 3954,
      "眼": 3955,
      "眾": 3956,
      "着": 3957,
      "睁": 3958,
      "睛": 3959,
      "睡": 3960,
      "督": 3961,
      "睦": 3962,
      "睨": 3963,
      "睫": 3964,
      "睬": 3965,
      "睲": 3966,
      "睹": 3967,
      "睼": 3968,
      "睿": 3969,
      "瞄": 3970,
      "瞌": 3971,
      "瞎": 3972,
      "瞏": 3973,
      "瞑": 3974,
      "瞒": 3975,
      "瞝": 3976,
      "瞞": 3977,
      "瞦": 3978,
      "瞧": 3979,
      "瞩": 3980,
      "瞪": 3981,
      "瞬": 3982,
      "瞭": 3983,
      "瞰": 3984,
      "瞳": 3985,
      "瞶": 3986,
      "瞷": 3987,
      "瞻": 3988,
      "矓": 3989,
      "矗": 3990,
      "矛": 3991,
      "矜": 3992,
      "矢": 3993,
      "矣": 3994,
      "知": 3995,
      "矩": 3996,
      "矪": 3997,
      "矫": 3998,
      "短": 3999,
      "矮": 4000,
      "矯": 4001,
      "石": 4002,
      "矶": 4003,
      "矹": 4004,
      "矾": 4005,
      "矿": 4006,
      "码": 4007,
      "砂": 4008,
      "砃": 4009,
      "砆": 4010,
      "砌": 4011,
      "砍": 4012,
      "砏": 4013,
      "砒": 4014,
      "砓": 4015,
      "研": 4016,
      "砕": 4017,
      "砖": 4018,
      "砥": 4019,
      "砦": 4020,
      "砯": 4021,
      "砰": 4022,
      "砲": 4023,
      "破": 4024,
      "砷": 4025,
      "砸": 4026,
      "砾": 4027,
      "础": 4028,
      "硂": 4029,
      "硅": 4030,
      "硉": 4031,
      "硒": 4032,
      "硔": 4033,
      "硕": 4034,
      "硙": 4035,
      "硝": 4036,
      "硫": 4037,
      "硬": 4038,
      "确": 4039,
      "碈": 4040,
      "碉": 4041,
      "碊": 4042,
      "碌": 4043,
      "碍": 4044,
      "碎": 4045,
      "碑": 4046,
      "碕": 4047,
      "碗": 4048,
      "碘": 4049,
      "碞": 4050,
      "碟": 4051,
      "碧": 4052,
      "碩": 4053,
      "碭": 4054,
      "碰": 4055,
      "碱": 4056,
      "碳": 4057,
      "確": 4058,
      "碼": 4059,
      "碾": 4060,
      "碿": 4061,
      "磀": 4062,
      "磁": 4063,
      "磅": 4064,
      "磊": 4065,
      "磋": 4066,
      "磐": 4067,
      "磔": 4068,
      "磨": 4069,
      "磯": 4070,
      "磷": 4071,
      "磺": 4072,
      "礁": 4073,
      "礎": 4074,
      "礙": 4075,
      "礚": 4076,
      "礛": 4077,
      "礫": 4078,
      "礹": 4079,
      "示": 4080,
      "礼": 4081,
      "社": 4082,
      "祂": 4083,
      "祅": 4084,
      "祇": 4085,
      "祈": 4086,
      "祉": 4087,
      "祐": 4088,
      "祓": 4089,
      "祖": 4090,
      "祘": 4091,
      "祜": 4092,
      "祝": 4093,
      "神": 4094,
      "祟": 4095,
      "祥": 4096,
      "票": 4097,
      "祭": 4098,
      "祷": 4099,
      "祸": 4100,
      "禀": 4101,
      "禁": 4102,
      "禄": 4103,
      "禅": 4104,
      "禍": 4105,
      "禎": 4106,
      "福": 4107,
      "禔": 4108,
      "禗": 4109,
      "禜": 4110,
      "禦": 4111,
      "禧": 4112,
      "禫": 4113,
      "禮": 4114,
      "禱": 4115,
      "禲": 4116,
      "离": 4117,
      "禽": 4118,
      "禿": 4119,
      "秀": 4120,
      "私": 4121,
      "秃": 4122,
      "秅": 4123,
      "秆": 4124,
      "秈": 4125,
      "秉": 4126,
      "秋": 4127,
      "种": 4128,
      "秏": 4129,
      "科": 4130,
      "秒": 4131,
      "秘": 4132,
      "租": 4133,
      "秤": 4134,
      "秦": 4135,
      "秨": 4136,
      "秩": 4137,
      "积": 4138,
      "称": 4139,
      "秸": 4140,
      "移": 4141,
      "秽": 4142,
      "稀": 4143,
      "稅": 4144,
      "程": 4145,
      "稍": 4146,
      "税": 4147,
      "稗": 4148,
      "稚": 4149,
      "稠": 4150,
      "稣": 4151,
      "稦": 4152,
      "種": 4153,
      "稰": 4154,
      "稱": 4155,
      "稲": 4156,
      "稳": 4157,
      "稻": 4158,
      "稼": 4159,
      "稽": 4160,
      "稿": 4161,
      "穀": 4162,
      "穂": 4163,
      "穆": 4164,
      "穌": 4165,
      "積": 4166,
      "穎": 4167,
      "穏": 4168,
      "穕": 4169,
      "穗": 4170,
      "穝": 4171,
      "穢": 4172,
      "穦": 4173,
      "穩": 4174,
      "穫": 4175,
      "穴": 4176,
      "究": 4177,
      "穷": 4178,
      "穹": 4179,
      "空": 4180,
      "穿": 4181,
      "突": 4182,
      "窃": 4183,
      "窄": 4184,
      "窍": 4185,
      "窑": 4186,
      "窒": 4187,
      "窓": 4188,
      "窖": 4189,
      "窗": 4190,
      "窘": 4191,
      "窜": 4192,
      "窝": 4193,
      "窟": 4194,
      "窥": 4195,
      "窦": 4196,
      "窩": 4197,
      "窮": 4198,
      "窺": 4199,
      "窿": 4200,
      "竄": 4201,
      "竇": 4202,
      "竊": 4203,
      "立": 4204,
      "竒": 4205,
      "竕": 4206,
      "竖": 4207,
      "站": 4208,
      "竜": 4209,
      "竞": 4210,
      "竟": 4211,
      "章": 4212,
      "竡": 4213,
      "竣": 4214,
      "童": 4215,
      "竭": 4216,
      "端": 4217,
      "競": 4218,
      "竹": 4219,
      "竺": 4220,
      "竿": 4221,
      "笃": 4222,
      "笆": 4223,
      "笑": 4224,
      "笔": 4225,
      "笛": 4226,
      "符": 4227,
      "笨": 4228,
      "第": 4229,
      "笲": 4230,
      "笴": 4231,
      "笵": 4232,
      "笹": 4233,
      "笼": 4234,
      "笿": 4235,
      "筁": 4236,
      "筆": 4237,
      "筈": 4238,
      "等": 4239,
      "筋": 4240,
      "筏": 4241,
      "筑": 4242,
      "筒": 4243,
      "答": 4244,
      "策": 4245,
      "筛": 4246,
      "筝": 4247,
      "筷": 4248,
      "筹": 4249,
      "筽": 4250,
      "签": 4251,
      "筿": 4252,
      "简": 4253,
      "箇": 4254,
      "箋": 4255,
      "箍": 4256,
      "箎": 4257,
      "箒": 4258,
      "箔": 4259,
      "算": 4260,
      "箝": 4261,
      "管": 4262,
      "箪": 4263,
      "箫": 4264,
      "箭": 4265,
      "箱": 4266,
      "箴": 4267,
      "箸": 4268,
      "節": 4269,
      "範": 4270,
      "篇": 4271,
      "築": 4272,
      "篑": 4273,
      "篙": 4274,
      "篡": 4275,
      "篤": 4276,
      "篪": 4277,
      "篭": 4278,
      "篮": 4279,
      "篱": 4280,
      "篷": 4281,
      "簀": 4282,
      "簈": 4283,
      "簍": 4284,
      "簎": 4285,
      "簘": 4286,
      "簡": 4287,
      "簧": 4288,
      "簽": 4289,
      "簾": 4290,
      "簿": 4291,
      "籁": 4292,
      "籃": 4293,
      "籊": 4294,
      "籍": 4295,
      "籔": 4296,
      "籜": 4297,
      "籟": 4298,
      "籠": 4299,
      "籲": 4300,
      "米": 4301,
      "类": 4302,
      "籽": 4303,
      "粄": 4304,
      "粉": 4305,
      "粋": 4306,
      "粒": 4307,
      "粕": 4308,
      "粗": 4309,
      "粘": 4310,
      "粛": 4311,
      "粟": 4312,
      "粥": 4313,
      "粧": 4314,
      "粪": 4315,
      "粮": 4316,
      "粹": 4317,
      "精": 4318,
      "粿": 4319,
      "糉": 4320,
      "糊": 4321,
      "糑": 4322,
      "糒": 4323,
      "糕": 4324,
      "糖": 4325,
      "糙": 4326,
      "糞": 4327,
      "糟": 4328,
      "糧": 4329,
      "糯": 4330,
      "糴": 4331,
      "糵": 4332,
      "糸": 4333,
      "系": 4334,
      "糾": 4335,
      "紀": 4336,
      "約": 4337,
      "紅": 4338,
      "紆": 4339,
      "紇": 4340,
      "紈": 4341,
      "紊": 4342,
      "紋": 4343,
      "納": 4344,
      "紐": 4345,
      "純": 4346,
      "紗": 4347,
      "紙": 4348,
      "級": 4349,
      "紛": 4350,
      "素": 4351,
      "索": 4352,
      "紧": 4353,
      "紫": 4354,
      "累": 4355,
      "細": 4356,
      "紳": 4357,
      "紹": 4358,
      "紺": 4359,
      "終": 4360,
      "絃": 4361,
      "組": 4362,
      "絆": 4363,
      "絋": 4364,
      "経": 4365,
      "結": 4366,
      "絕": 4367,
      "絞": 4368,
      "絡": 4369,
      "給": 4370,
      "絨": 4371,
      "統": 4372,
      "絲": 4373,
      "絵": 4374,
      "絶": 4375,
      "絹": 4376,
      "綁": 4377,
      "綑": 4378,
      "經": 4379,
      "継": 4380,
      "続": 4381,
      "綜": 4382,
      "綠": 4383,
      "綢": 4384,
      "維": 4385,
      "綱": 4386,
      "網": 4387,
      "綴": 4388,
      "綺": 4389,
      "綻": 4390,
      "綼": 4391,
      "綿": 4392,
      "緊": 4393,
      "総": 4394,
      "緑": 4395,
      "緒": 4396,
      "緓": 4397,
      "線": 4398,
      "締": 4399,
      "緣": 4400,
      "編": 4401,
      "緩": 4402,
      "緯": 4403,
      "練": 4404,
      "緻": 4405,
      "縀": 4406,
      "縁": 4407,
      "縄": 4408,
      "縊": 4409,
      "縛": 4410,
      "縞": 4411,
      "縡": 4412,
      "縤": 4413,
      "縦": 4414,
      "縫": 4415,
      "縮": 4416,
      "縷": 4417,
      "縸": 4418,
      "總": 4419,
      "績": 4420,
      "繁": 4421,
      "繊": 4422,
      "繋": 4423,
      "織": 4424,
      "繕": 4425,
      "繞": 4426,
      "繦": 4427,
      "繨": 4428,
      "繩": 4429,
      "繫": 4430,
      "繭": 4431,
      "繰": 4432,
      "繳": 4433,
      "繷": 4434,
      "繻": 4435,
      "繼": 4436,
      "纂": 4437,
      "續": 4438,
      "纏": 4439,
      "纒": 4440,
      "纔": 4441,
      "纜": 4442,
      "纠": 4443,
      "红": 4444,
      "纤": 4445,
      "约": 4446,
      "级": 4447,
      "纪": 4448,
      "纫": 4449,
      "纬": 4450,
      "纯": 4451,
      "纱": 4452,
      "纲": 4453,
      "纳": 4454,
      "纵": 4455,
      "纶": 4456,
      "纷": 4457,
      "纸": 4458,
      "纹": 4459,
      "纺": 4460,
      "纽": 4461,
      "纾": 4462,
      "线": 4463,
      "练": 4464,
      "组": 4465,
      "绅": 4466,
      "细": 4467,
      "织": 4468,
      "终": 4469,
      "绊": 4470,
      "绌": 4471,
      "绍": 4472,
      "经": 4473,
      "绑": 4474,
      "绒": 4475,
      "结": 4476,
      "绕": 4477,
      "绘": 4478,
      "给": 4479,
      "绚": 4480,
      "络": 4481,
      "绝": 4482,
      "绞": 4483,
      "统": 4484,
      "绣": 4485,
      "继": 4486,
      "绩": 4487,
      "绪": 4488,
      "续": 4489,
      "绯": 4490,
      "绰": 4491,
      "绳": 4492,
      "维": 4493,
      "绵": 4494,
      "绷": 4495,
      "绸": 4496,
      "综": 4497,
      "绿": 4498,
      "缀": 4499,
      "缄": 4500,
      "缅": 4501,
      "缆": 4502,
      "缇": 4503,
      "缈": 4504,
      "缉": 4505,
      "缎": 4506,
      "缓": 4507,
      "缔": 4508,
      "缕": 4509,
      "编": 4510,
      "缘": 4511,
      "缚": 4512,
      "缛": 4513,
      "缜": 4514,
      "缝": 4515,
      "缠": 4516,
      "缤": 4517,
      "缩": 4518,
      "缪": 4519,
      "缭": 4520,
      "缮": 4521,
      "缴": 4522,
      "缶": 4523,
      "缷": 4524,
      "缸": 4525,
      "缺": 4526,
      "罂": 4527,
      "罄": 4528,
      "罐": 4529,
      "网": 4530,
      "罔": 4531,
      "罕": 4532,
      "罖": 4533,
      "罗": 4534,
      "罚": 4535,
      "罠": 4536,
      "罢": 4537,
      "罩": 4538,
      "罪": 4539,
      "置": 4540,
      "罰": 4541,
      "署": 4542,
      "罵": 4543,
      "罷": 4544,
      "罹": 4545,
      "罺": 4546,
      "罽": 4547,
      "罾": 4548,
      "羁": 4549,
      "羅": 4550,
      "羆": 4551,
      "羊": 4552,
      "美": 4553,
      "羔": 4554,
      "羘": 4555,
      "羙": 4556,
      "羚": 4557,
      "羛": 4558,
      "羞": 4559,
      "羡": 4560,
      "群": 4561,
      "羨": 4562,
      "義": 4563,
      "羲": 4564,
      "羶": 4565,
      "羹": 4566,
      "羽": 4567,
      "翁": 4568,
      "翅": 4569,
      "翌": 4570,
      "習": 4571,
      "翔": 4572,
      "翘": 4573,
      "翠": 4574,
      "翡": 4575,
      "翩": 4576,
      "翰": 4577,
      "翱": 4578,
      "翳": 4579,
      "翴": 4580,
      "翹": 4581,
      "翺": 4582,
      "翻": 4583,
      "翼": 4584,
      "耀": 4585,
      "老": 4586,
      "考": 4587,
      "耄": 4588,
      "者": 4589,
      "耋": 4590,
      "而": 4591,
      "耍": 4592,
      "耐": 4593,
      "耕": 4594,
      "耗": 4595,
      "耞": 4596,
      "耳": 4597,
      "耶": 4598,
      "耸": 4599,
      "耻": 4600,
      "耽": 4601,
      "耿": 4602,
      "聂": 4603,
      "聆": 4604,
      "聊": 4605,
      "聋": 4606,
      "职": 4607,
      "联": 4608,
      "聖": 4609,
      "聘": 4610,
      "聚": 4611,
      "聞": 4612,
      "聡": 4613,
      "聩": 4614,
      "聪": 4615,
      "聯": 4616,
      "聰": 4617,
      "聲": 4618,
      "聳": 4619,
      "聴": 4620,
      "職": 4621,
      "聽": 4622,
      "聾": 4623,
      "肃": 4624,
      "肅": 4625,
      "肆": 4626,
      "肇": 4627,
      "肉": 4628,
      "肋": 4629,
      "肌": 4630,
      "肓": 4631,
      "肖": 4632,
      "肘": 4633,
      "肚": 4634,
      "肛": 4635,
      "肝": 4636,
      "肠": 4637,
      "股": 4638,
      "肢": 4639,
      "肤": 4640,
      "肥": 4641,
      "肩": 4642,
      "肪": 4643,
      "肮": 4644,
      "肯": 4645,
      "育": 4646,
      "肴": 4647,
      "肺": 4648,
      "肾": 4649,
      "肿": 4650,
      "胀": 4651,
      "胁": 4652,
      "胃": 4653,
      "胄": 4654,
      "胆": 4655,
      "胊": 4656,
      "背": 4657,
      "胎": 4658,
      "胔": 4659,
      "胖": 4660,
      "胚": 4661,
      "胜": 4662,
      "胞": 4663,
      "胡": 4664,
      "胭": 4665,
      "胰": 4666,
      "胱": 4667,
      "胳": 4668,
      "胴": 4669,
      "胶": 4670,
      "胸": 4671,
      "胺": 4672,
      "能": 4673,
      "脂": 4674,
      "脄": 4675,
      "脅": 4676,
      "脆": 4677,
      "脇": 4678,
      "脈": 4679,
      "脉": 4680,
      "脊": 4681,
      "脋": 4682,
      "脏": 4683,
      "脐": 4684,
      "脑": 4685,
      "脖": 4686,
      "脚": 4687,
      "脫": 4688,
      "脯": 4689,
      "脱": 4690,
      "脳": 4691,
      "脸": 4692,
      "脹": 4693,
      "脾": 4694,
      "腀": 4695,
      "腊": 4696,
      "腋": 4697,
      "腌": 4698,
      "腎": 4699,
      "腐": 4700,
      "腑": 4701,
      "腔": 4702,
      "腕": 4703,
      "腞": 4704,
      "腥": 4705,
      "腦": 4706,
      "腪": 4707,
      "腫": 4708,
      "腮": 4709,
      "腰": 4710,
      "腱": 4711,
      "腳": 4712,
      "腴": 4713,
      "腸": 4714,
      "腹": 4715,
      "腺": 4716,
      "腻": 4717,
      "腾": 4718,
      "腿": 4719,
      "膀": 4720,
      "膊": 4721,
      "膏": 4722,
      "膑": 4723,
      "膚": 4724,
      "膛": 4725,
      "膜": 4726,
      "膝": 4727,
      "膠": 4728,
      "膥": 4729,
      "膨": 4730,
      "膳": 4731,
      "膽": 4732,
      "膿": 4733,
      "臀": 4734,
      "臂": 4735,
      "臃": 4736,
      "臆": 4737,
      "臉": 4738,
      "臊": 4739,
      "臓": 4740,
      "臘": 4741,
      "臟": 4742,
      "臣": 4743,
      "臥": 4744,
      "臨": 4745,
      "臩": 4746,
      "自": 4747,
      "臭": 4748,
      "至": 4749,
      "致": 4750,
      "臺": 4751,
      "臼": 4752,
      "舅": 4753,
      "舆": 4754,
      "與": 4755,
      "興": 4756,
      "舉": 4757,
      "舊": 4758,
      "舌": 4759,
      "舍": 4760,
      "舎": 4761,
      "舐": 4762,
      "舒": 4763,
      "舔": 4764,
      "舗": 4765,
      "舘": 4766,
      "舞": 4767,
      "舟": 4768,
      "舦": 4769,
      "舧": 4770,
      "航": 4771,
      "般": 4772,
      "舰": 4773,
      "舱": 4774,
      "舵": 4775,
      "舶": 4776,
      "舷": 4777,
      "船": 4778,
      "艇": 4779,
      "艘": 4780,
      "艙": 4781,
      "艦": 4782,
      "艮": 4783,
      "良": 4784,
      "艰": 4785,
      "艱": 4786,
      "色": 4787,
      "艳": 4788,
      "艶": 4789,
      "艺": 4790,
      "艾": 4791,
      "节": 4792,
      "芉": 4793,
      "芋": 4794,
      "芒": 4795,
      "芙": 4796,
      "芜": 4797,
      "芝": 4798,
      "芥": 4799,
      "芦": 4800,
      "芬": 4801,
      "芭": 4802,
      "芮": 4803,
      "芯": 4804,
      "花": 4805,
      "芳": 4806,
      "芴": 4807,
      "芶": 4808,
      "芷": 4809,
      "芸": 4810,
      "芽": 4811,
      "苇": 4812,
      "苍": 4813,
      "苏": 4814,
      "苔": 4815,
      "苗": 4816,
      "苛": 4817,
      "苞": 4818,
      "苟": 4819,
      "若": 4820,
      "苦": 4821,
      "苯": 4822,
      "英": 4823,
      "苹": 4824,
      "茂": 4825,
      "范": 4826,
      "茄": 4827,
      "茅": 4828,
      "茎": 4829,
      "茜": 4830,
      "茧": 4831,
      "茨": 4832,
      "茫": 4833,
      "茬": 4834,
      "茱": 4835,
      "茲": 4836,
      "茴": 4837,
      "茵": 4838,
      "茶": 4839,
      "茸": 4840,
      "茹": 4841,
      "荆": 4842,
      "草": 4843,
      "荎": 4844,
      "荐": 4845,
      "荒": 4846,
      "荘": 4847,
      "荚": 4848,
      "荡": 4849,
      "荣": 4850,
      "荧": 4851,
      "荫": 4852,
      "药": 4853,
      "荷": 4854,
      "荻": 4855,
      "荽": 4856,
      "莉": 4857,
      "莊": 4858,
      "莎": 4859,
      "莓": 4860,
      "莞": 4861,
      "莢": 4862,
      "莫": 4863,
      "莰": 4864,
      "莱": 4865,
      "莲": 4866,
      "获": 4867,
      "莺": 4868,
      "莽": 4869,
      "菁": 4870,
      "菇": 4871,
      "菈": 4872,
      "菊": 4873,
      "菌": 4874,
      "菓": 4875,
      "菜": 4876,
      "菠": 4877,
      "菩": 4878,
      "華": 4879,
      "菱": 4880,
      "菲": 4881,
      "萃": 4882,
      "萄": 4883,
      "萇": 4884,
      "萊": 4885,
      "萌": 4886,
      "萍": 4887,
      "萎": 4888,
      "萝": 4889,
      "萤": 4890,
      "营": 4891,
      "萦": 4892,
      "萧": 4893,
      "萨": 4894,
      "萬": 4895,
      "萵": 4896,
      "萼": 4897,
      "落": 4898,
      "葉": 4899,
      "著": 4900,
      "葛": 4901,
      "葡": 4902,
      "董": 4903,
      "葬": 4904,
      "葱": 4905,
      "葵": 4906,
      "葷": 4907,
      "葺": 4908,
      "蒂": 4909,
      "蒋": 4910,
      "蒔": 4911,
      "蒙": 4912,
      "蒜": 4913,
      "蒲": 4914,
      "蒳": 4915,
      "蒸": 4916,
      "蒼": 4917,
      "蒿": 4918,
      "蓄": 4919,
      "蓉": 4920,
      "蓋": 4921,
      "蓑": 4922,
      "蓓": 4923,
      "蓝": 4924,
      "蓟": 4925,
      "蓬": 4926,
      "蓮": 4927,
      "蔑": 4928,
      "蔓": 4929,
      "蔗": 4930,
      "蔚": 4931,
      "蔡": 4932,
      "蔥": 4933,
      "蔬": 4934,
      "蔭": 4935,
      "蔵": 4936,
      "蔻": 4937,
      "蔼": 4938,
      "蔽": 4939,
      "蕃": 4940,
      "蕉": 4941,
      "蕊": 4942,
      "蕩": 4943,
      "蕭": 4944,
      "蕴": 4945,
      "蕾": 4946,
      "薄": 4947,
      "薇": 4948,
      "薔": 4949,
      "薙": 4950,
      "薛": 4951,
      "薦": 4952,
      "薩": 4953,
      "薪": 4954,
      "薫": 4955,
      "薬": 4956,
      "薯": 4957,
      "薰": 4958,
      "藁": 4959,
      "藉": 4960,
      "藍": 4961,
      "藏": 4962,
      "藐": 4963,
      "藓": 4964,
      "藕": 4965,
      "藝": 4966,
      "藤": 4967,
      "藥": 4968,
      "藩": 4969,
      "藪": 4970,
      "藻": 4971,
      "蘇": 4972,
      "蘋": 4973,
      "蘑": 4974,
      "蘭": 4975,
      "蘿": 4976,
      "虎": 4977,
      "虏": 4978,
      "虐": 4979,
      "虑": 4980,
      "虔": 4981,
      "處": 4982,
      "虚": 4983,
      "虛": 4984,
      "虜": 4985,
      "虞": 4986,
      "號": 4987,
      "虧": 4988,
      "虫": 4989,
      "虱": 4990,
      "虹": 4991,
      "虽": 4992,
      "虾": 4993,
      "蚀": 4994,
      "蚁": 4995,
      "蚂": 4996,
      "蚊": 4997,
      "蚋": 4998,
      "蚕": 4999,
      "蚚": 5000,
      "蚜": 5001,
      "蚝": 5002,
      "蚤": 5003,
      "蚾": 5004,
      "蛀": 5005,
      "蛁": 5006,
      "蛆": 5007,
      "蛇": 5008,
      "蛊": 5009,
      "蛋": 5010,
      "蛍": 5011,
      "蛎": 5012,
      "蛙": 5013,
      "蛛": 5014,
      "蛤": 5015,
      "蛮": 5016,
      "蛹": 5017,
      "蛾": 5018,
      "蜀": 5019,
      "蜂": 5020,
      "蜃": 5021,
      "蜆": 5022,
      "蜇": 5023,
      "蜍": 5024,
      "蜓": 5025,
      "蜗": 5026,
      "蜘": 5027,
      "蜚": 5028,
      "蜜": 5029,
      "蜡": 5030,
      "蜥": 5031,
      "蜴": 5032,
      "蜷": 5033,
      "蜻": 5034,
      "蝇": 5035,
      "蝎": 5036,
      "蝕": 5037,
      "蝗": 5038,
      "蝙": 5039,
      "蝚": 5040,
      "蝠": 5041,
      "蝦": 5042,
      "蝴": 5043,
      "蝶": 5044,
      "蝿": 5045,
      "螂": 5046,
      "螃": 5047,
      "融": 5048,
      "螖": 5049,
      "螘": 5050,
      "螞": 5051,
      "螟": 5052,
      "螠": 5053,
      "螣": 5054,
      "螤": 5055,
      "螨": 5056,
      "螯": 5057,
      "螺": 5058,
      "蟀": 5059,
      "蟋": 5060,
      "蟑": 5061,
      "蟲": 5062,
      "蟹": 5063,
      "蟺": 5064,
      "蟻": 5065,
      "蟼": 5066,
      "蟽": 5067,
      "蟾": 5068,
      "蟿": 5069,
      "蠀": 5070,
      "蠁": 5071,
      "蠂": 5072,
      "蠅": 5073,
      "蠈": 5074,
      "蠉": 5075,
      "蠋": 5076,
      "蠕": 5077,
      "蠟": 5078,
      "蠢": 5079,
      "蠣": 5080,
      "蠻": 5081,
      "血": 5082,
      "衄": 5083,
      "衅": 5084,
      "衆": 5085,
      "行": 5086,
      "衍": 5087,
      "術": 5088,
      "衔": 5089,
      "街": 5090,
      "衙": 5091,
      "衛": 5092,
      "衝": 5093,
      "衡": 5094,
      "衣": 5095,
      "补": 5096,
      "表": 5097,
      "衫": 5098,
      "衬": 5099,
      "衰": 5100,
      "衷": 5101,
      "衿": 5102,
      "袈": 5103,
      "袋": 5104,
      "袍": 5105,
      "袒": 5106,
      "袖": 5107,
      "袜": 5108,
      "被": 5109,
      "袭": 5110,
      "袱": 5111,
      "袴": 5112,
      "裁": 5113,
      "裂": 5114,
      "装": 5115,
      "裋": 5116,
      "裏": 5117,
      "裔": 5118,
      "裕": 5119,
      "裘": 5120,
      "裙": 5121,
      "補": 5122,
      "裝": 5123,
      "裟": 5124,
      "裡": 5125,
      "裤": 5126,
      "裨": 5127,
      "裴": 5128,
      "裸": 5129,
      "裹": 5130,
      "製": 5131,
      "裾": 5132,
      "複": 5133,
      "褐": 5134,
      "褒": 5135,
      "褓": 5136,
      "褥": 5137,
      "褪": 5138,
      "褫": 5139,
      "褲": 5140,
      "褶": 5141,
      "襁": 5142,
      "襄": 5143,
      "襞": 5144,
      "襟": 5145,
      "襪": 5146,
      "襲": 5147,
      "西": 5148,
      "要": 5149,
      "覆": 5150,
      "覇": 5151,
      "見": 5152,
      "規": 5153,
      "視": 5154,
      "覗": 5155,
      "覚": 5156,
      "覧": 5157,
      "親": 5158,
      "観": 5159,
      "覺": 5160,
      "觀": 5161,
      "见": 5162,
      "观": 5163,
      "规": 5164,
      "觅": 5165,
      "视": 5166,
      "览": 5167,
      "觉": 5168,
      "觊": 5169,
      "觎": 5170,
      "觐": 5171,
      "觑": 5172,
      "角": 5173,
      "解": 5174,
      "触": 5175,
      "觸": 5176,
      "言": 5177,
      "訂": 5178,
      "訃": 5179,
      "計": 5180,
      "訊": 5181,
      "討": 5182,
      "訓": 5183,
      "託": 5184,
      "記": 5185,
      "訛": 5186,
      "訝": 5187,
      "訟": 5188,
      "訣": 5189,
      "訪": 5190,
      "設": 5191,
      "許": 5192,
      "訳": 5193,
      "訴": 5194,
      "診": 5195,
      "註": 5196,
      "証": 5197,
      "詆": 5198,
      "詈": 5199,
      "詐": 5200,
      "評": 5201,
      "詛": 5202,
      "詞": 5203,
      "詢": 5204,
      "詣": 5205,
      "試": 5206,
      "詩": 5207,
      "詪": 5208,
      "詫": 5209,
      "詭": 5210,
      "詮": 5211,
      "詰": 5212,
      "話": 5213,
      "該": 5214,
      "詳": 5215,
      "詹": 5216,
      "誇": 5217,
      "誉": 5218,
      "誌": 5219,
      "認": 5220,
      "誑": 5221,
      "誒": 5222,
      "誓": 5223,
      "誕": 5224,
      "誘": 5225,
      "語": 5226,
      "誠": 5227,
      "誣": 5228,
      "誤": 5229,
      "誦": 5230,
      "誨": 5231,
      "說": 5232,
      "説": 5233,
      "読": 5234,
      "誰": 5235,
      "課": 5236,
      "誹": 5237,
      "調": 5238,
      "談": 5239,
      "請": 5240,
      "諒": 5241,
      "論": 5242,
      "諜": 5243,
      "諦": 5244,
      "諭": 5245,
      "諮": 5246,
      "諱": 5247,
      "諷": 5248,
      "諸": 5249,
      "諺": 5250,
      "諾": 5251,
      "謀": 5252,
      "謁": 5253,
      "謂": 5254,
      "謊": 5255,
      "謎": 5256,
      "謗": 5257,
      "謙": 5258,
      "講": 5259,
      "謝": 5260,
      "謠": 5261,
      "謡": 5262,
      "謬": 5263,
      "謹": 5264,
      "證": 5265,
      "識": 5266,
      "譚": 5267,
      "譜": 5268,
      "警": 5269,
      "譬": 5270,
      "譯": 5271,
      "議": 5272,
      "譲": 5273,
      "譴": 5274,
      "護": 5275,
      "譽": 5276,
      "讀": 5277,
      "讃": 5278,
      "變": 5279,
      "讐": 5280,
      "讓": 5281,
      "讚": 5282,
      "计": 5283,
      "订": 5284,
      "讣": 5285,
      "认": 5286,
      "讥": 5287,
      "讦": 5288,
      "讨": 5289,
      "让": 5290,
      "讪": 5291,
      "讫": 5292,
      "训": 5293,
      "议": 5294,
      "讯": 5295,
      "记": 5296,
      "讲": 5297,
      "讳": 5298,
      "讶": 5299,
      "许": 5300,
      "讹": 5301,
      "论": 5302,
      "讼": 5303,
      "讽": 5304,
      "设": 5305,
      "访": 5306,
      "诀": 5307,
      "证": 5308,
      "诃": 5309,
      "评": 5310,
      "诅": 5311,
      "识": 5312,
      "诈": 5313,
      "诉": 5314,
      "诊": 5315,
      "诋": 5316,
      "诌": 5317,
      "词": 5318,
      "诏": 5319,
      "译": 5320,
      "试": 5321,
      "诗": 5322,
      "诘": 5323,
      "诚": 5324,
      "诛": 5325,
      "话": 5326,
      "诞": 5327,
      "诠": 5328,
      "诡": 5329,
      "询": 5330,
      "该": 5331,
      "详": 5332,
      "诧": 5333,
      "诨": 5334,
      "诫": 5335,
      "诬": 5336,
      "语": 5337,
      "误": 5338,
      "诱": 5339,
      "诲": 5340,
      "说": 5341,
      "诵": 5342,
      "诶": 5343,
      "请": 5344,
      "诸": 5345,
      "诺": 5346,
      "读": 5347,
      "诽": 5348,
      "课": 5349,
      "谀": 5350,
      "谁": 5351,
      "调": 5352,
      "谄": 5353,
      "谅": 5354,
      "谈": 5355,
      "谊": 5356,
      "谋": 5357,
      "谍": 5358,
      "谎": 5359,
      "谏": 5360,
      "谐": 5361,
      "谑": 5362,
      "谓": 5363,
      "谕": 5364,
      "谙": 5365,
      "谚": 5366,
      "谜": 5367,
      "谟": 5368,
      "谢": 5369,
      "谣": 5370,
      "谤": 5371,
      "谦": 5372,
      "谧": 5373,
      "谨": 5374,
      "谩": 5375,
      "谬": 5376,
      "谭": 5377,
      "谱": 5378,
      "谴": 5379,
      "谶": 5380,
      "谷": 5381,
      "豁": 5382,
      "豆": 5383,
      "豊": 5384,
      "豐": 5385,
      "豚": 5386,
      "象": 5387,
      "豪": 5388,
      "豫": 5389,
      "豬": 5390,
      "豹": 5391,
      "豺": 5392,
      "貂": 5393,
      "貌": 5394,
      "貓": 5395,
      "貝": 5396,
      "貞": 5397,
      "負": 5398,
      "財": 5399,
      "貢": 5400,
      "貧": 5401,
      "貨": 5402,
      "販": 5403,
      "貪": 5404,
      "貫": 5405,
      "責": 5406,
      "貯": 5407,
      "貰": 5408,
      "貴": 5409,
      "貶": 5410,
      "買": 5411,
      "貸": 5412,
      "費": 5413,
      "貼": 5414,
      "貿": 5415,
      "賀": 5416,
      "賂": 5417,
      "賃": 5418,
      "賄": 5419,
      "資": 5420,
      "賈": 5421,
      "賊": 5422,
      "賑": 5423,
      "賓": 5424,
      "賛": 5425,
      "賜": 5426,
      "賞": 5427,
      "賠": 5428,
      "賢": 5429,
      "賣": 5430,
      "賤": 5431,
      "賦": 5432,
      "質": 5433,
      "賬": 5434,
      "賭": 5435,
      "賴": 5436,
      "賸": 5437,
      "購": 5438,
      "賽": 5439,
      "贄": 5440,
      "贅": 5441,
      "贈": 5442,
      "贊": 5443,
      "贋": 5444,
      "贏": 5445,
      "贖": 5446,
      "贝": 5447,
      "贞": 5448,
      "负": 5449,
      "贡": 5450,
      "财": 5451,
      "责": 5452,
      "贤": 5453,
      "败": 5454,
      "账": 5455,
      "货": 5456,
      "质": 5457,
      "贩": 5458,
      "贪": 5459,
      "贫": 5460,
      "贬": 5461,
      "购": 5462,
      "贮": 5463,
      "贯": 5464,
      "贰": 5465,
      "贱": 5466,
      "贴": 5467,
      "贵": 5468,
      "贷": 5469,
      "贸": 5470,
      "费": 5471,
      "贺": 5472,
      "贼": 5473,
      "贾": 5474,
      "贿": 5475,
      "赁": 5476,
      "赂": 5477,
      "赃": 5478,
      "资": 5479,
      "赅": 5480,
      "赈": 5481,
      "赊": 5482,
      "赋": 5483,
      "赌": 5484,
      "赎": 5485,
      "赏": 5486,
      "赐": 5487,
      "赔": 5488,
      "赖": 5489,
      "赘": 5490,
      "赚": 5491,
      "赛": 5492,
      "赝": 5493,
      "赞": 5494,
      "赠": 5495,
      "赡": 5496,
      "赢": 5497,
      "赣": 5498,
      "赤": 5499,
      "赦": 5500,
      "赫": 5501,
      "走": 5502,
      "赴": 5503,
      "赵": 5504,
      "赶": 5505,
      "起": 5506,
      "赽": 5507,
      "趁": 5508,
      "超": 5509,
      "越": 5510,
      "趋": 5511,
      "趕": 5512,
      "趟": 5513,
      "趣": 5514,
      "趨": 5515,
      "足": 5516,
      "趴": 5517,
      "趾": 5518,
      "跃": 5519,
      "跆": 5520,
      "跋": 5521,
      "跌": 5522,
      "跑": 5523,
      "跘": 5524,
      "跚": 5525,
      "跛": 5526,
      "距": 5527,
      "跟": 5528,
      "跡": 5529,
      "跤": 5530,
      "跨": 5531,
      "跪": 5532,
      "路": 5533,
      "跳": 5534,
      "践": 5535,
      "跺": 5536,
      "跻": 5537,
      "踊": 5538,
      "踌": 5539,
      "踏": 5540,
      "踐": 5541,
      "踝": 5542,
      "踞": 5543,
      "踢": 5544,
      "踩": 5545,
      "踪": 5546,
      "踮": 5547,
      "踯": 5548,
      "踵": 5549,
      "踹": 5550,
      "蹂": 5551,
      "蹄": 5552,
      "蹈": 5553,
      "蹊": 5554,
      "蹋": 5555,
      "蹒": 5556,
      "蹟": 5557,
      "蹤": 5558,
      "蹦": 5559,
      "蹬": 5560,
      "蹭": 5561,
      "蹲": 5562,
      "蹴": 5563,
      "蹶": 5564,
      "躁": 5565,
      "躅": 5566,
      "躇": 5567,
      "躉": 5568,
      "躊": 5569,
      "躍": 5570,
      "躏": 5571,
      "躓": 5572,
      "躙": 5573,
      "身": 5574,
      "躬": 5575,
      "躯": 5576,
      "躲": 5577,
      "躺": 5578,
      "躾": 5579,
      "車": 5580,
      "軌": 5581,
      "軍": 5582,
      "軒": 5583,
      "軟": 5584,
      "転": 5585,
      "軸": 5586,
      "軽": 5587,
      "較": 5588,
      "載": 5589,
      "輕": 5590,
      "輛": 5591,
      "輝": 5592,
      "輟": 5593,
      "輩": 5594,
      "輪": 5595,
      "輯": 5596,
      "輸": 5597,
      "轄": 5598,
      "轉": 5599,
      "轟": 5600,
      "轢": 5601,
      "车": 5602,
      "轧": 5603,
      "轨": 5604,
      "转": 5605,
      "轮": 5606,
      "软": 5607,
      "轰": 5608,
      "轴": 5609,
      "轶": 5610,
      "轻": 5611,
      "载": 5612,
      "轿": 5613,
      "较": 5614,
      "辄": 5615,
      "辅": 5616,
      "辆": 5617,
      "辈": 5618,
      "辉": 5619,
      "辍": 5620,
      "辐": 5621,
      "辑": 5622,
      "输": 5623,
      "辕": 5624,
      "辖": 5625,
      "辗": 5626,
      "辙": 5627,
      "辛": 5628,
      "辜": 5629,
      "辞": 5630,
      "辟": 5631,
      "辣": 5632,
      "辦": 5633,
      "辨": 5634,
      "辩": 5635,
      "辭": 5636,
      "辯": 5637,
      "辰": 5638,
      "辱": 5639,
      "農": 5640,
      "边": 5641,
      "辺": 5642,
      "込": 5643,
      "辽": 5644,
      "达": 5645,
      "辿": 5646,
      "迁": 5647,
      "迂": 5648,
      "迄": 5649,
      "迅": 5650,
      "过": 5651,
      "迈": 5652,
      "迎": 5653,
      "运": 5654,
      "近": 5655,
      "返": 5656,
      "迖": 5657,
      "还": 5658,
      "这": 5659,
      "进": 5660,
      "远": 5661,
      "违": 5662,
      "连": 5663,
      "迟": 5664,
      "迡": 5665,
      "迥": 5666,
      "迦": 5667,
      "迪": 5668,
      "迫": 5669,
      "迭": 5670,
      "述": 5671,
      "迴": 5672,
      "迷": 5673,
      "迹": 5674,
      "迺": 5675,
      "追": 5676,
      "退": 5677,
      "送": 5678,
      "适": 5679,
      "逃": 5680,
      "逆": 5681,
      "选": 5682,
      "逊": 5683,
      "逍": 5684,
      "透": 5685,
      "逐": 5686,
      "递": 5687,
      "途": 5688,
      "逗": 5689,
      "這": 5690,
      "通": 5691,
      "逛": 5692,
      "逝": 5693,
      "逞": 5694,
      "速": 5695,
      "造": 5696,
      "逢": 5697,
      "連": 5698,
      "逮": 5699,
      "週": 5700,
      "進": 5701,
      "逸": 5702,
      "逻": 5703,
      "逼": 5704,
      "逾": 5705,
      "遁": 5706,
      "遂": 5707,
      "遅": 5708,
      "遇": 5709,
      "遊": 5710,
      "運": 5711,
      "遍": 5712,
      "過": 5713,
      "遏": 5714,
      "道": 5715,
      "達": 5716,
      "違": 5717,
      "遗": 5718,
      "遙": 5719,
      "遛": 5720,
      "遜": 5721,
      "遞": 5722,
      "遠": 5723,
      "遡": 5724,
      "遢": 5725,
      "遣": 5726,
      "遥": 5727,
      "適": 5728,
      "遭": 5729,
      "遮": 5730,
      "遲": 5731,
      "遴": 5732,
      "遵": 5733,
      "選": 5734,
      "遺": 5735,
      "遽": 5736,
      "避": 5737,
      "邀": 5738,
      "邁": 5739,
      "還": 5740,
      "邊": 5741,
      "邋": 5742,
      "邑": 5743,
      "邓": 5744,
      "那": 5745,
      "邦": 5746,
      "邪": 5747,
      "邮": 5748,
      "邱": 5749,
      "邸": 5750,
      "邹": 5751,
      "邻": 5752,
      "郁": 5753,
      "郊": 5754,
      "郎": 5755,
      "郑": 5756,
      "郞": 5757,
      "郡": 5758,
      "部": 5759,
      "郭": 5760,
      "郴": 5761,
      "郵": 5762,
      "郷": 5763,
      "都": 5764,
      "鄂": 5765,
      "鄉": 5766,
      "鄔": 5767,
      "鄙": 5768,
      "鄧": 5769,
      "鄰": 5770,
      "酊": 5771,
      "酋": 5772,
      "酌": 5773,
      "配": 5774,
      "酐": 5775,
      "酒": 5776,
      "酔": 5777,
      "酗": 5778,
      "酚": 5779,
      "酝": 5780,
      "酢": 5781,
      "酥": 5782,
      "酩": 5783,
      "酪": 5784,
      "酬": 5785,
      "酮": 5786,
      "酯": 5787,
      "酰": 5788,
      "酱": 5789,
      "酵": 5790,
      "酶": 5791,
      "酷": 5792,
      "酸": 5793,
      "酿": 5794,
      "醇": 5795,
      "醉": 5796,
      "醋": 5797,
      "醒": 5798,
      "醚": 5799,
      "醛": 5800,
      "醜": 5801,
      "醫": 5802,
      "醬": 5803,
      "醴": 5804,
      "醺": 5805,
      "采": 5806,
      "釈": 5807,
      "釉": 5808,
      "释": 5809,
      "釋": 5810,
      "里": 5811,
      "重": 5812,
      "野": 5813,
      "量": 5814,
      "金": 5815,
      "釘": 5816,
      "釜": 5817,
      "針": 5818,
      "釣": 5819,
      "釬": 5820,
      "鈍": 5821,
      "鈔": 5822,
      "鈕": 5823,
      "鈴": 5824,
      "鈾": 5825,
      "鉄": 5826,
      "鉈": 5827,
      "鉛": 5828,
      "鉢": 5829,
      "鉤": 5830,
      "鉱": 5831,
      "鉴": 5832,
      "銀": 5833,
      "銃": 5834,
      "銅": 5835,
      "銘": 5836,
      "銬": 5837,
      "銭": 5838,
      "銳": 5839,
      "銷": 5840,
      "鋪": 5841,
      "鋭": 5842,
      "鋳": 5843,
      "鋸": 5844,
      "鋼": 5845,
      "錄": 5846,
      "錆": 5847,
      "錐": 5848,
      "錘": 5849,
      "錠": 5850,
      "錢": 5851,
      "錦": 5852,
      "錨": 5853,
      "錫": 5854,
      "錬": 5855,
      "錯": 5856,
      "録": 5857,
      "鍋": 5858,
      "鍔": 5859,
      "鍛": 5860,
      "鍵": 5861,
      "鎌": 5862,
      "鎔": 5863,
      "鎖": 5864,
      "鎘": 5865,
      "鎧": 5866,
      "鎮": 5867,
      "鏈": 5868,
      "鏘": 5869,
      "鏡": 5870,
      "鏢": 5871,
      "鐐": 5872,
      "鐘": 5873,
      "鐵": 5874,
      "鑑": 5875,
      "鑒": 5876,
      "鑰": 5877,
      "鑲": 5878,
      "鑽": 5879,
      "鑿": 5880,
      "针": 5881,
      "钉": 5882,
      "钊": 5883,
      "钍": 5884,
      "钓": 5885,
      "钚": 5886,
      "钛": 5887,
      "钝": 5888,
      "钞": 5889,
      "钟": 5890,
      "钠": 5891,
      "钡": 5892,
      "钢": 5893,
      "钥": 5894,
      "钦": 5895,
      "钧": 5896,
      "钨": 5897,
      "钩": 5898,
      "钮": 5899,
      "钱": 5900,
      "钳": 5901,
      "钴": 5902,
      "钵": 5903,
      "钶": 5904,
      "钻": 5905,
      "钽": 5906,
      "钾": 5907,
      "铀": 5908,
      "铁": 5909,
      "铃": 5910,
      "铅": 5911,
      "铆": 5912,
      "铉": 5913,
      "铌": 5914,
      "铎": 5915,
      "铐": 5916,
      "铛": 5917,
      "铜": 5918,
      "铝": 5919,
      "铠": 5920,
      "铤": 5921,
      "铪": 5922,
      "铬": 5923,
      "铭": 5924,
      "铲": 5925,
      "银": 5926,
      "铸": 5927,
      "铺": 5928,
      "链": 5929,
      "销": 5930,
      "锁": 5931,
      "锂": 5932,
      "锄": 5933,
      "锅": 5934,
      "锈": 5935,
      "锋": 5936,
      "锌": 5937,
      "锐": 5938,
      "锒": 5939,
      "错": 5940,
      "锚": 5941,
      "锡": 5942,
      "锢": 5943,
      "锣": 5944,
      "锤": 5945,
      "锥": 5946,
      "锦": 5947,
      "锭": 5948,
      "键": 5949,
      "锯": 5950,
      "锰": 5951,
      "锵": 5952,
      "锹": 5953,
      "锻": 5954,
      "镀": 5955,
      "镇": 5956,
      "镉": 5957,
      "镊": 5958,
      "镍": 5959,
      "镑": 5960,
      "镓": 5961,
      "镖": 5962,
      "镛": 5963,
      "镜": 5964,
      "镣": 5965,
      "镮": 5966,
      "镯": 5967,
      "镳": 5968,
      "镶": 5969,
      "長": 5970,
      "长": 5971,
      "門": 5972,
      "閃": 5973,
      "閉": 5974,
      "開": 5975,
      "閑": 5976,
      "閒": 5977,
      "間": 5978,
      "関": 5979,
      "閣": 5980,
      "閤": 5981,
      "閥": 5982,
      "閱": 5983,
      "閲": 5984,
      "闆": 5985,
      "闇": 5986,
      "闊": 5987,
      "闌": 5988,
      "闕": 5989,
      "闖": 5990,
      "闘": 5991,
      "關": 5992,
      "闡": 5993,
      "门": 5994,
      "闪": 5995,
      "闭": 5996,
      "问": 5997,
      "闯": 5998,
      "闲": 5999,
      "间": 6000,
      "闷": 6001,
      "闸": 6002,
      "闹": 6003,
      "闺": 6004,
      "闻": 6005,
      "闽": 6006,
      "阀": 6007,
      "阁": 6008,
      "阅": 6009,
      "阉": 6010,
      "阎": 6011,
      "阐": 6012,
      "阔": 6013,
      "队": 6014,
      "阡": 6015,
      "阪": 6016,
      "阰": 6017,
      "阱": 6018,
      "防": 6019,
      "阳": 6020,
      "阴": 6021,
      "阵": 6022,
      "阶": 6023,
      "阻": 6024,
      "阿": 6025,
      "陀": 6026,
      "附": 6027,
      "际": 6028,
      "陆": 6029,
      "陈": 6030,
      "陋": 6031,
      "陌": 6032,
      "降": 6033,
      "限": 6034,
      "陑": 6035,
      "陛": 6036,
      "陡": 6037,
      "院": 6038,
      "陣": 6039,
      "除": 6040,
      "陥": 6041,
      "险": 6042,
      "陪": 6043,
      "陰": 6044,
      "陲": 6045,
      "陳": 6046,
      "陵": 6047,
      "陶": 6048,
      "陷": 6049,
      "陸": 6050,
      "険": 6051,
      "陽": 6052,
      "隅": 6053,
      "隆": 6054,
      "隈": 6055,
      "隊": 6056,
      "階": 6057,
      "随": 6058,
      "隐": 6059,
      "隔": 6060,
      "隕": 6061,
      "隘": 6062,
      "隙": 6063,
      "際": 6064,
      "障": 6065,
      "隠": 6066,
      "隣": 6067,
      "隧": 6068,
      "隨": 6069,
      "險": 6070,
      "隱": 6071,
      "隶": 6072,
      "隷": 6073,
      "隸": 6074,
      "隻": 6075,
      "隼": 6076,
      "难": 6077,
      "雀": 6078,
      "雁": 6079,
      "雄": 6080,
      "雅": 6081,
      "集": 6082,
      "雇": 6083,
      "雌": 6084,
      "雏": 6085,
      "雑": 6086,
      "雕": 6087,
      "雖": 6088,
      "雙": 6089,
      "雛": 6090,
      "雜": 6091,
      "雞": 6092,
      "離": 6093,
      "難": 6094,
      "雨": 6095,
      "雪": 6096,
      "雫": 6097,
      "雰": 6098,
      "雲": 6099,
      "零": 6100,
      "雷": 6101,
      "雹": 6102,
      "電": 6103,
      "雾": 6104,
      "需": 6105,
      "霄": 6106,
      "霆": 6107,
      "震": 6108,
      "霉": 6109,
      "霊": 6110,
      "霍": 6111,
      "霏": 6112,
      "霓": 6113,
      "霖": 6114,
      "霜": 6115,
      "霞": 6116,
      "霧": 6117,
      "霰": 6118,
      "露": 6119,
      "霸": 6120,
      "霹": 6121,
      "霾": 6122,
      "靂": 6123,
      "靈": 6124,
      "青": 6125,
      "靓": 6126,
      "靖": 6127,
      "静": 6128,
      "靜": 6129,
      "非": 6130,
      "靠": 6131,
      "靡": 6132,
      "面": 6133,
      "革": 6134,
      "靳": 6135,
      "靴": 6136,
      "靶": 6137,
      "鞄": 6138,
      "鞋": 6139,
      "鞍": 6140,
      "鞏": 6141,
      "鞠": 6142,
      "鞭": 6143,
      "韋": 6144,
      "韓": 6145,
      "韦": 6146,
      "韧": 6147,
      "韩": 6148,
      "韭": 6149,
      "音": 6150,
      "韵": 6151,
      "韻": 6152,
      "響": 6153,
      "頁": 6154,
      "頂": 6155,
      "頃": 6156,
      "項": 6157,
      "順": 6158,
      "須": 6159,
      "頌": 6160,
      "預": 6161,
      "頑": 6162,
      "頒": 6163,
      "頓": 6164,
      "頗": 6165,
      "領": 6166,
      "頬": 6167,
      "頭": 6168,
      "頸": 6169,
      "頻": 6170,
      "頼": 6171,
      "顆": 6172,
      "題": 6173,
      "額": 6174,
      "顎": 6175,
      "顏": 6176,
      "顔": 6177,
      "顕": 6178,
      "願": 6179,
      "類": 6180,
      "顧": 6181,
      "顯": 6182,
      "顱": 6183,
      "页": 6184,
      "顶": 6185,
      "顷": 6186,
      "项": 6187,
      "顺": 6188,
      "须": 6189,
      "顽": 6190,
      "顾": 6191,
      "顿": 6192,
      "颁": 6193,
      "颂": 6194,
      "预": 6195,
      "颅": 6196,
      "领": 6197,
      "颇": 6198,
      "颈": 6199,
      "颊": 6200,
      "颏": 6201,
      "颐": 6202,
      "频": 6203,
      "颓": 6204,
      "颖": 6205,
      "颗": 6206,
      "题": 6207,
      "颚": 6208,
      "颜": 6209,
      "额": 6210,
      "颠": 6211,
      "颤": 6212,
      "颧": 6213,
      "風": 6214,
      "颶": 6215,
      "飄": 6216,
      "风": 6217,
      "飓": 6218,
      "飘": 6219,
      "飙": 6220,
      "飛": 6221,
      "飞": 6222,
      "食": 6223,
      "飢": 6224,
      "飯": 6225,
      "飲": 6226,
      "飴": 6227,
      "飼": 6228,
      "飽": 6229,
      "飾": 6230,
      "餃": 6231,
      "餅": 6232,
      "養": 6233,
      "餌": 6234,
      "餐": 6235,
      "餒": 6236,
      "餓": 6237,
      "餘": 6238,
      "餞": 6239,
      "餡": 6240,
      "館": 6241,
      "餵": 6242,
      "饑": 6243,
      "饒": 6244,
      "饥": 6245,
      "饨": 6246,
      "饪": 6247,
      "饭": 6248,
      "饮": 6249,
      "饯": 6250,
      "饰": 6251,
      "饱": 6252,
      "饲": 6253,
      "饵": 6254,
      "饶": 6255,
      "饺": 6256,
      "饼": 6257,
      "饿": 6258,
      "馁": 6259,
      "馄": 6260,
      "馅": 6261,
      "馆": 6262,
      "馈": 6263,
      "馊": 6264,
      "馏": 6265,
      "馑": 6266,
      "馒": 6267,
      "首": 6268,
      "香": 6269,
      "馨": 6270,
      "馬": 6271,
      "馮": 6272,
      "馱": 6273,
      "馳": 6274,
      "馴": 6275,
      "駁": 6276,
      "駄": 6277,
      "駅": 6278,
      "駆": 6279,
      "駐": 6280,
      "駒": 6281,
      "駕": 6282,
      "駛": 6283,
      "駝": 6284,
      "駱": 6285,
      "駿": 6286,
      "騎": 6287,
      "騒": 6288,
      "験": 6289,
      "騙": 6290,
      "騰": 6291,
      "騷": 6292,
      "驅": 6293,
      "驕": 6294,
      "驗": 6295,
      "驚": 6296,
      "驟": 6297,
      "马": 6298,
      "驭": 6299,
      "驮": 6300,
      "驯": 6301,
      "驰": 6302,
      "驱": 6303,
      "驳": 6304,
      "驴": 6305,
      "驶": 6306,
      "驹": 6307,
      "驻": 6308,
      "驼": 6309,
      "驾": 6310,
      "骁": 6311,
      "骂": 6312,
      "骄": 6313,
      "骆": 6314,
      "骇": 6315,
      "骋": 6316,
      "验": 6317,
      "骑": 6318,
      "骗": 6319,
      "骚": 6320,
      "骜": 6321,
      "骡": 6322,
      "骤": 6323,
      "骨": 6324,
      "骰": 6325,
      "骷": 6326,
      "骸": 6327,
      "骼": 6328,
      "髂": 6329,
      "髄": 6330,
      "髅": 6331,
      "髒": 6332,
      "髓": 6333,
      "體": 6334,
      "高": 6335,
      "髦": 6336,
      "髪": 6337,
      "髭": 6338,
      "髮": 6339,
      "鬆": 6340,
      "鬍": 6341,
      "鬚": 6342,
      "鬥": 6343,
      "鬧": 6344,
      "鬨": 6345,
      "鬱": 6346,
      "鬼": 6347,
      "魁": 6348,
      "魂": 6349,
      "魄": 6350,
      "魅": 6351,
      "魇": 6352,
      "魏": 6353,
      "魔": 6354,
      "魚": 6355,
      "魣": 6356,
      "魯": 6357,
      "鮑": 6358,
      "鮒": 6359,
      "鮫": 6360,
      "鮮": 6361,
      "鯉": 6362,
      "鯨": 6363,
      "鰐": 6364,
      "鰯": 6365,
      "鰹": 6366,
      "鱒": 6367,
      "鱗": 6368,
      "鱼": 6369,
      "鱿": 6370,
      "鲀": 6371,
      "鲁": 6372,
      "鲈": 6373,
      "鲍": 6374,
      "鲑": 6375,
      "鲔": 6376,
      "鲜": 6377,
      "鲨": 6378,
      "鲭": 6379,
      "鲷": 6380,
      "鲸": 6381,
      "鲽": 6382,
      "鳄": 6383,
      "鳍": 6384,
      "鳏": 6385,
      "鳕": 6386,
      "鳗": 6387,
      "鳞": 6388,
      "鳟": 6389,
      "鳥": 6390,
      "鳩": 6391,
      "鳳": 6392,
      "鳴": 6393,
      "鴃": 6394,
      "鴉": 6395,
      "鴎": 6396,
      "鴻": 6397,
      "鴿": 6398,
      "鵄": 6399,
      "鵜": 6400,
      "鵝": 6401,
      "鵞": 6402,
      "鶏": 6403,
      "鶴": 6404,
      "鷲": 6405,
      "鷹": 6406,
      "鸌": 6407,
      "鸞": 6408,
      "鸟": 6409,
      "鸠": 6410,
      "鸡": 6411,
      "鸣": 6412,
      "鸥": 6413,
      "鸦": 6414,
      "鸭": 6415,
      "鸵": 6416,
      "鸽": 6417,
      "鸾": 6418,
      "鸿": 6419,
      "鹅": 6420,
      "鹉": 6421,
      "鹊": 6422,
      "鹏": 6423,
      "鹞": 6424,
      "鹣": 6425,
      "鹤": 6426,
      "鹦": 6427,
      "鹫": 6428,
      "鹰": 6429,
      "鹳": 6430,
      "鹸": 6431,
      "鹿": 6432,
      "麒": 6433,
      "麓": 6434,
      "麗": 6435,
      "麟": 6436,
      "麥": 6437,
      "麦": 6438,
      "麵": 6439,
      "麺": 6440,
      "麻": 6441,
      "麼": 6442,
      "麽": 6443,
      "麿": 6444,
      "黃": 6445,
      "黄": 6446,
      "黍": 6447,
      "黎": 6448,
      "黏": 6449,
      "黑": 6450,
      "黒": 6451,
      "默": 6452,
      "黙": 6453,
      "黛": 6454,
      "點": 6455,
      "黧": 6456,
      "黨": 6457,
      "黩": 6458,
      "黯": 6459,
      "鼎": 6460,
      "鼓": 6461,
      "鼠": 6462,
      "鼹": 6463,
      "鼻": 6464,
      "齊": 6465,
      "齋": 6466,
      "齐": 6467,
      "齡": 6468,
      "齢": 6469,
      "齧": 6470,
      "齿": 6471,
      "龄": 6472,
      "龊": 6473,
      "龌": 6474,
      "龍": 6475,
      "龐": 6476,
      "龙": 6477,
      "龚": 6478,
      "龜": 6479,
      "龟": 6480,
      "뱾": 6481,
      "": 6482,
      "": 6483,
      "": 6484,
      "": 6485,
      "": 6486,
      "": 6487,
      "": 6488,
      "": 6489,
      "": 6490,
      "": 6491,
      "": 6492,
      "": 6493,
      "": 6494,
      "": 6495,
      "": 6496,
      "": 6497,
      "": 6498,
      "": 6499,
      "": 6500,
      "": 6501,
      "": 6502,
      "": 6503,
      "": 6504,
      "": 6505,
      "": 6506,
      "": 6507,
      "": 6508,
      "": 6509,
      "": 6510,
      "": 6511,
      "": 6512,
      "": 6513,
      "": 6514,
      "": 6515,
      "": 6516,
      "": 6517,
      "": 6518,
      "": 6519,
      "": 6520,
      "": 6521,
      "": 6522,
      "": 6523,
      "": 6524,
      "": 6525,
      "": 6526,
      "": 6527,
      "": 6528,
      "": 6529,
      "": 6530,
      "": 6531,
      "": 6532,
      "": 6533,
      "": 6534,
      "": 6535,
      "": 6536,
      "": 6537,
      "": 6538,
      "": 6539,
      "": 6540,
      "": 6541,
      "": 6542,
      "": 6543,
      "": 6544,
      "": 6545,
      "": 6546,
      "": 6547,
      "": 6548,
      "": 6549,
      "": 6550,
      "": 6551,
      "": 6552,
      "": 6553,
      "": 6554,
      "": 6555,
      "": 6556,
      "": 6557,
      "": 6558,
      "": 6559,
      "": 6560,
      "": 6561,
      "": 6562,
      "": 6563,
      "": 6564,
      "": 6565,
      "": 6566,
      "": 6567,
      "": 6568,
      "": 6569,
      "": 6570,
      "": 6571,
      "": 6572,
      "": 6573,
      "": 6574,
      "": 6575,
      "": 6576,
      "": 6577,
      "": 6578,
      "": 6579,
      "": 6580,
      "": 6581,
      "": 6582,
      "": 6583,
      "": 6584,
      "": 6585,
      "": 6586,
      "": 6587,
      "": 6588,
      "": 6589,
      "": 6590,
      "": 6591,
      "": 6592,
      "": 6593,
      "": 6594,
      "": 6595,
      "": 6596,
      "": 6597,
      "": 6598,
      "": 6599,
      "": 6600,
      "": 6601,
      "": 6602,
      "": 6603,
      "": 6604,
      "": 6605,
      "": 6606,
      "": 6607,
      "": 6608,
      "": 6609,
      "": 6610,
      "": 6611,
      "": 6612,
      "": 6613,
      "": 6614,
      "": 6615,
      "": 6616,
      "": 6617,
      "": 6618,
      "": 6619,
      "": 6620,
      "": 6621,
      "": 6622,
      "": 6623,
      "": 6624,
      "": 6625,
      "": 6626,
      "": 6627,
      "": 6628,
      "": 6629,
      "": 6630,
      "": 6631,
      "": 6632,
      "": 6633,
      "": 6634,
      "": 6635,
      "": 6636,
      "": 6637,
      "": 6638,
      "": 6639,
      "": 6640,
      "": 6641,
      "": 6642,
      "": 6643,
      "": 6644,
      "": 6645,
      "": 6646,
      "": 6647,
      "": 6648,
      "": 6649,
      "": 6650,
      "": 6651,
      "": 6652,
      "": 6653,
      "": 6654,
      "": 6655,
      "": 6656,
      "": 6657,
      "": 6658,
      "": 6659,
      "": 6660,
      "": 6661,
      "": 6662,
      "": 6663,
      "": 6664,
      "": 6665,
      "": 6666,
      "": 6667,
      "": 6668,
      "": 6669,
      "": 6670,
      "": 6671,
      "": 6672,
      "": 6673,
      "": 6674,
      "": 6675,
      "": 6676,
      "": 6677,
      "": 6678,
      "": 6679,
      "": 6680,
      "": 6681,
      "": 6682,
      "": 6683,
      "": 6684,
      "": 6685,
      "": 6686,
      "": 6687,
      "": 6688,
      "": 6689,
      "": 6690,
      "": 6691,
      "": 6692,
      "": 6693,
      "": 6694,
      "": 6695,
      "": 6696,
      "": 6697,
      "": 6698,
      "": 6699,
      "": 6700,
      "": 6701,
      "": 6702,
      "": 6703,
      "": 6704,
      "": 6705,
      "": 6706,
      "": 6707,
      "": 6708,
      "": 6709,
      "": 6710,
      "": 6711,
      "": 6712,
      "": 6713,
      "": 6714,
      "": 6715,
      "": 6716,
      "": 6717,
      "": 6718,
      "": 6719,
      "": 6720,
      "": 6721,
      "": 6722,
      "": 6723,
      "": 6724,
      "": 6725,
      "": 6726,
      "": 6727,
      "": 6728,
      "": 6729,
      "": 6730,
      "": 6731,
      "": 6732,
      "": 6733,
      "": 6734,
      "": 6735,
      "": 6736,
      "": 6737,
      "": 6738,
      "": 6739,
      "": 6740,
      "": 6741,
      "": 6742,
      "": 6743,
      "": 6744,
      "": 6745,
      "": 6746,
      "": 6747,
      "": 6748,
      "": 6749,
      "": 6750,
      "": 6751,
      "": 6752,
      "": 6753,
      "": 6754,
      "": 6755,
      "": 6756,
      "": 6757,
      "": 6758,
      "": 6759,
      "": 6760,
      "": 6761,
      "": 6762,
      "": 6763,
      "": 6764,
      "": 6765,
      "": 6766,
      "": 6767,
      "": 6768,
      "": 6769,
      "": 6770,
      "": 6771,
      "": 6772,
      "": 6773,
      "": 6774,
      "": 6775,
      "": 6776,
      "": 6777,
      "": 6778,
      "": 6779,
      "": 6780,
      "": 6781,
      "": 6782,
      "": 6783,
      "": 6784,
      "": 6785,
      "": 6786,
      "": 6787,
      "": 6788,
      "": 6789,
      "": 6790,
      "﨑": 6791,
      "ﬁ": 6792,
      "ﬂ": 6793,
      "︺": 6794,
      "︽": 6795,
      "︾": 6796,
      "﹁": 6797,
      "﹄": 6798,
      "﹊": 6799,
      "﹍": 6800,
      "﹐": 6801,
      "﹑": 6802,
      "﹒": 6803,
      "﹖": 6804,
      "﹗": 6805,
      "﹚": 6806,
      "﹛": 6807,
      "﹝": 6808,
      "﹡": 6809,
      "﹣": 6810,
      "ﺀ": 6811,
      "ﺁ": 6812,
      "ﺃ": 6813,
      "ﺄ": 6814,
      "ﺇ": 6815,
      "ﺋ": 6816,
      "ﺍ": 6817,
      "ﺎ": 6818,
      "ﺐ": 6819,
      "ﺑ": 6820,
      "ﺒ": 6821,
      "ﺓ": 6822,
      "ﺔ": 6823,
      "ﺕ": 6824,
      "ﺖ": 6825,
      "ﺗ": 6826,
      "ﺘ": 6827,
      "ﺙ": 6828,
      "ﺜ": 6829,
      "ﺝ": 6830,
      "ﺟ": 6831,
      "ﺠ": 6832,
      "ﺣ": 6833,
      "ﺤ": 6834,
      "ﺧ": 6835,
      "ﺨ": 6836,
      "ﺩ": 6837,
      "ﺪ": 6838,
      "ﺫ": 6839,
      "ﺬ": 6840,
      "ﺭ": 6841,
      "ﺮ": 6842,
      "ﺯ": 6843,
      "ﺰ": 6844,
      "ﺱ": 6845,
      "ﺳ": 6846,
      "ﺴ": 6847,
      "ﺷ": 6848,
      "ﺸ": 6849,
      "ﺼ": 6850,
      "ﻃ": 6851,
      "ﻄ": 6852,
      "ﻆ": 6853,
      "ﻈ": 6854,
      "ﻋ": 6855,
      "ﻌ": 6856,
      "ﻏ": 6857,
      "ﻒ": 6858,
      "ﻓ": 6859,
      "ﻔ": 6860,
      "ﻖ": 6861,
      "ﻗ": 6862,
      "ﻘ": 6863,
      "ﻚ": 6864,
      "ﻛ": 6865,
      "ﻜ": 6866,
      "ﻝ": 6867,
      "ﻞ": 6868,
      "ﻟ": 6869,
      "ﻠ": 6870,
      "ﻡ": 6871,
      "ﻢ": 6872,
      "ﻣ": 6873,
      "ﻤ": 6874,
      "ﻥ": 6875,
      "ﻦ": 6876,
      "ﻧ": 6877,
      "ﻨ": 6878,
      "ﻪ": 6879,
      "ﻫ": 6880,
      "ﻬ": 6881,
      "ﻭ": 6882,
      "ﻮ": 6883,
      "ﻰ": 6884,
      "ﻲ": 6885,
      "ﻳ": 6886,
      "ﻴ": 6887,
      "ﻷ": 6888,
      "ﻼ": 6889,
      "！": 6890,
      "＃": 6891,
      "＄": 6892,
      "％": 6893,
      "＆": 6894,
      "＇": 6895,
      "（": 6896,
      "）": 6897,
      "＊": 6898,
      "＋": 6899,
      "，": 6900,
      "－": 6901,
      "．": 6902,
      "／": 6903,
      "０": 6904,
      "１": 6905,
      "２": 6906,
      "３": 6907,
      "４": 6908,
      "５": 6909,
      "６": 6910,
      "７": 6911,
      "８": 6912,
      "９": 6913,
      "：": 6914,
      "；": 6915,
      "＜": 6916,
      "＝": 6917,
      "＞": 6918,
      "？": 6919,
      "Ａ": 6920,
      "Ｂ": 6921,
      "Ｃ": 6922,
      "Ｄ": 6923,
      "Ｅ": 6924,
      "Ｆ": 6925,
      "Ｇ": 6926,
      "Ｈ": 6927,
      "Ｉ": 6928,
      "Ｊ": 6929,
      "Ｋ": 6930,
      "Ｌ": 6931,
      "Ｍ": 6932,
      "Ｎ": 6933,
      "Ｏ": 6934,
      "Ｐ": 6935,
      "Ｑ": 6936,
      "Ｒ": 6937,
      "Ｓ": 6938,
      "Ｔ": 6939,
      "Ｕ": 6940,
      "Ｖ": 6941,
      "Ｗ": 6942,
      "Ｘ": 6943,
      "Ｙ": 6944,
      "Ｚ": 6945,
      "［": 6946,
      "＼": 6947,
      "］": 6948,
      "＿": 6949,
      "ａ": 6950,
      "ｃ": 6951,
      "ｄ": 6952,
      "ｅ": 6953,
      "ｇ": 6954,
      "ｈ": 6955,
      "ｉ": 6956,
      "ｋ": 6957,
      "ｌ": 6958,
      "ｍ": 6959,
      "ｎ": 6960,
      "ｏ": 6961,
      "ｐ": 6962,
      "ｒ": 6963,
      "ｓ": 6964,
      "ｔ": 6965,
      "ｕ": 6966,
      "ｖ": 6967,
      "ｗ": 6968,
      "ｘ": 6969,
      "ｙ": 6970,
      "ｚ": 6971,
      "～": 6972,
      "｡": 6973,
      "｢": 6974,
      "｣": 6975,
      "､": 6976,
      "･": 6977,
      "ｨ": 6978,
      "ｪ": 6979,
      "ｫ": 6980,
      "ｬ": 6981,
      "ｭ": 6982,
      "ｮ": 6983,
      "ｯ": 6984,
      "ｰ": 6985,
      "ｱ": 6986,
      "ｲ": 6987,
      "ｳ": 6988,
      "ｴ": 6989,
      "ｵ": 6990,
      "ｶ": 6991,
      "ｷ": 6992,
      "ｸ": 6993,
      "ｹ": 6994,
      "ｺ": 6995,
      "ｻ": 6996,
      "ｼ": 6997,
      "ｽ": 6998,
      "ﾀ": 6999,
      "ﾁ": 7000,
      "ﾃ": 7001,
      "ﾄ": 7002,
      "ﾅ": 7003,
      "ﾆ": 7004,
      "ﾈ": 7005,
      "ﾊ": 7006,
      "ﾋ": 7007,
      "ﾌ": 7008,
      "ﾍ": 7009,
      "ﾎ": 7010,
      "ﾏ": 7011,
      "ﾑ": 7012,
      "ﾒ": 7013,
      "ﾗ": 7014,
      "ﾘ": 7015,
      "ﾙ": 7016,
      "ﾚ": 7017,
      "ﾝ": 7018,
      "ﾞ": 7019,
      "ﾟ": 7020,
      "th": 7021,
      "ng": 7022,
      "the": 7023,
      "an": 7024,
      "re": 7025,
      "on": 7026,
      "at": 7027,
      "in": 7028,
      "ou": 7029,
      "er": 7030,
      "ch": 7031,
      "en": 7032,
      "to": 7033,
      "al": 7034,
      "vi": 7035,
      "nh": 7036,
      "is": 7037,
      "or": 7038,
      "es": 7039,
      "of": 7040,
      "it": 7041,
      "ing": 7042,
      "ed": 7043,
      "and": 7044,
      "tr": 7045,
      "ion": 7046,
      "ar": 7047,
      "ja": 7048,
      "zh": 7049,
      "2vi": 7050,
      "2ja": 7051,
      "2zh": 7052,
      "as": 7053,
      "le": 7054,
      "om": 7055,
      "os": 7056,
      "he": 7057,
      "ap": 7058,
      "ot": 7059,
      "ve": 7060,
      "you": 7061,
      "ic": 7062,
      "ent": 7063,
      "qu": 7064,
      "st": 7065,
      "kh": 7066,
      "se": 7067,
      "be": 7068,
      "that": 7069,
      "là": 7070,
      "ll": 7071,
      "ow": 7072,
      "ation": 7073,
      "ay": 7074,
      "ôi": 7075,
      "ac": 7076,
      "ly": 7077,
      "me": 7078,
      "we": 7079,
      "apos": 7080,
      "for": 7081,
      "de": 7082,
      "và": 7083,
      "hi": 7084,
      "li": 7085,
      "gi": 7086,
      "nd": 7087,
      "ta": 7088,
      "ph": 7089,
      "ro": 7090,
      "ti": 7091,
      "ld": 7092,
      "ha": 7093,
      "ột": 7094,
      "ông": 7095,
      "wi": 7096,
      "ver": 7097,
      "tôi": 7098,
      "con": 7099,
      "ut": 7100,
      "gh": 7101,
      "một": 7102,
      "ra": 7103,
      "lo": 7104,
      "có": 7105,
      "úng": 7106,
      "..": 7107,
      "wh": 7108,
      "cá": 7109,
      "ce": 7110,
      "su": 7111,
      "ên": 7112,
      "ri": 7113,
      "ter": 7114,
      "ment": 7115,
      "ững": 7116,
      "00": 7117,
      "are": 7118,
      "ke": 7119,
      "ec": 7120,
      "ời": 7121,
      "ab": 7122,
      "The": 7123,
      "những": 7124,
      "quot": 7125,
      "ới": 7126,
      "do": 7127,
      "chúng": 7128,
      "et": 7129,
      "so": 7130,
      "củ": 7131,
      "của": 7132,
      "di": 7133,
      "all": 7134,
      "com": 7135,
      "out": 7136,
      "ất": 7137,
      "with": 7138,
      "this": 7139,
      "ạn": 7140,
      "pro": 7141,
      "ad": 7142,
      "ur": 7143,
      "ir": 7144,
      "ag": 7145,
      "ne": 7146,
      "us": 7147,
      "ong": 7148,
      "te": 7149,
      "was": 7150,
      "ght": 7151,
      "op": 7152,
      "nà": 7153,
      "res": 7154,
      "And": 7155,
      "am": 7156,
      "không": 7157,
      "ều": 7158,
      "nó": 7159,
      "ượ": 7160,
      "Th": 7161,
      "au": 7162,
      "go": 7163,
      "ười": 7164,
      "have": 7165,
      "đó": 7166,
      "đi": 7167,
      "bạn": 7168,
      "one": 7169,
      "ate": 7170,
      "bi": 7171,
      "ould": 7172,
      "si": 7173,
      "not": 7174,
      "người": 7175,
      "ết": 7176,
      "ol": 7177,
      "ther": 7178,
      "our": 7179,
      "ang": 7180,
      "un": 7181,
      "ại": 7182,
      "--": 7183,
      "trong": 7184,
      "uy": 7185,
      "ess": 7186,
      "ai": 7187,
      "200": 7188,
      "now": 7189,
      "wor": 7190,
      "ul": 7191,
      "thể": 7192,
      "fe": 7193,
      "art": 7194,
      "od": 7195,
      "ex": 7196,
      "cho": 7197,
      "ci": 7198,
      "ant": 7199,
      "ược": 7200,
      "ome": 7201,
      "pe": 7202,
      "em": 7203,
      "này": 7204,
      "đã": 7205,
      "ity": 7206,
      "ma": 7207,
      "can": 7208,
      "các": 7209,
      "per": 7210,
      "...": 7211,
      "fr": 7212,
      "được": 7213,
      "như": 7214,
      "ến": 7215,
      "tion": 7216,
      "ally": 7217,
      "ây": 7218,
      "ho": 7219,
      "im": 7220,
      "man": 7221,
      "ust": 7222,
      "họ": 7223,
      "by": 7224,
      "thing": 7225,
      "ình": 7226,
      "pl": 7227,
      "mo": 7228,
      "We": 7229,
      "they": 7230,
      "Và": 7231,
      "với": 7232,
      "here": 7233,
      "ấy": 7234,
      "ort": 7235,
      "sự": 7236,
      "end": 7237,
      "You": 7238,
      "It": 7239,
      "my": 7240,
      "sh": 7241,
      "if": 7242,
      "mà": 7243,
      "ations": 7244,
      "what": 7245,
      "ần": 7246,
      "ải": 7247,
      "làm": 7248,
      "up": 7249,
      "ts": 7250,
      "ện": 7251,
      "from": 7252,
      "ok": 7253,
      "very": 7254,
      "ác": 7255,
      "ers": 7256,
      "about": 7257,
      "oun": 7258,
      "Ch": 7259,
      "tu": 7260,
      "know": 7261,
      "port": 7262,
      "some": 7263,
      "nhi": 7264,
      "ằng": 7265,
      "ực": 7266,
      "So": 7267,
      "there": 7268,
      "uc": 7269,
      "your": 7270,
      "để": 7271,
      "ない": 7272,
      "về": 7273,
      "sẽ": 7274,
      "no": 7275,
      "ies": 7276,
      "ngh": 7277,
      "cả": 7278,
      "chi": 7279,
      "ind": 7280,
      "In": 7281,
      "khi": 7282,
      "ống": 7283,
      "pr": 7284,
      "Wh": 7285,
      "mb": 7286,
      "like": 7287,
      "but": 7288,
      "って": 7289,
      "get": 7290,
      "king": 7291,
      "ân": 7292,
      "ơn": 7293,
      "id": 7294,
      "ật": 7295,
      "il": 7296,
      "điều": 7297,
      "He": 7298,
      "thế": 7299,
      "ard": 7300,
      "ầu": 7301,
      "cu": 7302,
      "ren": 7303,
      "ist": 7304,
      "just": 7305,
      "ain": 7306,
      "fo": 7307,
      "cl": 7308,
      "った": 7309,
      "way": 7310,
      "ff": 7311,
      "mu": 7312,
      "co": 7313,
      "sp": 7314,
      "ill": 7315,
      "ướ": 7316,
      "red": 7317,
      "whi": 7318,
      "ear": 7319,
      "est": 7320,
      "ành": 7321,
      "từ": 7322,
      "sa": 7323,
      "will": 7324,
      "anh": 7325,
      "them": 7326,
      "right": 7327,
      "nói": 7328,
      "ple": 7329,
      "ople": 7330,
      "Tôi": 7331,
      "inh": 7332,
      "sion": 7333,
      "und": 7334,
      "tor": 7335,
      "iz": 7336,
      "19": 7337,
      "other": 7338,
      "rou": 7339,
      "its": 7340,
      "ose": 7341,
      "had": 7342,
      "nă": 7343,
      "ức": 7344,
      "who": 7345,
      "ack": 7346,
      "part": 7347,
      "their": 7348,
      "people": 7349,
      "el": 7350,
      "đến": 7351,
      "would": 7352,
      "ble": 7353,
      "phải": 7354,
      "ace": 7355,
      "ine": 7356,
      "ính": 7357,
      "ational": 7358,
      "has": 7359,
      "ge": 7360,
      "which": 7361,
      "ink": 7362,
      "ary": 7363,
      "ous": 7364,
      "ven": 7365,
      "ệc": 7366,
      "over": 7367,
      "đang": 7368,
      "don": 7369,
      "ườ": 7370,
      "ước": 7371,
      "were": 7372,
      "ối": 7373,
      "work": 7374,
      "gì": 7375,
      "vào": 7376,
      "ted": 7377,
      "rằng": 7378,
      "Nh": 7379,
      "ường": 7380,
      "àn": 7381,
      "việc": 7382,
      "ive": 7383,
      "ans": 7384,
      "tri": 7385,
      "ance": 7386,
      "any": 7387,
      "して": 7388,
      "ản": 7389,
      "ated": 7390,
      "tern": 7391,
      "nghĩ": 7392,
      "ud": 7393,
      "ep": 7394,
      "ast": 7395,
      "more": 7396,
      "lại": 7397,
      "dis": 7398,
      "But": 7399,
      "rất": 7400,
      "see": 7401,
      "thấy": 7402,
      "ận": 7403,
      "cách": 7404,
      "bl": 7405,
      "cre": 7406,
      "ếu": 7407,
      "pos": 7408,
      "độ": 7409,
      "mit": 7410,
      "form": 7411,
      "Un": 7412,
      "ause": 7413,
      "ight": 7414,
      "coun": 7415,
      "St": 7416,
      "ord": 7417,
      "been": 7418,
      "âu": 7419,
      "want": 7420,
      "own": 7421,
      "hơn": 7422,
      "nhiều": 7423,
      "app": 7424,
      "ùng": 7425,
      "What": 7426,
      "ig": 7427,
      "year": 7428,
      "ươ": 7429,
      "thực": 7430,
      "ậy": 7431,
      "ty": 7432,
      "ài": 7433,
      "when": 7434,
      "bo": 7435,
      "age": 7436,
      "đầu": 7437,
      "able": 7438,
      "ice": 7439,
      "time": 7440,
      "ves": 7441,
      "these": 7442,
      "ốn": 7443,
      "ương": 7444,
      "我们": 7445,
      "think": 7446,
      "need": 7447,
      "đây": 7448,
      "hu": 7449,
      "Com": 7450,
      "min": 7451,
      "ener": 7452,
      "ical": 7453,
      "ost": 7454,
      "did": 7455,
      "act": 7456,
      "した": 7457,
      "ited": 7458,
      "him": 7459,
      "going": 7460,
      "ial": 7461,
      "ound": 7462,
      "ish": 7463,
      "how": 7464,
      "day": 7465,
      "his": 7466,
      "ọi": 7467,
      "国家": 7468,
      "velo": 7469,
      "cái": 7470,
      "pre": 7471,
      "ence": 7472,
      "học": 7473,
      "ạo": 7474,
      "chỉ": 7475,
      "khác": 7476,
      "velop": 7477,
      "委员": 7478,
      "trên": 7479,
      "This": 7480,
      "委员会": 7481,
      "ổi": 7482,
      "công": 7483,
      "ates": 7484,
      "ect": 7485,
      "ền": 7486,
      "got": 7487,
      "vì": 7488,
      "ao": 7489,
      "10": 7490,
      "pres": 7491,
      "会议": 7492,
      "tin": 7493,
      "nào": 7494,
      "ki": 7495,
      "comm": 7496,
      "biết": 7497,
      "look": 7498,
      "Chúng": 7499,
      "ution": 7500,
      "chuy": 7501,
      "ces": 7502,
      "bec": 7503,
      "No": 7504,
      "thứ": 7505,
      "ree": 7506,
      "àng": 7507,
      "try": 7508,
      "ure": 7509,
      "mber": 7510,
      "come": 7511,
      "ơi": 7512,
      "năm": 7513,
      "United": 7514,
      "át": 7515,
      "ass": 7516,
      "ob": 7517,
      "could": 7518,
      "ung": 7519,
      "under": 7520,
      "then": 7521,
      "ũng": 7522,
      "ase": 7523,
      "gr": 7524,
      "ệu": 7525,
      "ach": 7526,
      "ộc": 7527,
      "say": 7528,
      "ển": 7529,
      "her": 7530,
      "thu": 7531,
      "where": 7532,
      "bu": 7533,
      "thi": 7534,
      "thành": 7535,
      "ắt": 7536,
      "That": 7537,
      "into": 7538,
      "ments": 7539,
      "dụ": 7540,
      "reg": 7541,
      "问题": 7542,
      "联合": 7543,
      "aid": 7544,
      "than": 7545,
      "nghi": 7546,
      "cent": 7547,
      "reat": 7548,
      "because": 7549,
      "số": 7550,
      "also": 7551,
      "par": 7552,
      "ving": 7553,
      "str": 7554,
      "Như": 7555,
      "new": 7556,
      "feren": 7557,
      "ition": 7558,
      "wo": 7559,
      "cũng": 7560,
      "sel": 7561,
      "から": 7562,
      "ah": 7563,
      "um": 7564,
      "áng": 7565,
      "off": 7566,
      "They": 7567,
      "ích": 7568,
      "ái": 7569,
      "ew": 7570,
      "ệt": 7571,
      "every": 7572,
      "ia": 7573,
      "develop": 7574,
      "really": 7575,
      "nhà": 7576,
      "should": 7577,
      "sol": 7578,
      "ởi": 7579,
      "ting": 7580,
      "ăn": 7581,
      "back": 7582,
      "国际": 7583,
      "工作": 7584,
      "ame": 7585,
      "cr": 7586,
      "ồi": 7587,
      "son": 7588,
      "mis": 7589,
      "quan": 7590,
      "muốn": 7591,
      "Con": 7592,
      "des": 7593,
      "aw": 7594,
      "tal": 7595,
      "world": 7596,
      "úc": 7597,
      "kho": 7598,
      "bị": 7599,
      "gra": 7600,
      "ms": 7601,
      "she": 7602,
      "ập": 7603,
      "Nhưng": 7604,
      "ue": 7605,
      "ser": 7606,
      "ternational": 7607,
      "ưở": 7608,
      "those": 7609,
      "call": 7610,
      "ưởng": 7611,
      "联合国": 7612,
      "vent": 7613,
      "ữa": 7614,
      "bet": 7615,
      "nhất": 7616,
      "sy": 7617,
      "án": 7618,
      "fore": 7619,
      "động": 7620,
      "报告": 7621,
      "comp": 7622,
      "make": 7623,
      "tạo": 7624,
      "mình": 7625,
      "20": 7626,
      "tive": 7627,
      "nhưng": 7628,
      "irst": 7629,
      "chính": 7630,
      "nên": 7631,
      "giới": 7632,
      "ặt": 7633,
      "take": 7634,
      "lit": 7635,
      "ved": 7636,
      "tle": 7637,
      "んだ": 7638,
      "vậy": 7639,
      "なた": 7640,
      "years": 7641,
      "cess": 7642,
      "199": 7643,
      "eneral": 7644,
      "said": 7645,
      "あなた": 7646,
      "Nations": 7647,
      "发展": 7648,
      "ấn": 7649,
      "po": 7650,
      "ater": 7651,
      "ful": 7652,
      "する": 7653,
      "ning": 7654,
      "ốt": 7655,
      "two": 7656,
      "good": 7657,
      "gan": 7658,
      "êu": 7659,
      "òn": 7660,
      "ite": 7661,
      "ắc": 7662,
      "human": 7663,
      "lớ": 7664,
      "As": 7665,
      "happ": 7666,
      "lec": 7667,
      "ốc": 7668,
      "hình": 7669,
      "ày": 7670,
      "giờ": 7671,
      "ỏi": 7672,
      "sống": 7673,
      "nếu": 7674,
      "一个": 7675,
      "ef": 7676,
      "hiện": 7677,
      "mọi": 7678,
      "ry": 7679,
      "ểu": 7680,
      "ượng": 7681,
      "rough": 7682,
      "cer": 7683,
      "most": 7684,
      "provi": 7685,
      "ìn": 7686,
      "cuộc": 7687,
      "Now": 7688,
      "only": 7689,
      "です": 7690,
      "gn": 7691,
      "ưa": 7692,
      "âm": 7693,
      "こと": 7694,
      "first": 7695,
      "actu": 7696,
      "something": 7697,
      "may": 7698,
      "gy": 7699,
      "nhận": 7700,
      "cur": 7701,
      "ative": 7702,
      "tại": 7703,
      "tain": 7704,
      "ank": 7705,
      "cial": 7706,
      "Sec": 7707,
      "tiế": 7708,
      "cần": 7709,
      "thì": 7710,
      "hay": 7711,
      "tee": 7712,
      "lear": 7713,
      "12": 7714,
      "ari": 7715,
      "sup": 7716,
      "ide": 7717,
      "med": 7718,
      "それ": 7719,
      "again": 7720,
      "fin": 7721,
      "tự": 7722,
      "report": 7723,
      "lu": 7724,
      "ặc": 7725,
      "things": 7726,
      "ak": 7727,
      "down": 7728,
      "tất": 7729,
      "stand": 7730,
      "ating": 7731,
      "ứng": 7732,
      "bởi": 7733,
      "af": 7734,
      "through": 7735,
      "quy": 7736,
      "resp": 7737,
      "pri": 7738,
      "tur": 7739,
      "tới": 7740,
      "组织": 7741,
      "int": 7742,
      "pol": 7743,
      "There": 7744,
      "đề": 7745,
      "leg": 7746,
      "òng": 7747,
      "sub": 7748,
      "ôn": 7749,
      "ick": 7750,
      "De": 7751,
      "General": 7752,
      "đị": 7753,
      "theo": 7754,
      "States": 7755,
      "bắt": 7756,
      "wom": 7757,
      "ties": 7758,
      "ever": 7759,
      "ội": 7760,
      "life": 7761,
      "cond": 7762,
      "ọng": 7763,
      "mittee": 7764,
      "nhìn": 7765,
      "ます": 7766,
      "Re": 7767,
      "use": 7768,
      "made": 7769,
      "tell": 7770,
      "ft": 7771,
      "read": 7772,
      "đồ": 7773,
      "ある": 7774,
      "lớn": 7775,
      "chang": 7776,
      "mon": 7777,
      "ave": 7778,
      "ress": 7779,
      "15": 7780,
      "much": 7781,
      "ities": 7782,
      "sau": 7783,
      "well": 7784,
      "Well": 7785,
      "còn": 7786,
      "self": 7787,
      "ẫn": 7788,
      "tế": 7789,
      "let": 7790,
      "tions": 7791,
      "tries": 7792,
      "stem": 7793,
      "bằng": 7794,
      "actually": 7795,
      "spec": 7796,
      "nu": 7797,
      "cùng": 7798,
      "mar": 7799,
      "政府": 7800,
      "car": 7801,
      "thật": 7802,
      "bản": 7803,
      "ểm": 7804,
      "いる": 7805,
      "ody": 7806,
      "câu": 7807,
      "How": 7808,
      "rec": 7809,
      "br": 7810,
      "cảm": 7811,
      "xu": 7812,
      "提供": 7813,
      "Committee": 7814,
      "giá": 7815,
      "dụng": 7816,
      "icul": 7817,
      "incl": 7818,
      "lên": 7819,
      "ảng": 7820,
      "start": 7821,
      "solution": 7822,
      "little": 7823,
      "na": 7824,
      "put": 7825,
      "chuyện": 7826,
      "even": 7827,
      "does": 7828,
      "All": 7829,
      "thời": 7830,
      "person": 7831,
      "gram": 7832,
      "rel": 7833,
      "Coun": 7834,
      "方面": 7835,
      "qua": 7836,
      "sao": 7837,
      "oper": 7838,
      "ubl": 7839,
      "rest": 7840,
      "tim": 7841,
      "der": 7842,
      "trở": 7843,
      "Nó": 7844,
      "thou": 7845,
      "cứ": 7846,
      "happen": 7847,
      "关于": 7848,
      "dif": 7849,
      "body": 7850,
      "side": 7851,
      "international": 7852,
      "Is": 7853,
      "If": 7854,
      "ệm": 7855,
      "add": 7856,
      "ỗi": 7857,
      "ici": 7858,
      "child": 7859,
      "ách": 7860,
      "ngày": 7861,
      "sinh": 7862,
      "áy": 7863,
      "ganiz": 7864,
      "gu": 7865,
      "năng": 7866,
      "ục": 7867,
      "inform": 7868,
      "kind": 7869,
      "many": 7870,
      "nước": 7871,
      "bộ": 7872,
      "ảnh": 7873,
      "这些": 7874,
      "phát": 7875,
      "sử": 7876,
      "phần": 7877,
      "đổi": 7878,
      "conom": 7879,
      "他们": 7880,
      "gia": 7881,
      "Tr": 7882,
      "nhân": 7883,
      "cơ": 7884,
      "hel": 7885,
      "ìm": 7886,
      "trước": 7887,
      "long": 7888,
      "present": 7889,
      "air": 7890,
      "ques": 7891,
      "fi": 7892,
      "ise": 7893,
      "ảo": 7894,
      "ạt": 7895,
      "countries": 7896,
      "being": 7897,
      "system": 7898,
      "toàn": 7899,
      "ull": 7900,
      "nhau": 7901,
      "nơi": 7902,
      "社会": 7903,
      "differen": 7904,
      "peri": 7905,
      "ánh": 7906,
      "mission": 7907,
      "dự": 7908,
      "ions": 7909,
      "ned": 7910,
      "cil": 7911,
      "real": 7912,
      "nment": 7913,
      "cy": 7914,
      "ber": 7915,
      "ublic": 7916,
      "mới": 7917,
      "tory": 7918,
      "lie": 7919,
      "代表": 7920,
      "000": 7921,
      "ret": 7922,
      "安全": 7923,
      "thay": 7924,
      "meet": 7925,
      "inter": 7926,
      "11": 7927,
      "以及": 7928,
      "30": 7929,
      "top": 7930,
      "mer": 7931,
      "ni": 7932,
      "vấn": 7933,
      "bas": 7934,
      "cri": 7935,
      "tìm": 7936,
      "nhiên": 7937,
      "Đây": 7938,
      "tưởng": 7939,
      "ask": 7940,
      "trường": 7941,
      "định": 7942,
      "ture": 7943,
      "决议": 7944,
      "sur": 7945,
      "fl": 7946,
      "view": 7947,
      "trình": 7948,
      "かった": 7949,
      "sit": 7950,
      "import": 7951,
      "hip": 7952,
      "als": 7953,
      "Council": 7954,
      "行动": 7955,
      "tính": 7956,
      "thông": 7957,
      "lot": 7958,
      "ail": 7959,
      "hệ": 7960,
      "ck": 7961,
      "mạ": 7962,
      "inte": 7963,
      "women": 7964,
      "find": 7965,
      "情况": 7966,
      "Do": 7967,
      "UN": 7968,
      "She": 7969,
      "plement": 7970,
      "land": 7971,
      "vật": 7972,
      "requ": 7973,
      "tốt": 7974,
      "ons": 7975,
      "ăng": 7976,
      "col": 7977,
      "lý": 7978,
      "such": 7979,
      "eah": 7980,
      "xt": 7981,
      "máy": 7982,
      "aff": 7983,
      "resolution": 7984,
      "exp": 7985,
      "cus": 7986,
      "ấu": 7987,
      "ific": 7988,
      "什么": 7989,
      "roup": 7990,
      "hỏi": 7991,
      "kết": 7992,
      "ident": 7993,
      "sure": 7994,
      "av": 7995,
      "特别": 7996,
      "通过": 7997,
      "help": 7998,
      "ảy": 7999,
      "ấp": 8000,
      "かれ": 8001,
      "tech": 8002,
      "其他": 8003,
      "执行": 8004,
      "Bạn": 8005,
      "ild": 8006,
      "いい": 8007,
      "进行": 8008,
      "hàng": 8009,
      "trans": 8010,
      "great": 8011,
      "vol": 8012,
      "Oh": 8013,
      "包括": 8014,
      "ãy": 8015,
      "lt": 8016,
      "Đó": 8017,
      "ạc": 8018,
      "よう": 8019,
      "ower": 8020,
      "after": 8021,
      "commun": 8022,
      "机构": 8023,
      "út": 8024,
      "そう": 8025,
      "gen": 8026,
      "aph": 8027,
      "llow": 8028,
      "talk": 8029,
      "before": 8030,
      "eff": 8031,
      "same": 8032,
      "有关": 8033,
      "val": 8034,
      "didn": 8035,
      "inst": 8036,
      "gian": 8037,
      "Go": 8038,
      "proble": 8039,
      "development": 8040,
      "less": 8041,
      "dra": 8042,
      "ween": 8043,
      "秘书": 8044,
      "cap": 8045,
      "所有": 8046,
      "includ": 8047,
      "ắn": 8048,
      "support": 8049,
      "rong": 8050,
      "show": 8051,
      "方案": 8052,
      "いた": 8053,
      "ợp": 8054,
      "information": 8055,
      "thiết": 8056,
      "mat": 8057,
      "どう": 8058,
      "nữa": 8059,
      "doing": 8060,
      "around": 8061,
      "没有": 8062,
      "set": 8063,
      "place": 8064,
      "les": 8065,
      "between": 8066,
      "その": 8067,
      "tiếp": 8068,
      "Mr": 8069,
      "thức": 8070,
      "cal": 8071,
      "rồi": 8072,
      "issu": 8073,
      "mặt": 8074,
      "hoá": 8075,
      "build": 8076,
      "hợp": 8077,
      "hành": 8078,
      "three": 8079,
      "tuy": 8080,
      "vị": 8081,
      "ings": 8082,
      "plan": 8083,
      "ways": 8084,
      "Pro": 8085,
      "high": 8086,
      "too": 8087,
      "ào": 8088,
      "れた": 8089,
      "ath": 8090,
      "program": 8091,
      "人权": 8092,
      "light": 8093,
      "never": 8094,
      "led": 8095,
      "ession": 8096,
      "kill": 8097,
      "econom": 8098,
      "kinh": 8099,
      "ten": 8100,
      "ded": 8101,
      "ced": 8102,
      "xem": 8103,
      "经济": 8104,
      "organiz": 8105,
      "hội": 8106,
      "du": 8107,
      "trọng": 8108,
      "old": 8109,
      "この": 8110,
      "mean": 8111,
      "bal": 8112,
      "ồn": 8113,
      "fac": 8114,
      "vel": 8115,
      "hai": 8116,
      "thích": 8117,
      "ễn": 8118,
      "mp": 8119,
      "ator": 8120,
      "rights": 8121,
      "different": 8122,
      "vention": 8123,
      "vir": 8124,
      "れる": 8125,
      "law": 8126,
      "For": 8127,
      "áp": 8128,
      "Al": 8129,
      "ica": 8130,
      "belie": 8131,
      "理事": 8132,
      "contin": 8133,
      "いて": 8134,
      "lượng": 8135,
      "hand": 8136,
      "last": 8137,
      "ami": 8138,
      "contr": 8139,
      "duc": 8140,
      "men": 8141,
      "sible": 8142,
      "đồng": 8143,
      "cour": 8144,
      "gg": 8145,
      "appro": 8146,
      "cô": 8147,
      "ign": 8148,
      "Yeah": 8149,
      "ters": 8150,
      "じゃ": 8151,
      "bit": 8152,
      "mor": 8153,
      "18": 8154,
      "liệu": 8155,
      "give": 8156,
      "ệnh": 8157,
      "50": 8158,
      "giải": 8159,
      "used": 8160,
      "Secret": 8161,
      "妇女": 8162,
      "thường": 8163,
      "可能": 8164,
      "My": 8165,
      "why": 8166,
      "care": 8167,
      "implement": 8168,
      "arch": 8169,
      "Ad": 8170,
      "sáng": 8171,
      "vài": 8172,
      "trẻ": 8173,
      "理事会": 8174,
      "bất": 8175,
      "gon": 8176,
      "ắng": 8177,
      "respon": 8178,
      "ire": 8179,
      "公约": 8180,
      "oss": 8181,
      "đều": 8182,
      "ati": 8183,
      "ures": 8184,
      "giống": 8185,
      "tak": 8186,
      "tiên": 8187,
      "ộng": 8188,
      "called": 8189,
      "tâm": 8190,
      "đối": 8191,
      "ese": 8192,
      "大会": 8193,
      "An": 8194,
      "Một": 8195,
      "13": 8196,
      "att": 8197,
      "guy": 8198,
      "これ": 8199,
      "Gover": 8200,
      "ner": 8201,
      "change": 8202,
      "đo": 8203,
      "vers": 8204,
      "ars": 8205,
      "ward": 8206,
      "Vì": 8207,
      "loại": 8208,
      "incre": 8209,
      "pec": 8210,
      "でも": 8211,
      "semb": 8212,
      "ys": 8213,
      "chiế": 8214,
      "play": 8215,
      "full": 8216,
      "still": 8217,
      "quá": 8218,
      "country": 8219,
      "ness": 8220,
      "需要": 8221,
      "pt": 8222,
      "uck": 8223,
      "nay": 8224,
      "ru": 8225,
      "ịch": 8226,
      "には": 8227,
      "bao": 8228,
      "建议": 8229,
      "hiểu": 8230,
      "gonna": 8231,
      "nghệ": 8232,
      "prot": 8233,
      "process": 8234,
      "thống": 8235,
      "alth": 8236,
      "),": 8237,
      "dec": 8238,
      "2005": 8239,
      "important": 8240,
      "合作": 8241,
      "Thank": 8242,
      "Vậy": 8243,
      "jec": 8244,
      "14": 8245,
      "lần": 8246,
      "ics": 8247,
      "2000": 8248,
      "nghĩa": 8249,
      "ảm": 8250,
      "điểm": 8251,
      "活动": 8252,
      "tivi": 8253,
      "keep": 8254,
      "main": 8255,
      "sign": 8256,
      "ade": 8257,
      "这一": 8258,
      "项目": 8259,
      "bệnh": 8260,
      "against": 8261,
      "gọi": 8262,
      "2004": 8263,
      "êm": 8264,
      "gover": 8265,
      "children": 8266,
      "won": 8267,
      "可以": 8268,
      "Có": 8269,
      "Let": 8270,
      "head": 8271,
      "national": 8272,
      "ngo": 8273,
      "nhỏ": 8274,
      "fri": 8275,
      "logy": 8276,
      "feel": 8277,
      "must": 8278,
      "oc": 8279,
      "thought": 8280,
      "sembly": 8281,
      "Đi": 8282,
      "rain": 8283,
      "cứu": 8284,
      ").": 8285,
      "viên": 8286,
      "level": 8287,
      "Họ": 8288,
      "2001": 8289,
      "ject": 8290,
      "might": 8291,
      "nec": 8292,
      "hoàn": 8293,
      "16": 8294,
      "sm": 8295,
      "soci": 8296,
      "follow": 8297,
      "tương": 8298,
      "including": 8299,
      "ens": 8300,
      "icular": 8301,
      "better": 8302,
      "ってる": 8303,
      "cor": 8304,
      "understand": 8305,
      "ference": 8306,
      "规定": 8307,
      "世界": 8308,
      "prom": 8309,
      "しい": 8310,
      "region": 8311,
      "Ac": 8312,
      "Ar": 8313,
      "んな": 8314,
      "ait": 8315,
      "number": 8316,
      "concer": 8317,
      "ism": 8318,
      "love": 8319,
      "Ok": 8320,
      "なら": 8321,
      "particular": 8322,
      "chiếc": 8323,
      "Assembly": 8324,
      "Afr": 8325,
      "知道": 8326,
      "mill": 8327,
      "ince": 8328,
      "Qu": 8329,
      "2002": 8330,
      "彼女": 8331,
      "lar": 8332,
      "ute": 8333,
      "重要": 8334,
      "人员": 8335,
      "order": 8336,
      "đường": 8337,
      "Commission": 8338,
      "bab": 8339,
      "tác": 8340,
      "根据": 8341,
      "cul": 8342,
      "went": 8343,
      "ăm": 8344,
      "đại": 8345,
      "れて": 8346,
      "each": 8347,
      "区域": 8348,
      "和平": 8349,
      "先生": 8350,
      "State": 8351,
      "đưa": 8352,
      "session": 8353,
      "Kh": 8354,
      "found": 8355,
      "exam": 8356,
      "mi": 8357,
      "2003": 8358,
      "power": 8359,
      "produc": 8360,
      "fact": 8361,
      "thuật": 8362,
      "xảy": 8363,
      "采取": 8364,
      "peace": 8365,
      "chool": 8366,
      "New": 8367,
      "ready": 8368,
      "缔约": 8369,
      "friend": 8370,
      "hoặc": 8371,
      "nghiệm": 8372,
      "Or": 8373,
      "spe": 8374,
      "17": 8375,
      "决定": 8376,
      "ref": 8377,
      "nguy": 8378,
      "quả": 8379,
      "When": 8380,
      "atch": 8381,
      "ents": 8382,
      "ris": 8383,
      "ically": 8384,
      "Li": 8385,
      "vẫn": 8386,
      "ized": 8387,
      "từng": 8388,
      "home": 8389,
      "ẳng": 8390,
      "のか": 8391,
      "25": 8392,
      "Lo": 8393,
      "儿童": 8394,
      "triển": 8395,
      "fami": 8396,
      "today": 8397,
      "Why": 8398,
      "turn": 8399,
      "trị": 8400,
      "tabl": 8401,
      "believe": 8402,
      "cou": 8403,
      "interest": 8404,
      "Le": 8405,
      "ẩn": 8406,
      "wr": 8407,
      "jo": 8408,
      "2006": 8409,
      "ote": 8410,
      "biệt": 8411,
      "dùng": 8412,
      "abil": 8413,
      "another": 8414,
      "second": 8415,
      "activi": 8416,
      "tribut": 8417,
      "必须": 8418,
      "working": 8419,
      "Những": 8420,
      "chuyển": 8421,
      "2007": 8422,
      "bên": 8423,
      "icle": 8424,
      "ado": 8425,
      "oney": 8426,
      "kế": 8427,
      "ệp": 8428,
      "Ng": 8429,
      "course": 8430,
      "dạ": 8431,
      "lúc": 8432,
      "sci": 8433,
      "cao": 8434,
      "diễn": 8435,
      "Right": 8436,
      "comple": 8437,
      "group": 8438,
      "ks": 8439,
      "khoảng": 8440,
      "Điều": 8441,
      "amp": 8442,
      "techno": 8443,
      "fun": 8444,
      "mỗi": 8445,
      "To": 8446,
      "Okay": 8447,
      "kid": 8448,
      "主义": 8449,
      "私は": 8450,
      "Secretary": 8451,
      "提出": 8452,
      "法律": 8453,
      "gether": 8454,
      "away": 8455,
      "tuyệt": 8456,
      "meas": 8457,
      "Se": 8458,
      "dân": 8459,
      "question": 8460,
      "xe": 8461,
      "计划": 8462,
      "ian": 8463,
      "cầu": 8464,
      "sor": 8465,
      "ám": 8466,
      "experi": 8467,
      "la": 8468,
      "ão": 8469,
      "nghe": 8470,
      "áo": 8471,
      "lực": 8472,
      "Wor": 8473,
      "uyền": 8474,
      "agr": 8475,
      "quyết": 8476,
      "ba": 8477,
      "ọn": 8478,
      "tho": 8479,
      "ban": 8480,
      "sing": 8481,
      "mbers": 8482,
      "stre": 8483,
      "log": 8484,
      "ẩm": 8485,
      "权利": 8486,
      "ED": 8487,
      "war": 8488,
      "lobal": 8489,
      "done": 8490,
      "school": 8491,
      "itical": 8492,
      "bil": 8493,
      "ừng": 8494,
      "together": 8495,
      "Amer": 8496,
      "chất": 8497,
      "ép": 8498,
      "reas": 8499,
      "God": 8500,
      "operation": 8501,
      "At": 8502,
      "必要": 8503,
      "uring": 8504,
      "Rep": 8505,
      "tổ": 8506,
      "giáo": 8507,
      "tablish": 8508,
      "establish": 8509,
      "aren": 8510,
      "member": 8511,
      "icip": 8512,
      "lead": 8513,
      "Ex": 8514,
      "coming": 8515,
      "Pe": 8516,
      "public": 8517,
      "phụ": 8518,
      "sider": 8519,
      "rl": 8520,
      "problem": 8521,
      "trung": 8522,
      "mind": 8523,
      "ather": 8524,
      "ective": 8525,
      "秘书长": 8526,
      "ago": 8527,
      "meeting": 8528,
      "open": 8529,
      "chủ": 8530,
      "主席": 8531,
      "Nếu": 8532,
      "word": 8533,
      "represent": 8534,
      "big": 8535,
      "khu": 8536,
      "idea": 8537,
      "times": 8538,
      "water": 8539,
      "secur": 8540,
      "mil": 8541,
      "úp": 8542,
      "ouse": 8543,
      "elec": 8544,
      "さい": 8545,
      "came": 8546,
      "ough": 8547,
      "支持": 8548,
      "bro": 8549,
      "dep": 8550,
      "servi": 8551,
      "措施": 8552,
      "next": 8553,
      "Ju": 8554,
      "ie": 8555,
      "ợi": 8556,
      "mang": 8557,
      "努力": 8558,
      "effor": 8559,
      "sen": 8560,
      "comes": 8561,
      "percent": 8562,
      "ican": 8563,
      "run": 8564,
      "óng": 8565,
      "equ": 8566,
      "xuất": 8567,
      "ここ": 8568,
      "不是": 8569,
      "sec": 8570,
      "phòng": 8571,
      "Don": 8572,
      "sed": 8573,
      "decis": 8574,
      "book": 8575,
      "sive": 8576,
      "commend": 8577,
      "thor": 8578,
      "tiến": 8579,
      "あなたが": 8580,
      "viron": 8581,
      "phí": 8582,
      "sions": 8583,
      "Can": 8584,
      "lời": 8585,
      "ắp": 8586,
      "struc": 8587,
      "ứa": 8588,
      "plic": 8589,
      "Co": 8590,
      "óc": 8591,
      "state": 8592,
      "bre": 8593,
      "cố": 8594,
      "bus": 8595,
      "ources": 8596,
      "iness": 8597,
      "认为": 8598,
      "health": 8599,
      "girl": 8600,
      "International": 8601,
      "non": 8602,
      "ants": 8603,
      "sha": 8604,
      "security": 8605,
      "dat": 8606,
      "hết": 8607,
      "four": 8608,
      "đất": 8609,
      "ror": 8610,
      "ưới": 8611,
      "たち": 8612,
      "social": 8613,
      "Government": 8614,
      "ầm": 8615,
      "few": 8616,
      "ろう": 8617,
      "bảo": 8618,
      "sto": 8619,
      "On": 8620,
      "đơn": 8621,
      "ướng": 8622,
      "成员": 8623,
      "60": 8624,
      "ality": 8625,
      "til": 8626,
      "Convention": 8627,
      "live": 8628,
      "resu": 8629,
      "without": 8630,
      "tranh": 8631,
      "liên": 8632,
      "pur": 8633,
      "技术": 8634,
      "ety": 8635,
      "Anh": 8636,
      "tượng": 8637,
      "grow": 8638,
      "điện": 8639,
      "bình": 8640,
      "nữ": 8641,
      "注意": 8642,
      "always": 8643,
      "phân": 8644,
      "educ": 8645,
      "taken": 8646,
      "tors": 8647,
      "move": 8648,
      "sản": 8649,
      "giúp": 8650,
      "ậu": 8651,
      "hold": 8652,
      "đặt": 8653,
      "chưa": 8654,
      "ists": 8655,
      "viol": 8656,
      "tình": 8657,
      "stud": 8658,
      "shall": 8659,
      "May": 8660,
      "action": 8661,
      "round": 8662,
      "如果": 8663,
      "要求": 8664,
      "cord": 8665,
      "uation": 8666,
      "room": 8667,
      "cell": 8668,
      "ina": 8669,
      "az": 8670,
      "fund": 8671,
      "Jo": 8672,
      "đúng": 8673,
      "Hey": 8674,
      "继续": 8675,
      "low": 8676,
      "while": 8677,
      "vironment": 8678,
      "list": 8679,
      "Par": 8680,
      "case": 8681,
      "consider": 8682,
      "Just": 8683,
      "itution": 8684,
      "tập": 8685,
      "号决议": 8686,
      "khả": 8687,
      "でき": 8688,
      "nor": 8689,
      "任何": 8690,
      "urther": 8691,
      "ake": 8692,
      "にな": 8693,
      "nghiên": 8694,
      "line": 8695,
      "ash": 8696,
      "2008": 8697,
      "tuổi": 8698,
      "mes": 8699,
      "possible": 8700,
      "tay": 8701,
      "finan": 8702,
      "million": 8703,
      "Come": 8704,
      "both": 8705,
      "40": 8706,
      "Khi": 8707,
      "recommend": 8708,
      "phương": 8709,
      "yêu": 8710,
      "ラー": 8711,
      "管理": 8712,
      "bility": 8713,
      "within": 8714,
      "biến": 8715,
      "ird": 8716,
      "我的": 8717,
      "ạnh": 8718,
      "あり": 8719,
      "thú": 8720,
      "doesn": 8721,
      "mal": 8722,
      "economic": 8723,
      "giữa": 8724,
      "anything": 8725,
      "phẩm": 8726,
      "best": 8727,
      "stu": 8728,
      "hop": 8729,
      "100": 8730,
      "ít": 8731,
      "ませ": 8732,
      "ngay": 8733,
      "train": 8734,
      "ability": 8735,
      "ran": 8736,
      "bài": 8737,
      "money": 8738,
      "assist": 8739,
      "far": 8740,
      "mom": 8741,
      "已经": 8742,
      "ines": 8743,
      "urity": 8744,
      "government": 8745,
      "ét": 8746,
      "Bec": 8747,
      "保护": 8748,
      "彼は": 8749,
      "point": 8750,
      "だけ": 8751,
      "Gi": 8752,
      "ey": 8753,
      "chu": 8754,
      "truyền": 8755,
      "Mo": 8756,
      "name": 8757,
      "story": 8758,
      "かれら": 8759,
      "trả": 8760,
      "implementation": 8761,
      "的人": 8762,
      "uni": 8763,
      "ặp": 8764,
      "ict": 8765,
      "っと": 8766,
      "chơi": 8767,
      "Security": 8768,
      "brain": 8769,
      "武器": 8770,
      "gin": 8771,
      "polic": 8772,
      "Not": 8773,
      "のは": 8774,
      "hãy": 8775,
      "Bo": 8776,
      "looking": 8777,
      "・・": 8778,
      "khó": 8779,
      "pop": 8780,
      "Yes": 8781,
      "bé": 8782,
      "ック": 8783,
      "tiền": 8784,
      "&#": 8785,
      "24": 8786,
      "regard": 8787,
      "Hi": 8788,
      "基金": 8789,
      "gần": 8790,
      "não": 8791,
      "ize": 8792,
      "means": 8793,
      "なかった": 8794,
      "促进": 8795,
      "这个": 8796,
      "ages": 8797,
      "ordin": 8798,
      "building": 8799,
      "だった": 8800,
      "uro": 8801,
      "草案": 8802,
      "data": 8803,
      "imp": 8804,
      "届会议": 8805,
      "では": 8806,
      "thị": 8807,
      "took": 8808,
      "wanted": 8809,
      "Hu": 8810,
      "posed": 8811,
      "23": 8812,
      "lấy": 8813,
      "さん": 8814,
      "night": 8815,
      "もう": 8816,
      "Các": 8817,
      "II": 8818,
      "Pr": 8819,
      "ửa": 8820,
      "お前": 8821,
      "inci": 8822,
      "chiến": 8823,
      "rele": 8824,
      "じゃない": 8825,
      "Who": 8826,
      "hard": 8827,
      "started": 8828,
      "small": 8829,
      "bỏ": 8830,
      "den": 8831,
      "Where": 8832,
      "nat": 8833,
      "hal": 8834,
      "tre": 8835,
      "nge": 8836,
      "thân": 8837,
      "tiếng": 8838,
      "援助": 8839,
      "政策": 8840,
      "Because": 8841,
      "んで": 8842,
      "told": 8843,
      "activities": 8844,
      "agraph": 8845,
      "chí": 8846,
      "selves": 8847,
      "One": 8848,
      "ton": 8849,
      "xã": 8850,
      "row": 8851,
      "Không": 8852,
      "sách": 8853,
      "ze": 8854,
      "hoạt": 8855,
      "的一": 8856,
      "community": 8857,
      "indi": 8858,
      "cuối": 8859,
      "eng": 8860,
      "đáng": 8861,
      "影响": 8862,
      "ました": 8863,
      "加强": 8864,
      "particip": 8865,
      "address": 8866,
      "dies": 8867,
      "リー": 8868,
      "kể": 8869,
      "đấy": 8870,
      "month": 8871,
      "Be": 8872,
      "stop": 8873,
      "adop": 8874,
      "ones": 8875,
      "author": 8876,
      "资源": 8877,
      "search": 8878,
      "global": 8879,
      ".\"": 8880,
      "kes": 8881,
      "six": 8882,
      "Develop": 8883,
      "rent": 8884,
      "left": 8885,
      "ấm": 8886,
      "Some": 8887,
      "ca": 8888,
      "hiệu": 8889,
      "uture": 8890,
      "sức": 8891,
      "mạnh": 8892,
      "Trong": 8893,
      "系统": 8894,
      "making": 8895,
      "ọc": 8896,
      "ious": 8897,
      "mất": 8898,
      "food": 8899,
      "部分": 8900,
      "wee": 8901,
      "Ind": 8902,
      "minh": 8903,
      "lập": 8904,
      "whole": 8905,
      "everything": 8906,
      "kỳ": 8907,
      "loy": 8908,
      "vo": 8909,
      "vil": 8910,
      "ases": 8911,
      "alle": 8912,
      "allow": 8913,
      "你的": 8914,
      "house": 8915,
      "这种": 8916,
      "khoa": 8917,
      "bot": 8918,
      "ices": 8919,
      "Ho": 8920,
      "resident": 8921,
      "ied": 8922,
      "special": 8923,
      "wal": 8924,
      "future": 8925,
      "đời": 8926,
      "example": 8927,
      "くれ": 8928,
      "ors": 8929,
      "TED": 8930,
      "えて": 8931,
      "hear": 8932,
      "dựng": 8933,
      "目标": 8934,
      "ket": 8935,
      "行为": 8936,
      "members": 8937,
      "phi": 8938,
      "ếm": 8939,
      "Mỹ": 8940,
      "因为": 8941,
      "inking": 8942,
      "khí": 8943,
      "trí": 8944,
      "mand": 8945,
      "eld": 8946,
      "half": 8947,
      "dri": 8948,
      "dẫn": 8949,
      "efforts": 8950,
      "ulation": 8951,
      "bad": 8952,
      "văn": 8953,
      "reco": 8954,
      "提交": 8955,
      "现在": 8956,
      "建立": 8957,
      "table": 8958,
      "char": 8959,
      "Ph": 8960,
      "tài": 8961,
      "resources": 8962,
      "uyết": 8963,
      "family": 8964,
      "deci": 8965,
      "paragraph": 8966,
      "がある": 8967,
      "使用": 8968,
      "ins": 8969,
      "nghiệp": 8970,
      "organizations": 8971,
      "happened": 8972,
      "缔约国": 8973,
      "しょ": 8974,
      "since": 8975,
      "を見": 8976,
      "pháp": 8977,
      "pret": 8978,
      "ding": 8979,
      "ậm": 8980,
      "luôn": 8981,
      "ừa": 8982,
      "cộng": 8983,
      "treat": 8984,
      "del": 8985,
      "chie": 8986,
      "ẫu": 8987,
      "These": 8988,
      "美元": 8989,
      "能力": 8990,
      "draft": 8991,
      "bức": 8992,
      "tử": 8993,
      "ため": 8994,
      "bring": 8995,
      "たい": 8996,
      "technology": 8997,
      "Euro": 8998,
      "xây": 8999,
      "22": 9000,
      "tiêu": 9001,
      "period": 9002,
      "Conference": 9003,
      "这是": 9004,
      "crimin": 9005,
      "óm": 9006,
      "服务": 9007,
      "Wi": 9008,
      "vô": 9009,
      "tra": 9010,
      "okay": 9011,
      "pract": 9012,
      "ません": 9013,
      "five": 9014,
      "れば": 9015,
      "environment": 9016,
      "ngoài": 9017,
      "face": 9018,
      "loài": 9019,
      "wrong": 9020,
      "tên": 9021,
      "mô": 9022,
      "hướng": 9023,
      "ngu": 9024,
      "already": 9025,
      "direc": 9026,
      "net": 9027,
      "control": 9028,
      "你们": 9029,
      "key": 9030,
      "文件": 9031,
      "por": 9032,
      "教育": 9033,
      "pay": 9034,
      "ầy": 9035,
      "确保": 9036,
      "trying": 9037,
      "suc": 9038,
      "whe": 9039,
      "nguyên": 9040,
      "issues": 9041,
      "Af": 9042,
      "cle": 9043,
      "fer": 9044,
      "further": 9045,
      "job": 9046,
      "consu": 9047,
      "ries": 9048,
      "commit": 9049,
      "cooperation": 9050,
      "certain": 9051,
      "clear": 9052,
      "og": 9053,
      "fra": 9054,
      "nền": 9055,
      "的报告": 9056,
      "pris": 9057,
      "party": 9058,
      "measures": 9059,
      "这样": 9060,
      "ection": 9061,
      "21": 9062,
      "enough": 9063,
      "enda": 9064,
      "continu": 9065,
      "viết": 9066,
      "regional": 9067,
      "reed": 9068,
      "ister": 9069,
      "space": 9070,
      "Cha": 9071,
      "chế": 9072,
      "vời": 9073,
      "ural": 9074,
      "suy": 9075,
      "developing": 9076,
      "アッ": 9077,
      "giản": 9078,
      "contribut": 9079,
      "using": 9080,
      "ạm": 9081,
      "quốc": 9082,
      "impro": 9083,
      "ped": 9084,
      "outh": 9085,
      "ying": 9086,
      "环境": 9087,
      "Off": 9088,
      "ately": 9089,
      "bào": 9090,
      "发言": 9091,
      "icial": 9092,
      "nothing": 9093,
      "hour": 9094,
      "nhạc": 9095,
      "mother": 9096,
      "Europe": 9097,
      "docu": 9098,
      "though": 9099,
      "もの": 9100,
      "研究": 9101,
      "become": 9102,
      "phố": 9103,
      "design": 9104,
      "political": 9105,
      "education": 9106,
      "非洲": 9107,
      "thử": 9108,
      "cop": 9109,
      "dom": 9110,
      "ạp": 9111,
      "Africa": 9112,
      "accord": 9113,
      "President": 9114,
      "achie": 9115,
      "また": 9116,
      "iti": 9117,
      "legal": 9118,
      "among": 9119,
      "financial": 9120,
      "ude": 9121,
      "tư": 9122,
      "政治": 9123,
      "cụ": 9124,
      "举行": 9125,
      "审议": 9126,
      "安全理事会": 9127,
      "wait": 9128,
      "situation": 9129,
      "してる": 9130,
      "đâu": 9131,
      "Su": 9132,
      "主要": 9133,
      "provide": 9134,
      "全球": 9135,
      "ID": 9136,
      "mạng": 9137,
      "Republic": 9138,
      "26": 9139,
      "80": 9140,
      "と思": 9141,
      "作为": 9142,
      "saw": 9143,
      "ling": 9144,
      "Look": 9145,
      "tăng": 9146,
      "ention": 9147,
      "based": 9148,
      "bor": 9149,
      "作出": 9150,
      "effective": 9151,
      "emp": 9152,
      "depend": 9153,
      "during": 9154,
      "matter": 9155,
      "27": 9156,
      "各国": 9157,
      "斯坦": 9158,
      "Development": 9159,
      "ôm": 9160,
      "chết": 9161,
      "text": 9162,
      "chứng": 9163,
      "chọn": 9164,
      "ared": 9165,
      "）。": 9166,
      "sort": 9167,
      "talking": 9168,
      "business": 9169,
      "seen": 9170,
      "Human": 9171,
      "Are": 9172,
      "kiến": 9173,
      "ẹp": 9174,
      "协调": 9175,
      "triệu": 9176,
      "programme": 9177,
      "Hãy": 9178,
      "acy": 9179,
      "getting": 9180,
      "gener": 9181,
      "ール": 9182,
      "ital": 9183,
      "else": 9184,
      "信息": 9185,
      "Min": 9186,
      "ges": 9187,
      "tinh": 9188,
      "である": 9189,
      "graph": 9190,
      "之间": 9191,
      "confl": 9192,
      "article": 9193,
      "lẽ": 9194,
      "accoun": 9195,
      "thần": 9196,
      "reason": 9197,
      "entr": 9198,
      "đạo": 9199,
      "ected": 9200,
      "đặc": 9201,
      "vid": 9202,
      "quyền": 9203,
      "nam": 9204,
      "因此": 9205,
      "Mar": 9206,
      "一些": 9207,
      "cep": 9208,
      "表示": 9209,
      "free": 9210,
      "sent": 9211,
      "解决": 9212,
      "hy": 9213,
      "mul": 9214,
      "giả": 9215,
      "bay": 9216,
      "plac": 9217,
      "đứa": 9218,
      "lig": 9219,
      "xuống": 9220,
      "fil": 9221,
      "あなたがた": 9222,
      "Chi": 9223,
      "bà": 9224,
      "vụ": 9225,
      "议程": 9226,
      "khỏi": 9227,
      "eas": 9228,
      "ắm": 9229,
      "current": 9230,
      "bur": 9231,
      "人民": 9232,
      "ター": 9233,
      "在这": 9234,
      "seem": 9235,
      "地区": 9236,
      "istan": 9237,
      "chức": 9238,
      "maybe": 9239,
      "实现": 9240,
      "ering": 9241,
      "chan": 9242,
      "Then": 9243,
      "ạch": 9244,
      "Thế": 9245,
      "agement": 9246,
      "days": 9247,
      "Spec": 9248,
      "cing": 9249,
      "なく": 9250,
      "本当": 9251,
      "khá": 9252,
      "アッラー": 9253,
      "Sh": 9254,
      "审查": 9255,
      "item": 9256,
      "Here": 9257,
      "Bây": 9258,
      "ards": 9259,
      "cli": 9260,
      "yet": 9261,
      "ềm": 9262,
      "Allah": 9263,
      "的是": 9264,
      "decision": 9265,
      "gặp": 9266,
      "和国": 9267,
      "istr": 9268,
      "Di": 9269,
      "leave": 9270,
      "phá": 9271,
      "的工作": 9272,
      "ork": 9273,
      "lock": 9274,
      "cấp": 9275,
      "itions": 9276,
      "chút": 9277,
      "tro": 9278,
      "appe": 9279,
      "bill": 9280,
      "28": 9281,
      "jor": 9282,
      "关系": 9283,
      "doll": 9284,
      "agree": 9285,
      "讨论": 9286,
      "vious": 9287,
      "ット": 9288,
      "atic": 9289,
      "Fr": 9290,
      "bri": 9291,
      "tham": 9292,
      "access": 9293,
      "ization": 9294,
      "prof": 9295,
      "services": 9296,
      "bud": 9297,
      "dưới": 9298,
      "atives": 9299,
      "Rights": 9300,
      "第二": 9301,
      "force": 9302,
      "someone": 9303,
      "有效": 9304,
      "部门": 9305,
      "remain": 9306,
      "ended": 9307,
      "vide": 9308,
      "quanh": 9309,
      "comput": 9310,
      "đánh": 9311,
      "参与": 9312,
      "teach": 9313,
      "màu": 9314,
      "thuyết": 9315,
      "dạng": 9316,
      "step": 9317,
      "cept": 9318,
      "field": 9319,
      "mẹ": 9320,
      "thinking": 9321,
      "1999": 9322,
      "Group": 9323,
      "gắng": 9324,
      "mở": 9325,
      "York": 9326,
      "える": 9327,
      "但是": 9328,
      "代表团": 9329,
      "Pal": 9330,
      "小组": 9331,
      "plain": 9332,
      "IV": 9333,
      "bar": 9334,
      "人的": 9335,
      "得到": 9336,
      "given": 9337,
      "pic": 9338,
      "tháng": 9339,
      "assistance": 9340,
      "until": 9341,
      "考虑": 9342,
      "Isra": 9343,
      "chia": 9344,
      "strate": 9345,
      "ger": 9346,
      "不能": 9347,
      "ules": 9348,
      "bed": 9349,
      "invol": 9350,
      "ali": 9351,
      "ication": 9352,
      "deal": 9353,
      "nhanh": 9354,
      "necess": 9355,
      "fig": 9356,
      "共和国": 9357,
      "ased": 9358,
      "就是": 9359,
      "review": 9360,
      "trò": 9361,
      "dịch": 9362,
      "father": 9363,
      "事务": 9364,
      "stain": 9365,
      "capac": 9366,
      "いつ": 9367,
      "remember": 9368,
      "Get": 9369,
      "ben": 9370,
      "works": 9371,
      "create": 9372,
      "vision": 9373,
      "Vi": 9374,
      "mức": 9375,
      "focus": 9376,
      "cực": 9377,
      "expres": 9378,
      "vực": 9379,
      "Every": 9380,
      "mm": 9381,
      "phép": 9382,
      "continue": 9383,
      "taking": 9384,
      "areas": 9385,
      "Ag": 9386,
      "phim": 9387,
      "thêm": 9388,
      "terror": 9389,
      "自己": 9390,
      "guys": 9391,
      "Your": 9392,
      "rece": 9393,
      "trang": 9394,
      "ples": 9395,
      "provided": 9396,
      "sĩ": 9397,
      "xác": 9398,
      "ush": 9399,
      "Phi": 9400,
      "khiến": 9401,
      "ially": 9402,
      "います": 9403,
      "私の": 9404,
      "having": 9405,
      "itional": 9406,
      "asked": 9407,
      "quay": 9408,
      "Special": 9409,
      "第一": 9410,
      "lies": 9411,
      "needs": 9412,
      "29": 9413,
      "watch": 9414,
      "领域": 9415,
      "ont": 9416,
      "Te": 9417,
      "discus": 9418,
      "close": 9419,
      "Ser": 9420,
      "其中": 9421,
      "ãi": 9422,
      "怎么": 9423,
      "weap": 9424,
      "vari": 9425,
      "living": 9426,
      "CO": 9427,
      "duy": 9428,
      "vũ": 9429,
      "vic": 9430,
      "relev": 9431,
      "prog": 9432,
      "Me": 9433,
      "bây": 9434,
      "ground": 9435,
      "streng": 9436,
      "major": 9437,
      "young": 9438,
      "lives": 9439,
      "けて": 9440,
      "持续": 9441,
      "ential": 9442,
      "Dec": 9443,
      "vidu": 9444,
      "makes": 9445,
      "cảnh": 9446,
      "bably": 9447,
      "ồng": 9448,
      "heart": 9449,
      "kids": 9450,
      "期间": 9451,
      "institution": 9452,
      "once": 9453,
      "nhóm": 9454,
      "respect": 9455,
      "恐怖": 9456,
      "energy": 9457,
      "mater": 9458,
      "van": 9459,
      "held": 9460,
      "jects": 9461,
      "ular": 9462,
      "注意到": 9463,
      "success": 9464,
      "dù": 9465,
      "lang": 9466,
      "begin": 9467,
      "93": 9468,
      "ners": 9469,
      "challe": 9470,
      "imag": 9471,
      "sound": 9472,
      "đẹp": 9473,
      "もし": 9474,
      "issue": 9475,
      "冲突": 9476,
      "heard": 9477,
      "giác": 9478,
      "exist": 9479,
      "upon": 9480,
      "request": 9481,
      "recogn": 9482,
      "rõ": 9483,
      "vu": 9484,
      "vọng": 9485,
      "战略": 9486,
      "ếp": 9487,
      "stay": 9488,
      "fully": 9489,
      "31": 9490,
      "ched": 9491,
      "World": 9492,
      "条约": 9493,
      "utes": 9494,
      "sorry": 9495,
      "đàn": 9496,
      "まで": 9497,
      "作用": 9498,
      "chắc": 9499,
      "says": 9500,
      "related": 9501,
      "stan": 9502,
      "sibility": 9503,
      "recent": 9504,
      "stat": 9505,
      "problems": 9506,
      "His": 9507,
      "xa": 9508,
      "nguồn": 9509,
      "gre": 9510,
      "增加": 9511,
      "individu": 9512,
      "whether": 9513,
      "lai": 9514,
      "希望": 9515,
      "贸易": 9516,
      "ensure": 9517,
      "coura": 9518,
      "pho": 9519,
      "tục": 9520,
      "âng": 9521,
      "With": 9522,
      "Br": 9523,
      "ví": 9524,
      "それは": 9525,
      "avail": 9526,
      "Per": 9527,
      "wel": 9528,
      "sustain": 9529,
      "sát": 9530,
      "Intern": 9531,
      "pretty": 9532,
      "pain": 9533,
      "开展": 9534,
      "answ": 9535,
      "指出": 9536,
      "contain": 9537,
      "第5": 9538,
      "hope": 9539,
      "moment": 9540,
      "出来": 9541,
      "tru": 9542,
      "mus": 9543,
      "area": 9544,
      "phía": 9545,
      "sho": 9546,
      "ip": 9547,
      "speak": 9548,
      "dữ": 9549,
      "diff": 9550,
      "êng": 9551,
      "trái": 9552,
      "lau": 9553,
      "nhớ": 9554,
      "portun": 9555,
      "Add": 9556,
      "ei": 9557,
      "参加": 9558,
      "uclear": 9559,
      "ship": 9560,
      "hưởng": 9561,
      "càng": 9562,
      "犯罪": 9563,
      "wards": 9564,
      "research": 9565,
      "abor": 9566,
      "ore": 9567,
      "ross": 9568,
      "biểu": 9569,
      "mag": 9570,
      "third": 9571,
      "します": 9572,
      "どこ": 9573,
      "project": 9574,
      "amoun": 9575,
      "Joh": 9576,
      "ried": 9577,
      "vùng": 9578,
      "预算": 9579,
      "方面的": 9580,
      "adopted": 9581,
      "IC": 9582,
      "它们": 9583,
      "正在": 9584,
      "chú": 9585,
      "saying": 9586,
      "relevant": 9587,
      "vòng": 9588,
      "inside": 9589,
      "che": 9590,
      "っている": 9591,
      "func": 9592,
      "đủ": 9593,
      "强调": 9594,
      "获得": 9595,
      "dead": 9596,
      "だが": 9597,
      "应该": 9598,
      "aster": 9599,
      "probably": 9600,
      "princi": 9601,
      "later": 9602,
      "ww": 9603,
      "れない": 9604,
      "实施": 9605,
      "conf": 9606,
      "verse": 9607,
      "sim": 9608,
      "ste": 9609,
      "deleg": 9610,
      "取得": 9611,
      "Mem": 9612,
      "dễ": 9613,
      "báo": 9614,
      "Ông": 9615,
      "Quốc": 9616,
      "writ": 9617,
      "decided": 9618,
      "complete": 9619,
      "hôm": 9620,
      "ưu": 9621,
      "thương": 9622,
      "approach": 9623,
      "nex": 9624,
      "Car": 9625,
      "Dece": 9626,
      "lan": 9627,
      "ency": 9628,
      "あなたは": 9629,
      "En": 9630,
      "wish": 9631,
      "cra": 9632,
      "kì": 9633,
      "ny": 9634,
      "December": 9635,
      "ựa": 9636,
      "ond": 9637,
      "chẳng": 9638,
      "特别是": 9639,
      "gây": 9640,
      "Trung": 9641,
      "đoạn": 9642,
      "experience": 9643,
      "đôi": 9644,
      "Au": 9645,
      "目前": 9646,
      "stuff": 9647,
      "progress": 9648,
      "opportun": 9649,
      "policy": 9650,
      "任务": 9651,
      "ủng": 9652,
      "least": 9653,
      "aps": 9654,
      "met": 9655,
      "wasn": 9656,
      "wit": 9657,
      "quite": 9658,
      "society": 9659,
      "following": 9660,
      "ạy": 9661,
      "自分": 9662,
      "inv": 9663,
      "Good": 9664,
      "dr": 9665,
      "death": 9666,
      "Ple": 9667,
      "ene": 9668,
      "def": 9669,
      "ender": 9670,
      "ariat": 9671,
      "capacity": 9672,
      "true": 9673,
      "luận": 9674,
      "specific": 9675,
      "秘书处": 9676,
      "cây": 9677,
      "dle": 9678,
      "70": 9679,
      "connec": 9680,
      "NA": 9681,
      "能够": 9682,
      "material": 9683,
      "我不": 9684,
      "parties": 9685,
      "资料": 9686,
      "loc": 9687,
      "ことを": 9688,
      "发展中": 9689,
      "integr": 9690,
      "vation": 9691,
      "toán": 9692,
      "isn": 9693,
      "role": 9694,
      "あなたの": 9695,
      "12月": 9696,
      "Ira": 9697,
      "ired": 9698,
      "美国": 9699,
      "91": 9700,
      "jud": 9701,
      "kia": 9702,
      "stru": 9703,
      "ằm": 9704,
      "rug": 9705,
      "dài": 9706,
      "prior": 9707,
      "agenda": 9708,
      "term": 9709,
      "video": 9710,
      "đầy": 9711,
      "giảm": 9712,
      "198": 9713,
      "training": 9714,
      "budget": 9715,
      "法院": 9716,
      "sense": 9717,
      "secre": 9718,
      "Did": 9719,
      "dro": 9720,
      "áu": 9721,
      "knowled": 9722,
      "kiếm": 9723,
      "tural": 9724,
      "ler": 9725,
      "otion": 9726,
      "cont": 9727,
      "Char": 9728,
      "ート": 9729,
      "conflict": 9730,
      "ける": 9731,
      "程序": 9732,
      "anim": 9733,
      "demo": 9734,
      "的问题": 9735,
      "appropri": 9736,
      "China": 9737,
      "protection": 9738,
      "langu": 9739,
      "trăm": 9740,
      "arian": 9741,
      "thậm": 9742,
      "tail": 9743,
      "record": 9744,
      "itive": 9745,
      "ending": 9746,
      "Palest": 9747,
      "past": 9748,
      "なん": 9749,
      "months": 9750,
      "pose": 9751,
      "进程": 9752,
      "ngữ": 9753,
      "terri": 9754,
      "large": 9755,
      "Iraq": 9756,
      "lợi": 9757,
      "vừa": 9758,
      "一步": 9759,
      "kiểm": 9760,
      "Rec": 9761,
      "言った": 9762,
      "vice": 9763,
      "document": 9764,
      "Bởi": 9765,
      "ming": 9766,
      "uction": 9767,
      "woman": 9768,
      "ged": 9769,
      "submit": 9770,
      "event": 9771,
      "tar": 9772,
      "开始": 9773,
      "而且": 9774,
      "mach": 9775,
      "lệ": 9776,
      "city": 9777,
      "staff": 9778,
      "John": 9779,
      "Mi": 9780,
      "Nor": 9781,
      "何か": 9782,
      "please": 9783,
      "bước": 9784,
      "thư": 9785,
      "Please": 9786,
      "Mis": 9787,
      "que": 9788,
      "ences": 9789,
      "由于": 9790,
      "2009": 9791,
      "fight": 9792,
      "web": 9793,
      "giao": 9794,
      "local": 9795,
      "Organiz": 9796,
      "airs": 9797,
      "electr": 9798,
      "tồn": 9799,
      "させ": 9800,
      "特派": 9801,
      "omen": 9802,
      "programmes": 9803,
      "だから": 9804,
      "goes": 9805,
      "スト": 9806,
      "处理": 9807,
      "cha": 9808,
      "myself": 9809,
      "自由": 9810,
      "itary": 9811,
      "clai": 9812,
      "môi": 9813,
      "reach": 9814,
      "phản": 9815,
      "Res": 9816,
      "cir": 9817,
      "tỉ": 9818,
      "aper": 9819,
      "mental": 9820,
      "本当に": 9821,
      "tích": 9822,
      "persons": 9823,
      "hạn": 9824,
      "原则": 9825,
      "thôi": 9826,
      "die": 9827,
      "require": 9828,
      "いう": 9829,
      "across": 9830,
      "Program": 9831,
      "Internet": 9832,
      "general": 9833,
      "生活": 9834,
      "dollars": 9835,
      "欧洲": 9836,
      "问题的": 9837,
      "された": 9838,
      "办法": 9839,
      "意见": 9840,
      "iddle": 9841,
      "dam": 9842,
      "中心": 9843,
      "America": 9844,
      "ensive": 9845,
      "violence": 9846,
      "thuốc": 9847,
      "collec": 9848,
      "available": 9849,
      "sist": 9850,
      "population": 9851,
      "difficul": 9852,
      "knew": 9853,
      "共同": 9854,
      "发生": 9855,
      "clos": 9856,
      "方法": 9857,
      "相关": 9858,
      "chị": 9859,
      "ministr": 9860,
      "ier": 9861,
      "时间": 9862,
      "的国家": 9863,
      "发展中国家": 9864,
      "HIV": 9865,
      "gies": 9866,
      "dục": 9867,
      "Whi": 9868,
      "でしょ": 9869,
      "mic": 9870,
      "pot": 9871,
      "。」": 9872,
      "中的": 9873,
      "支助": 9874,
      "暴力": 9875,
      "特派团": 9876,
      "Sau": 9877,
      "cut": 9878,
      "ified": 9879,
      "relations": 9880,
      "wonder": 9881,
      "liz": 9882,
      "45": 9883,
      "sâu": 9884,
      "thanh": 9885,
      "position": 9886,
      "necessary": 9887,
      "benef": 9888,
      "Fin": 9889,
      "hộ": 9890,
      "ụp": 9891,
      "けど": 9892,
      "90": 9893,
      "进一步": 9894,
      "ined": 9895,
      "chân": 9896,
      "phục": 9897,
      "comb": 9898,
      "yourself": 9899,
      "pass": 9900,
      "eli": 9901,
      "ource": 9902,
      "needed": 9903,
      "deed": 9904,
      "serious": 9905,
      "medi": 9906,
      "利用": 9907,
      "ream": 9908,
      "facil": 9909,
      "以便": 9910,
      "sequ": 9911,
      "Office": 9912,
      "基础": 9913,
      "言う": 9914,
      "phys": 9915,
      "lòng": 9916,
      "めて": 9917,
      "方式": 9918,
      "trụ": 9919,
      "aring": 9920,
      "vẻ": 9921,
      "であ": 9922,
      "minutes": 9923,
      "ように": 9924,
      "frame": 9925,
      "words": 9926,
      "sk": 9927,
      "strong": 9928,
      "专家": 9929,
      "说明": 9930,
      "learn": 9931,
      "recei": 9932,
      "fall": 9933,
      "nical": 9934,
      "なの": 9935,
      "concern": 9936,
      "friends": 9937,
      "ティ": 9938,
      "mechan": 9939,
      "cover": 9940,
      "strengthen": 9941,
      "har": 9942,
      "đô": 9943,
      "确定": 9944,
      "defin": 9945,
      "tures": 9946,
      "thuộc": 9947,
      "Người": 9948,
      "hours": 9949,
      "55": 9950,
      "uary": 9951,
      "àu": 9952,
      "安理": 9953,
      "pen": 9954,
      "的情况": 9955,
      "single": 9956,
      "week": 9957,
      "walk": 9958,
      "ために": 9959,
      "提高": 9960,
      "cannot": 9961,
      "gets": 9962,
      "彼女は": 9963,
      "nuclear": 9964,
      "ディ": 9965,
      "African": 9966,
      "căn": 9967,
      "ード": 9968,
      "osp": 9969,
      "killed": 9970,
      "South": 9971,
      "game": 9972,
      "mess": 9973,
      "责任": 9974,
      "trời": 9975,
      "giữ": 9976,
      "wn": 9977,
      "ands": 9978,
      "trải": 9979,
      "diện": 9980,
      "家庭": 9981,
      "调查": 9982,
      "often": 9983,
      "billion": 9984,
      "ax": 9985,
      "だよ": 9986,
      "mate": 9987,
      "mục": 9988,
      "的各": 9989,
      "第三": 9990,
      "intr": 9991,
      "rộng": 9992,
      "sai": 9993,
      "auti": 9994,
      "exact": 9995,
      "others": 9996,
      "2005年": 9997,
      "cies": 9998,
      "groups": 9999,
      "kỹ": 10000,
      "lã": 10001,
      "inf": 10002,
      "ele": 10003,
      "nối": 10004,
      "developed": 10005,
      "Ro": 10006,
      "行く": 10007,
      "Tại": 10008,
      "vate": 10009,
      "đạt": 10010,
      "充分": 10011,
      "coordin": 10012,
      "Programme": 10013,
      "一项": 10014,
      "phone": 10015,
      "Ara": 10016,
      "dio": 10017,
      "management": 10018,
      "tạp": 10019,
      "accordance": 10020,
      "ưỡ": 10021,
      "许多": 10022,
      "gave": 10023,
      "存在": 10024,
      "deb": 10025,
      "わた": 10026,
      "invi": 10027,
      "Econom": 10028,
      "gl": 10029,
      "active": 10030,
      "proced": 10031,
      "địa": 10032,
      "Gu": 10033,
      "IN": 10034,
      "培训": 10035,
      "team": 10036,
      "lịch": 10037,
      "đình": 10038,
      "われ": 10039,
      "次会议": 10040,
      "ury": 10041,
      "ですか": 10042,
      "thúc": 10043,
      "range": 10044,
      "model": 10045,
      "appropriate": 10046,
      "xung": 10047,
      "coll": 10048,
      "interesting": 10049,
      "See": 10050,
      "aking": 10051,
      "ery": 10052,
      "trade": 10053,
      "時間": 10054,
      "ory": 10055,
      "riêng": 10056,
      "note": 10057,
      "attention": 10058,
      "安理会": 10059,
      "ove": 10060,
      "almost": 10061,
      "paren": 10062,
      "initi": 10063,
      "trad": 10064,
      "られる": 10065,
      "及其": 10066,
      "soon": 10067,
      "Cu": 10068,
      "cases": 10069,
      "robot": 10070,
      "questions": 10071,
      "improve": 10072,
      "bàn": 10073,
      "sc": 10074,
      "photo": 10075,
      "Lord": 10076,
      "bon": 10077,
      "dành": 10078,
      "themselves": 10079,
      "ye": 10080,
      "applic": 10081,
      "đoán": 10082,
      "cup": 10083,
      "巴勒": 10084,
      "dạy": 10085,
      "resul": 10086,
      "あの": 10087,
      "anal": 10088,
      "share": 10089,
      "らない": 10090,
      "ext": 10091,
      "logical": 10092,
      "answer": 10093,
      "tối": 10094,
      "ラン": 10095,
      "巴勒斯坦": 10096,
      "created": 10097,
      "hell": 10098,
      "同时": 10099,
      "机制": 10100,
      "35": 10101,
      "fail": 10102,
      "đọc": 10103,
      "trông": 10104,
      "rought": 10105,
      "DP": 10106,
      "イン": 10107,
      "框架": 10108,
      "đứng": 10109,
      "weapons": 10110,
      "ark": 10111,
      "aged": 10112,
      "OK": 10113,
      "yếu": 10114,
      "safe": 10115,
      "工作组": 10116,
      "seven": 10117,
      "ators": 10118,
      "drug": 10119,
      "trúc": 10120,
      "proper": 10121,
      "concl": 10122,
      "break": 10123,
      "以色": 10124,
      "road": 10125,
      "autiful": 10126,
      "以色列": 10127,
      "mẫu": 10128,
      "标准": 10129,
      "歧视": 10130,
      "行政": 10131,
      "temp": 10132,
      "scient": 10133,
      "simple": 10134,
      "Our": 10135,
      "民主": 10136,
      "boy": 10137,
      "联盟": 10138,
      "phủ": 10139,
      "58": 10140,
      "Mon": 10141,
      "vệ": 10142,
      "chạy": 10143,
      "しない": 10144,
      "front": 10145,
      "khoẻ": 10146,
      "secret": 10147,
      "knowledge": 10148,
      "Pol": 10149,
      "sẻ": 10150,
      "ceed": 10151,
      "exper": 10152,
      "established": 10153,
      "vui": 10154,
      "ngồi": 10155,
      "terms": 10156,
      "everyone": 10157,
      "これは": 10158,
      "Man": 10159,
      "hind": 10160,
      "happens": 10161,
      "listen": 10162,
      "Cảm": 10163,
      "lost": 10164,
      "keeping": 10165,
      "AD": 10166,
      "CN": 10167,
      "cost": 10168,
      "ちょ": 10169,
      "年12月": 10170,
      "だろう": 10171,
      "滋病": 10172,
      "している": 10173,
      "luật": 10174,
      "versity": 10175,
      "Afgh": 10176,
      "57": 10177,
      "cậu": 10178,
      "uses": 10179,
      "reports": 10180,
      "Israel": 10181,
      "非常": 10182,
      "thous": 10183,
      "phút": 10184,
      "overty": 10185,
      "systems": 10186,
      "决议草案": 10187,
      "fav": 10188,
      "mắt": 10189,
      "会员": 10190,
      "early": 10191,
      "pat": 10192,
      "chương": 10193,
      "为了": 10194,
      "looks": 10195,
      "amount": 10196,
      "Member": 10197,
      "地方": 10198,
      "Social": 10199,
      "fire": 10200,
      "inste": 10201,
      "Jan": 10202,
      "にも": 10203,
      "第五": 10204,
      "艾滋病": 10205,
      "alone": 10206,
      "itarian": 10207,
      "kiện": 10208,
      "Eng": 10209,
      "承诺": 10210,
      "机会": 10211,
      "class": 10212,
      "nổi": 10213,
      "他的": 10214,
      "thí": 10215,
      "Chair": 10216,
      "dy": 10217,
      "だろ": 10218,
      "人口": 10219,
      "indic": 10220,
      "forms": 10221,
      "atory": 10222,
      "science": 10223,
      "hon": 10224,
      "いや": 10225,
      "East": 10226,
      "sợ": 10227,
      "ạng": 10228,
      "平等": 10229,
      "encoura": 10230,
      "towards": 10231,
      "particularly": 10232,
      "June": 10233,
      "Organization": 10234,
      "kỷ": 10235,
      "伙伴": 10236,
      "具体": 10237,
      "我々": 10238,
      "新的": 10239,
      "欢迎": 10240,
      "gái": 10241,
      "进展": 10242,
      "assess": 10243,
      "National": 10244,
      "制度": 10245,
      "const": 10246,
      "recommendations": 10247,
      "lines": 10248,
      "そこ": 10249,
      "なさい": 10250,
      "减少": 10251,
      "partners": 10252,
      "inno": 10253,
      "tool": 10254,
      "obser": 10255,
      "thank": 10256,
      "彼ら": 10257,
      "acts": 10258,
      "consult": 10259,
      "va": 10260,
      "ああ": 10261,
      "私が": 10262,
      "Ab": 10263,
      "只是": 10264,
      "tiết": 10265,
      "short": 10266,
      "ことは": 10267,
      "司法": 10268,
      "beautiful": 10269,
      "cuốn": 10270,
      "bodies": 10271,
      "European": 10272,
      "employ": 10273,
      "恐怖主义": 10274,
      "invest": 10275,
      "sư": 10276,
      "建设": 10277,
      "chung": 10278,
      "chắn": 10279,
      "Art": 10280,
      "Afghan": 10281,
      "US": 10282,
      "丈夫": 10283,
      "维持": 10284,
      "entire": 10285,
      "lớp": 10286,
      "そして": 10287,
      "办事": 10288,
      "和其他": 10289,
      "警察": 10290,
      "部队": 10291,
      "atever": 10292,
      "suff": 10293,
      "ished": 10294,
      "Maybe": 10295,
      "impact": 10296,
      "Economic": 10297,
      "lâu": 10298,
      "ilt": 10299,
      "common": 10300,
      "American": 10301,
      "会员国": 10302,
      "hầu": 10303,
      "outside": 10304,
      "takes": 10305,
      "achieve": 10306,
      "cos": 10307,
      "ké": 10308,
      "ファ": 10309,
      "用于": 10310,
      "quick": 10311,
      "ượt": 10312,
      "importance": 10313,
      "pie": 10314,
      "khắp": 10315,
      "mua": 10316,
      "police": 10317,
      "along": 10318,
      "blo": 10319,
      "不会": 10320,
      "条件": 10321,
      "附件": 10322,
      "aware": 10323,
      "study": 10324,
      "nature": 10325,
      "democr": 10326,
      "gone": 10327,
      "ặng": 10328,
      "itor": 10329,
      "sắc": 10330,
      "まだ": 10331,
      "nel": 10332,
      "ideas": 10333,
      "risk": 10334,
      "ape": 10335,
      "couldn": 10336,
      "valu": 10337,
      "cam": 10338,
      "范围": 10339,
      "result": 10340,
      "Ge": 10341,
      "mod": 10342,
      "yes": 10343,
      "拉克": 10344,
      "asing": 10345,
      "bia": 10346,
      "bio": 10347,
      "indus": 10348,
      "利亚": 10349,
      "可持续": 10350,
      "Ste": 10351,
      "buy": 10352,
      "rules": 10353,
      "けた": 10354,
      "ently": 10355,
      "office": 10356,
      "growth": 10357,
      "entral": 10358,
      "1998": 10359,
      "全面": 10360,
      "trust": 10361,
      "limit": 10362,
      "wouldn": 10363,
      "threat": 10364,
      "concerned": 10365,
      "computer": 10366,
      "eat": 10367,
      "test": 10368,
      "àm": 10369,
      "trợ": 10370,
      "rid": 10371,
      "Law": 10372,
      "bán": 10373,
      "hur": 10374,
      "ping": 10375,
      "消除": 10376,
      "enni": 10377,
      "rather": 10378,
      "buổi": 10379,
      "nments": 10380,
      "ーン": 10381,
      "context": 10382,
      "above": 10383,
      "办事处": 10384,
      "AID": 10385,
      "Cour": 10386,
      "mối": 10387,
      "接受": 10388,
      "People": 10389,
      "account": 10390,
      "33": 10391,
      "るの": 10392,
      "认识": 10393,
      "suốt": 10394,
      "history": 10395,
      "turned": 10396,
      "increase": 10397,
      "是否": 10398,
      "适当": 10399,
      "objec": 10400,
      "military": 10401,
      "zy": 10402,
      "ngôn": 10403,
      "doc": 10404,
      "ongo": 10405,
      "kiểu": 10406,
      "brother": 10407,
      "exactly": 10408,
      "AR": 10409,
      "cấu": 10410,
      "制定": 10411,
      "xúc": 10412,
      "ント": 10413,
      "公司": 10414,
      "按照": 10415,
      "ature": 10416,
      "poverty": 10417,
      "vận": 10418,
      "最近": 10419,
      "itself": 10420,
      "sia": 10421,
      "attack": 10422,
      "thoại": 10423,
      "girls": 10424,
      "Ear": 10425,
      "数据": 10426,
      "最后": 10427,
      "tom": 10428,
      "sugg": 10429,
      "anger": 10430,
      "known": 10431,
      "market": 10432,
      "basis": 10433,
      "hands": 10434,
      "signific": 10435,
      "评估": 10436,
      "compet": 10437,
      "Oc": 10438,
      "人道": 10439,
      "君は": 10440,
      "高级": 10441,
      "oud": 10442,
      "morning": 10443,
      "site": 10444,
      "义务": 10445,
      "基本": 10446,
      "isl": 10447,
      "enter": 10448,
      "trial": 10449,
      "leaders": 10450,
      "mun": 10451,
      "rat": 10452,
      "couple": 10453,
      "sector": 10454,
      "institutions": 10455,
      "cit": 10456,
      "gender": 10457,
      "pi": 10458,
      "looked": 10459,
      "Palestin": 10460,
      "bly": 10461,
      "termin": 10462,
      "explain": 10463,
      "news": 10464,
      "date": 10465,
      "ucking": 10466,
      "Ti": 10467,
      "bun": 10468,
      "pan": 10469,
      "ecu": 10470,
      "company": 10471,
      "volution": 10472,
      "dist": 10473,
      "应当": 10474,
      "provision": 10475,
      "either": 10476,
      "Dis": 10477,
      "成为": 10478,
      "behind": 10479,
      "6月": 10480,
      "cửa": 10481,
      "tw": 10482,
      "尼亚": 10483,
      "oblig": 10484,
      "technical": 10485,
      "music": 10486,
      "ennium": 10487,
      "时候": 10488,
      "规则": 10489,
      "inves": 10490,
      "encies": 10491,
      "natural": 10492,
      "文化": 10493,
      "造成": 10494,
      "cánh": 10495,
      "开发": 10496,
      "forward": 10497,
      "amaz": 10498,
      "dise": 10499,
      "language": 10500,
      "sở": 10501,
      "なんだ": 10502,
      "对于": 10503,
      "propos": 10504,
      "ames": 10505,
      "biển": 10506,
      "official": 10507,
      "2000年": 10508,
      "AIDS": 10509,
      "Col": 10510,
      "brought": 10511,
      "ley": 10512,
      "include": 10513,
      "eyes": 10514,
      "Part": 10515,
      "wind": 10516,
      "到了": 10517,
      "\".": 10518,
      "fine": 10519,
      "fast": 10520,
      "ràng": 10521,
      "しか": 10522,
      "伊拉克": 10523,
      "正式": 10524,
      "However": 10525,
      "Parties": 10526,
      "late": 10527,
      "ちゃ": 10528,
      "intern": 10529,
      "protect": 10530,
      "picture": 10531,
      "ón": 10532,
      "きた": 10533,
      "prevent": 10534,
      "Women": 10535,
      "そんな": 10536,
      "严重": 10537,
      "ngạc": 10538,
      "espec": 10539,
      "deli": 10540,
      "anyone": 10541,
      "truth": 10542,
      "especially": 10543,
      "Da": 10544,
      "协定": 10545,
      "Sep": 10546,
      "nằm": 10547,
      "仕事": 10548,
      "议定": 10549,
      "tocol": 10550,
      "prep": 10551,
      "function": 10552,
      "org": 10553,
      "governmental": 10554,
      "happy": 10555,
      "cells": 10556,
      "undred": 10557,
      "Court": 10558,
      "Har": 10559,
      "Of": 10560,
      "fuck": 10561,
      "より": 10562,
      "それで": 10563,
      "pati": 10564,
      "设立": 10565,
      "reli": 10566,
      "reci": 10567,
      "tig": 10568,
      "rais": 10569,
      "emer": 10570,
      "Report": 10571,
      "reflec": 10572,
      "Tất": 10573,
      "hồi": 10574,
      "rup": 10575,
      "人の": 10576,
      "63": 10577,
      "oil": 10578,
      "deep": 10579,
      "Reg": 10580,
      "bố": 10581,
      "咨询": 10582,
      "如何": 10583,
      "Ri": 10584,
      "gun": 10585,
      "los": 10586,
      "ps": 10587,
      "mark": 10588,
      "Any": 10589,
      "baby": 10590,
      "easy": 10591,
      "彼の": 10592,
      "orig": 10593,
      "2003年": 10594,
      "Cô": 10595,
      "băng": 10596,
      "gent": 10597,
      "partment": 10598,
      "direct": 10599,
      "此外": 10600,
      "khám": 10601,
      "nei": 10602,
      "built": 10603,
      "hor": 10604,
      "uel": 10605,
      "缔约方": 10606,
      "consideration": 10607,
      "nice": 10608,
      "actions": 10609,
      "かな": 10610,
      "lands": 10611,
      "2004年": 10612,
      "reedom": 10613,
      "da": 10614,
      "uh": 10615,
      "ual": 10616,
      "èo": 10617,
      "なぜ": 10618,
      "knows": 10619,
      "ってた": 10620,
      "introd": 10621,
      "Arab": 10622,
      "56": 10623,
      "ngành": 10624,
      "manent": 10625,
      "shit": 10626,
      "delegation": 10627,
      "IS": 10628,
      "mù": 10629,
      "mine": 10630,
      "还有": 10631,
      "died": 10632,
      "nhiệm": 10633,
      "sustainable": 10634,
      "sle": 10635,
      "chụp": 10636,
      "acter": 10637,
      "工作人员": 10638,
      "不同": 10639,
      "thái": 10640,
      "chem": 10641,
      "difficult": 10642,
      "conside": 10643,
      "levels": 10644,
      "considered": 10645,
      "sal": 10646,
      "ョン": 10647,
      "鼓励": 10648,
      "izing": 10649,
      "worked": 10650,
      "いない": 10651,
      "khủng": 10652,
      "2001年": 10653,
      "俺は": 10654,
      "投资": 10655,
      "quality": 10656,
      "wide": 10657,
      "usion": 10658,
      "tember": 10659,
      "2007年": 10660,
      "piece": 10661,
      "September": 10662,
      "难民": 10663,
      "ngôi": 10664,
      "nhập": 10665,
      "tuần": 10666,
      "conditions": 10667,
      "relationship": 10668,
      ")。": 10669,
      "fif": 10670,
      "かり": 10671,
      "的事": 10672,
      "trave": 10673,
      "国际社会": 10674,
      "hundred": 10675,
      "guess": 10676,
      "Pre": 10677,
      "ĩnh": 10678,
      "poin": 10679,
      "2002年": 10680,
      "High": 10681,
      "62": 10682,
      "xét": 10683,
      "trưởng": 10684,
      "ここに": 10685,
      "Nên": 10686,
      "mong": 10687,
      "那些": 10688,
      "post": 10689,
      "Board": 10690,
      "えた": 10691,
      "两个": 10692,
      "大丈夫": 10693,
      "我想": 10694,
      "费用": 10695,
      "ches": 10696,
      "phức": 10697,
      "istic": 10698,
      "độc": 10699,
      "amazing": 10700,
      "500": 10701,
      "úi": 10702,
      "ữu": 10703,
      "イル": 10704,
      "具有": 10705,
      "door": 10706,
      "hoà": 10707,
      "private": 10708,
      "xin": 10709,
      "とは": 10710,
      "负责": 10711,
      "ots": 10712,
      "vered": 10713,
      "para": 10714,
      "value": 10715,
      "planet": 10716,
      "joy": 10717,
      "crimination": 10718,
      "framework": 10719,
      "议定书": 10720,
      "48": 10721,
      "paper": 10722,
      "并且": 10723,
      "wife": 10724,
      "organization": 10725,
      "figure": 10726,
      "chec": 10727,
      "hữu": 10728,
      "lay": 10729,
      "expect": 10730,
      "・・・": 10731,
      "engine": 10732,
      "fucking": 10733,
      "kẻ": 10734,
      "非政府": 10735,
      "sever": 10736,
      "projects": 10737,
      "everybody": 10738,
      "37": 10739,
      "hạnh": 10740,
      "kích": 10741,
      "何を": 10742,
      "ern": 10743,
      "ER": 10744,
      "pas": 10745,
      "black": 10746,
      "various": 10747,
      "cạnh": 10748,
      "vin": 10749,
      "地位": 10750,
      "改革": 10751,
      "ify": 10752,
      "draw": 10753,
      "imagine": 10754,
      "win": 10755,
      "として": 10756,
      "帮助": 10757,
      "apan": 10758,
      "lling": 10759,
      "197": 10760,
      "provisions": 10761,
      "Japan": 10762,
      "đa": 10763,
      "结果": 10764,
      "gency": 10765,
      "India": 10766,
      "camp": 10767,
      "dream": 10768,
      "fish": 10769,
      "ging": 10770,
      "宣言": 10771,
      "ouble": 10772,
      "の中": 10773,
      "return": 10774,
      "cung": 10775,
      "resolutions": 10776,
      "2006年": 10777,
      "pursu": 10778,
      "やる": 10779,
      "construc": 10780,
      "somebody": 10781,
      "significant": 10782,
      "xanh": 10783,
      "成功": 10784,
      "ects": 10785,
      "Union": 10786,
      "thiên": 10787,
      "Earth": 10788,
      "Fo": 10789,
      "wan": 10790,
      "ẩy": 10791,
      "资金": 10792,
      "shop": 10793,
      "告诉": 10794,
      "alia": 10795,
      "vis": 10796,
      "civi": 10797,
      "perf": 10798,
      "therefore": 10799,
      "complex": 10800,
      "Sy": 10801,
      "lab": 10802,
      "scal": 10803,
      "vẽ": 10804,
      "chứ": 10805,
      "astr": 10806,
      "Ma": 10807,
      "rate": 10808,
      "好的": 10809,
      "武装": 10810,
      "Ger": 10811,
      "ball": 10812,
      "sou": 10813,
      "explo": 10814,
      "challeng": 10815,
      "Fe": 10816,
      "tic": 10817,
      "》，": 10818,
      "に入": 10819,
      "ライ": 10820,
      "君の": 10821,
      "instru": 10822,
      "chỗ": 10823,
      "ico": 10824,
      "phúc": 10825,
      "near": 10826,
      "learned": 10827,
      "legisl": 10828,
      "completely": 10829,
      "lạc": 10830,
      "尤其": 10831,
      "enh": 10832,
      "niệm": 10833,
      "evid": 10834,
      "hề": 10835,
      "vac": 10836,
      "ỏng": 10837,
      "阿拉": 10838,
      "trai": 10839,
      "detail": 10840,
      "hiểm": 10841,
      "compan": 10842,
      "continued": 10843,
      "Sự": 10844,
      "こう": 10845,
      "chuẩn": 10846,
      "cause": 10847,
      "lish": 10848,
      "大的": 10849,
      "日至": 10850,
      "fear": 10851,
      "goti": 10852,
      "59": 10853,
      "Fund": 10854,
      "ony": 10855,
      "uty": 10856,
      "ama": 10857,
      "IT": 10858,
      "flo": 10859,
      "hit": 10860,
      "信じ": 10861,
      "ham": 10862,
      "noted": 10863,
      "parents": 10864,
      "By": 10865,
      "Ter": 10866,
      "tấm": 10867,
      "decl": 10868,
      "Vâng": 10869,
      "psy": 10870,
      "required": 10871,
      "ưỡng": 10872,
      "ース": 10873,
      "uyện": 10874,
      "opportunity": 10875,
      "Tur": 10876,
      "link": 10877,
      "される": 10878,
      "てる": 10879,
      "重申": 10880,
      "thập": 10881,
      "town": 10882,
      "Working": 10883,
      "places": 10884,
      "Cái": 10885,
      "ES": 10886,
      "cải": 10887,
      "haps": 10888,
      "ẵn": 10889,
      "国内": 10890,
      "beha": 10891,
      "ada": 10892,
      "之间的": 10893,
      "Afghanistan": 10894,
      "ても": 10895,
      "ジェ": 10896,
      "产生": 10897,
      "做法": 10898,
      "涉及": 10899,
      "stress": 10900,
      "phạm": 10901,
      "ことが": 10902,
      "bóng": 10903,
      "sian": 10904,
      "changed": 10905,
      "Sup": 10906,
      "sir": 10907,
      "nhiêu": 10908,
      "July": 10909,
      "Sub": 10910,
      "Chris": 10911,
      "我们的": 10912,
      "非政府组织": 10913,
      "rule": 10914,
      "investig": 10915,
      "Will": 10916,
      "bom": 10917,
      "ộn": 10918,
      "ination": 10919,
      "oting": 10920,
      "haven": 10921,
      "resent": 10922,
      "đau": 10923,
      "total": 10924,
      "lying": 10925,
      "poor": 10926,
      "meetings": 10927,
      "mặc": 10928,
      "受到": 10929,
      "积极": 10930,
      "era": 10931,
      "whatever": 10932,
      "Thật": 10933,
      "になる": 10934,
      "several": 10935,
      "dung": 10936,
      "一緒": 10937,
      "istry": 10938,
      "civil": 10939,
      "moving": 10940,
      "igr": 10941,
      "prison": 10942,
      "CC": 10943,
      "Have": 10944,
      "各种": 10945,
      "目的": 10946,
      "eder": 10947,
      "doanh": 10948,
      "igned": 10949,
      "Rus": 10950,
      "san": 10951,
      "orte": 10952,
      "ateral": 10953,
      "议程项目": 10954,
      "Palestinian": 10955,
      "批准": 10956,
      "iter": 10957,
      "justice": 10958,
      "tried": 10959,
      "humanitarian": 10960,
      "happening": 10961,
      "terrorism": 10962,
      "bes": 10963,
      "dent": 10964,
      "ghi": 10965,
      "あった": 10966,
      "一般": 10967,
      "来た": 10968,
[...]
