{
  "version": "1.0",
  "truncation": null,
  "padding": null,
  "added_tokens": [
    {
      "id": 0,
      "content": "[PAD]",
      "single_word": false,
      "lstrip": false,
      "rstrip": false,
      "normalized": false,
      "special": true
    },
    {
      "id": 1,
      "content": "[UNK]",
      "single_word": false,
      "lstrip": false,
      "rstrip": false,
      "normalized": false,
      "special": true
    },
    {
      "id": 2,
      "content": "[BOS]",
      "single_word": false,
      "lstrip": false,
      "rstrip": false,
      "normalized": false,
      "special": true
    },
    {
      "id": 3,
      "content": "[EOS]",
      "single_word": false,
      "lstrip": false,
      "rstrip": false,
      "normalized": false,
      "special": true
    },
    {
      "id": 4,
      "content": "<2vi>",
      "single_word": false,
      "lstrip": false,
      "rstrip": false,
      "normalized": false,
      "special": true
    },
    {
      "id": 5,
      "content": "<2ja>",
      "single_word": false,
      "lstrip": false,
      "rstrip": false,
      "normalized": false,
      "special": true
    },
    {
      "id": 6,
      "content": "<2zh>",
      "single_word": false,
      "lstrip": false,
      "rstrip": false,
      "normalized": false,
      "special": true
    },
    {
      "id": 7,
      "content": "<2en>",
      "single_word": false,
      "lstrip": false,
      "rstrip": false,
      "normalized": false,
      "special": true
    }
  ],
  "normalizer": null,
  "pre_tokenizer": {
    "type": "Whitespace"
  },
  "post_processor": null,
  "decoder": null,
  "model": {
    "type": "BPE",
    "dropout": null,
    "unk_token": "[UNK]",
    "continuing_subword_prefix": null,
    "end_of_word_suffix": null,
    "fuse_unk": false,
    "byte_fallback": false,
    "ignore_merges": false,
    "vocab": {
      "[PAD]": 0,
      "[UNK]": 1,
      "[BOS]": 2,
      "[EOS]": 3,
      "<2vi>": 4,
      "<2ja>": 5,
      "<2zh>": 6,
      "<2en>": 7,
      "\u0000": 8,
      "\u0001": 9,
      "\u0002": 10,
      "\u0003": 11,
      "\u0004": 12,
      "\u0005": 13,
      "\u0006": 14,
      "\u0007": 15,
      "\b": 16,
      "\t": 17,
      "\n": 18,
      "\u000b": 19,
      "\f": 20,
      "\r": 21,
      "\u000e": 22,
      "\u000f": 23,
      "\u0010": 24,
      "\u0011": 25,
      "\u0012": 26,
      "\u0013": 27,
      "\u0014": 28,
      "\u0015": 29,
      "\u0016": 30,
      "\u0017": 31,
      "\u0018": 32,
      "\u0019": 33,
      "\u001a": 34,
      "\u001b": 35,
      "\u001c": 36,
      "\u001d": 37,
      "\u001e": 38,
      "\u001f": 39,
      " ": 40,
      "!": 41,
      "\"": 42,
      "#": 43,
      "$": 44,
      "%": 45,
      "&": 46,
      "'": 47,
      "(": 48,
      ")": 49,
      "*": 50,
      "+": 51,
      ",": 52,
      "-": 53,
      ".": 54,
      "/": 55,
      "0": 56,
      "1": 57,
      "2": 58,
      "3": 59,
      "4": 60,
      "5": 61,
      "6": 62,
      "7": 63,
      "8": 64,
      "9": 65,
      ":": 66,
      ";": 67,
      "<": 68,
      "=": 69,
      ">": 70,
      "?": 71,
      "@": 72,
      "A": 73,
      "B": 74,
      "C": 75,
      "D": 76,
      "E": 77,
      "F": 78,
      "G": 79,
      "H": 80,
      "I": 81,
      "J": 82,
      "K": 83,
      "L": 84,
      "M": 85,
      "N": 86,
      "O": 87,
      "P": 88,
      "Q": 89,
      "R": 90,
      "S": 91,
      "T": 92,
      "U": 93,
      "V": 94,
      "W": 95,
      "X": 96,
      "Y": 97,
      "Z": 98,
      "[": 99,
      "\\": 100,
      "]": 101,
      "^": 102,
      "_": 103,
      "`": 104,
      "a": 105,
      "b": 106,
      "c": 107,
      "d": 108,
      "e": 109,
      "f": 110,
      "g": 111,
      "h": 112,
      "i": 113,
      "j": 114,
      "k": 115,
      "l": 116,
      "m": 117,
      "n": 118,
      "o": 119,
      "p": 120,
      "q": 121,
      "r": 122,
      "s": 123,
      "t": 124,
      "u": 125,
      "v": 126,
      "w": 127,
      "x": 128,
      "y": 129,
      "z": 130,
      "{": 131,
      "|": 132,
      "}": 133,
      "~": 134,
      "": 135,
      "": 136,
      "": 137,
      "": 138,
      "": 139,
      "": 140,
      "": 141,
      "": 142,
      "": 143,
      "": 144,
      "": 145,
      "": 146,
      "": 147,
      "": 148,
      "": 149,
      "": 150,
      "": 151,
      "": 152,
      "": 153,
      "": 154,
      "": 155,
      "": 156,
      "": 157,
      "": 158,
      "": 159,
      "": 160,
      "": 161,
      "": 162,
      "": 163,
      "": 164,
      "": 165,
      "": 166,
      "": 167,
      " ": 168,
      "¡": 169,
      "¢": 170,
      "£": 171,
      "¤": 172,
      "¥": 173,
      "¦": 174,
      "§": 175,
      "¨": 176,
      "©": 177,
      "ª": 178,
      "«": 179,
      "¬": 180,
      "­": 181,
      "®": 182,
      "¯": 183,
      "°": 184,
      "±": 185,
      "²": 186,
      "³": 187,
      "´": 188,
      "µ": 189,
      "¶": 190,
      "·": 191,
      "¸": 192,
      "¹": 193,
      "º": 194,
      "»": 195,
      "¼": 196,
      "½": 197,
      "¾": 198,
      "¿": 199,
      "À": 200,
      "Á": 201,
      "Â": 202,
      "Ã": 203,
      "Ä": 204,
      "Å": 205,
      "Æ": 206,
      "Ç": 207,
      "È": 208,
      "É": 209,
      "Ê": 210,
      "Ë": 211,
      "Ì": 212,
      "Í": 213,
      "Î": 214,
      "Ï": 215,
      "Ð": 216,
      "Ñ": 217,
      "Ò": 218,
      "Ó": 219,
      "Ô": 220,
      "Õ": 221,
      "Ö": 222,
      "×": 223,
      "Ø": 224,
      "Ù": 225,
      "Ú": 226,
      "Û": 227,
      "Ü": 228,
      "Ý": 229,
      "Þ": 230,
      "ß": 231,
      "à": 232,
      "á": 233,
      "â": 234,
      "ã": 235,
      "ä": 236,
      "å": 237,
      "æ": 238,
      "ç": 239,
      "è": 240,
      "é": 241,
      "ê": 242,
      "ë": 243,
      "ì": 244,
      "í": 245,
      "î": 246,
      "ï": 247,
      "ð": 248,
      "ñ": 249,
      "ò": 250,
      "ó": 251,
      "ô": 252,
      "õ": 253,
      "ö": 254,
      "÷": 255,
      "ø": 256,
      "ù": 257,
      "ú": 258,
      "û": 259,
      "ü": 260,
      "ý": 261,
      "þ": 262,
      "ÿ": 263,
      "Ā": 264,
      "ā": 265,
      "Ă": 266,
      "ă": 267,
      "Ą": 268,
      "ą": 269,
      "Ć": 270,
      "ć": 271,
      "Ċ": 272,
      "Č": 273,
      "č": 274,
      "Ď": 275,
      "ď": 276,
      "Đ": 277,
      "đ": 278,
      "Ē": 279,
      "ē": 280,
      "ĕ": 281,
      "Ė": 282,
      "ė": 283,
      "ę": 284,
      "ě": 285,
      "Ĝ": 286,
      "Ğ": 287,
      "ğ": 288,
      "Ġ": 289,
      "ġ": 290,
      "ģ": 291,
      "Ĥ": 292,
      "ħ": 293,
      "Ĩ": 294,
      "ĩ": 295,
      "Ī": 296,
      "ī": 297,
      "Ĭ": 298,
      "ĭ": 299,
      "İ": 300,
      "ı": 301,
      "Ĳ": 302,
      "Ĵ": 303,
      "ĵ": 304,
      "ķ": 305,
      "ĺ": 306,
      "ļ": 307,
      "Ľ": 308,
      "ľ": 309,
      "Ŀ": 310,
      "Ł": 311,
      "ł": 312,
      "Ń": 313,
      "ń": 314,
      "ņ": 315,
      "ň": 316,
      "Ō": 317,
      "ō": 318,
      "ŏ": 319,
      "ő": 320,
      "Œ": 321,
      "œ": 322,
      "Ŕ": 323,
      "Ř": 324,
      "ř": 325,
      "Ś": 326,
      "ś": 327,
      "Ş": 328,
      "ş": 329,
      "Š": 330,
      "š": 331,
      "Ţ": 332,
      "ţ": 333,
      "Ť": 334,
      "ť": 335,
      "Ũ": 336,
      "ũ": 337,
      "ū": 338,
      "ŭ": 339,
      "ű": 340,
      "ų": 341,
      "ŵ": 342,
      "ŷ": 343,
      "Ÿ": 344,
      "ź": 345,
      "ż": 346,
      "Ž": 347,
      "ž": 348,
      "ƒ": 349,
      "Ơ": 350,
      "ơ": 351,
      "Ư": 352,
      "ư": 353,
      "ƴ": 354,
      "Ʒ": 355,
      "Ƽ": 356,
      "ƽ": 357,
      "ǂ": 358,
      "ǎ": 359,
      "ǐ": 360,
      "ǒ": 361,
      "ǖ": 362,
      "ǘ": 363,
      "ǜ": 364,
      "ǣ": 365,
      "ǰ": 366,
      "ǳ": 367,
      "ǿ": 368,
      "Ȏ": 369,
      "ȏ": 370,
      "ș": 371,
      "ț": 372,
      "ȧ": 373,
      "ȫ": 374,
      "Ȼ": 375,
      "ȼ": 376,
      "Ƚ": 377,
      "Ʉ": 378,
      "Ɋ": 379,
      "ɏ": 380,
      "ɑ": 381,
      "ɒ": 382,
      "ɡ": 383,
      "ɹ": 384,
      "ʇ": 385,
      "ʊ": 386,
      "ʔ": 387,
      "ʖ": 388,
      "ʜ": 389,
      "ʠ": 390,
      "ʣ": 391,
      "ʱ": 392,
      "ʵ": 393,
      "ʶ": 394,
      "ʷ": 395,
      "ʹ": 396,
      "ʻ": 397,
      "ʼ": 398,
      "ʽ": 399,
      "ʾ": 400,
      "ˆ": 401,
      "ˊ": 402,
      "ˋ": 403,
      "ː": 404,
      "˖": 405,
      "˙": 406,
      "˚": 407,
      "˜": 408,
      "ˠ": 409,
      "˳": 410,
      "˵": 411,
      "˹": 412,
      "̀": 413,
      "́": 414,
      "̃": 415,
      "̉": 416,
      "̎": 417,
      "̐": 418,
      "̡": 419,
      "̢": 420,
      "̣": 421,
      "̨": 422,
      "̬": 423,
      "̮": 424,
      "̳": 425,
      "̽": 426,
      "̀": 427,
      "́": 428,
      "͠": 429,
      "͢": 430,
      "ͳ": 431,
      "ʹ": 432,
      "ͷ": 433,
      ";": 434,
      "Ϳ": 435,
      "΄": 436,
      "Ά": 437,
      "·": 438,
      "Ή": 439,
      "Α": 440,
      "Β": 441,
      "Γ": 442,
      "Ε": 443,
      "Ζ": 444,
      "Η": 445,
      "Θ": 446,
      "Ι": 447,
      "Κ": 448,
      "Λ": 449,
      "Μ": 450,
      "Ν": 451,
      "Ξ": 452,
      "Ο": 453,
      "Π": 454,
      "Ρ": 455,
      "Σ": 456,
      "Τ": 457,
      "Υ": 458,
      "Ψ": 459,
      "Ω": 460,
      "Ϊ": 461,
      "ί": 462,
      "α": 463,
      "β": 464,
      "γ": 465,
      "δ": 466,
      "ε": 467,
      "η": 468,
      "θ": 469,
      "ι": 470,
      "κ": 471,
      "λ": 472,
      "μ": 473,
      "ν": 474,
      "ο": 475,
      "π": 476,
      "ρ": 477,
      "ς": 478,
      "σ": 479,
      "τ": 480,
      "φ": 481,
      "ψ": 482,
      "ω": 483,
      "ό": 484,
      "ϔ": 485,
      "ϖ": 486,
      "Ϟ": 487,
      "ϟ": 488,
      "Ϣ": 489,
      "Ϭ": 490,
      "ϵ": 491,
      "Ϻ": 492,
      "ϻ": 493,
      "Ͽ": 494,
      "Ё": 495,
      "Ђ": 496,
      "Ѕ": 497,
      "Њ": 498,
      "Ѝ": 499,
      "Ў": 500,
      "А": 501,
      "Б": 502,
      "В": 503,
      "Г": 504,
      "Д": 505,
      "Е": 506,
      "Ж": 507,
      "З": 508,
      "И": 509,
      "К": 510,
      "М": 511,
      "Н": 512,
      "О": 513,
      "П": 514,
      "Р": 515,
      "С": 516,
      "Т": 517,
      "Ф": 518,
      "Х": 519,
      "Ч": 520,
      "Ш": 521,
      "Щ": 522,
      "Ы": 523,
      "Ь": 524,
      "Э": 525,
      "Ю": 526,
      "Я": 527,
      "а": 528,
      "б": 529,
      "в": 530,
      "г": 531,
      "д": 532,
      "е": 533,
      "ж": 534,
      "з": 535,
      "и": 536,
      "й": 537,
      "к": 538,
      "л": 539,
      "м": 540,
      "н": 541,
      "о": 542,
      "п": 543,
      "р": 544,
      "с": 545,
      "т": 546,
      "у": 547,
      "ф": 548,
      "х": 549,
      "ц": 550,
      "ч": 551,
      "ш": 552,
      "щ": 553,
      "ъ": 554,
      "ы": 555,
      "ь": 556,
      "э": 557,
      "ю": 558,
      "я": 559,
      "є": 560,
      "ѕ": 561,
      "і": 562,
      "ї": 563,
      "ѹ": 564,
      "Ҁ": 565,
      "҆": 566,
      "ґ": 567,
      "Ҕ": 568,
      "Ң": 569,
      "ҥ": 570,
      "Ҫ": 571,
      "ҫ": 572,
      "Ҳ": 573,
      "ҳ": 574,
      "һ": 575,
      "ҽ": 576,
      "Ӄ": 577,
      "ӄ": 578,
      "ӈ": 579,
      "Ӊ": 580,
      "Ӑ": 581,
      "Ӕ": 582,
      "Ӛ": 583,
      "Ӡ": 584,
      "ӡ": 585,
      "ӫ": 586,
      "ӯ": 587,
      "ӷ": 588,
      "Ԃ": 589,
      "Ԋ": 590,
      "ԋ": 591,
      "ԏ": 592,
      "Ԕ": 593,
      "Ԛ": 594,
      "Ԡ": 595,
      "Ԥ": 596,
      "Ԫ": 597,
      "Դ": 598,
      "Ե": 599,
      "Լ": 600,
      "Ձ": 601,
      "Ղ": 602,
      "բ": 603,
      "յ": 604,
      "չ": 605,
      "ց": 606,
      "փ": 607,
      "ֆ": 608,
      "֐": 609,
      "֘": 610,
      "֡": 611,
      "֣": 612,
      "֧": 613,
      "֪": 614,
      "֮": 615,
      "ֱ": 616,
      "ֲ": 617,
      "ֶ": 618,
      "ָ": 619,
      "ֺ": 620,
      "ּ": 621,
      "׊": 622,
      "ד": 623,
      "ה": 624,
      "ו": 625,
      "ע": 626,
      "ש": 627,
      "ת": 628,
      "װ": 629,
      "׳": 630,
      "׷": 631,
      "؊": 632,
      "،": 633,
      "ؐ": 634,
      "ؓ": 635,
      "ؖ": 636,
      "؟": 637,
      "ؠ": 638,
      "ا": 639,
      "ت": 640,
      "ج": 641,
      "ر": 642,
      "غ": 643,
      "ـ": 644,
      "ل": 645,
      "ه": 646,
      "ً": 647,
      "َ": 648,
      "ُ": 649,
      "ِ": 650,
      "ّ": 651,
      "ْ": 652,
      "ڔ": 653,
      "ڠ": 654,
      "ڤ": 655,
      "ڱ": 656,
      "ڼ": 657,
      "۰": 658,
      "܂": 659,
      "ܷ": 660,
      "ݖ": 661,
      "ݣ": 662,
      "ݿ": 663,
      "ߣ": 664,
      "߰": 665,
      "ँ": 666,
      "ं": 667,
      "अ": 668,
      "आ": 669,
      "इ": 670,
      "ई": 671,
      "उ": 672,
      "ऊ": 673,
      "ऋ": 674,
      "ए": 675,
      "ऐ": 676,
      "ओ": 677,
      "औ": 678,
      "क": 679,
      "ख": 680,
      "ग": 681,
      "घ": 682,
      "च": 683,
      "छ": 684,
      "ज": 685,
      "झ": 686,
      "ञ": 687,
      "ट": 688,
      "ठ": 689,
      "ड": 690,
      "ढ": 691,
      "ण": 692,
      "त": 693,
      "थ": 694,
      "द": 695,
      "ध": 696,
      "न": 697,
      "प": 698,
      "फ": 699,
      "ब": 700,
      "भ": 701,
      "म": 702,
      "य": 703,
      "र": 704,
      "ल": 705,
      "व": 706,
      "श": 707,
      "ष": 708,
      "स": 709,
      "ह": 710,
      "़": 711,
      "ा": 712,
      "ि": 713,
      "ी": 714,
      "ु": 715,
      "ू": 716,
      "ृ": 717,
      "े": 718,
      "ै": 719,
      "ॉ": 720,
      "ो": 721,
      "ौ": 722,
      "्": 723,
      "।": 724,
      "๘": 725,
      "ဪ": 726,
      "ါ": 727,
      "Ⴗ": 728,
      "Ⴞ": 729,
      "ᆼ": 730,
      "ኸ": 731,
      "ኾ": 732,
      "᧯": 733,
      "ḥ": 734,
      "Ạ": 735,
      "ạ": 736,
      "Ả": 737,
      "ả": 738,
      "Ấ": 739,
      "ấ": 740,
      "Ầ": 741,
      "ầ": 742,
      "Ẩ": 743,
      "ẩ": 744,
      "Ẫ": 745,
      "ẫ": 746,
      "Ậ": 747,
      "ậ": 748,
      "Ắ": 749,
      "ắ": 750,
      "Ằ": 751,
      "ằ": 752,
      "Ẳ": 753,
      "ẳ": 754,
      "Ẵ": 755,
      "ẵ": 756,
      "Ặ": 757,
      "ặ": 758,
      "Ẹ": 759,
      "ẹ": 760,
      "Ẻ": 761,
      "ẻ": 762,
      "Ẽ": 763,
      "ẽ": 764,
      "Ế": 765,
      "ế": 766,
      "Ề": 767,
      "ề": 768,
      "Ể": 769,
      "ể": 770,
      "Ễ": 771,
      "ễ": 772,
      "Ệ": 773,
      "ệ": 774,
      "Ỉ": 775,
      "ỉ": 776,
      "Ị": 777,
      "ị": 778,
      "Ọ": 779,
      "ọ": 780,
      "Ỏ": 781,
      "ỏ": 782,
      "Ố": 783,
      "ố": 784,
      "Ồ": 785,
      "ồ": 786,
      "Ổ": 787,
      "ổ": 788,
      "Ỗ": 789,
      "ỗ": 790,
      "Ộ": 791,
      "ộ": 792,
      "Ớ": 793,
      "ớ": 794,
      "Ờ": 795,
      "ờ": 796,
      "Ở": 797,
      "ở": 798,
      "Ỡ": 799,
      "ỡ": 800,
      "Ợ": 801,
      "ợ": 802,
      "Ụ": 803,
      "ụ": 804,
      "Ủ": 805,
      "ủ": 806,
      "Ứ": 807,
      "ứ": 808,
      "Ừ": 809,
      "ừ": 810,
      "Ử": 811,
      "ử": 812,
      "Ữ": 813,
      "ữ": 814,
      "Ự": 815,
      "ự": 816,
      "Ỳ": 817,
      "ỳ": 818,
      "Ỵ": 819,
      "ỵ": 820,
      "Ỷ": 821,
      "ỷ": 822,
      "Ỹ": 823,
      "ỹ": 824,
      "Ἧ": 825,
      "​": 826,
      "‌": 827,
      "‍": 828,
      "‎": 829,
      "‐": 830,
      "‒": 831,
      "–": 832,
      "—": 833,
      "―": 834,
      "‘": 835,
      "’": 836,
      "‚": 837,
      "“": 838,
      "”": 839,
      "„": 840,
      "‟": 841,
      "†": 842,
      "‡": 843,
      "•": 844,
      "․": 845,
      "…": 846,
      "‧": 847,
      "‭": 848,
      "‰": 849,
      "′": 850,
      "″": 851,
      "‵": 852,
      "‹": 853,
      "※": 854,
      "⁄": 855,
      "⁈": 856,
      "⁠": 857,
      "⁪": 858,
      "₂": 859,
      "₣": 860,
      "₤": 861,
      "₫": 862,
      "€": 863,
      "℃": 864,
      "℉": 865,
      "ℒ": 866,
      "№": 867,
      "™": 868,
      "ℬ": 869,
      "ℱ": 870,
      "⅔": 871,
      "Ⅰ": 872,
      "Ⅱ": 873,
      "Ⅲ": 874,
      "Ⅳ": 875,
      "Ⅴ": 876,
      "Ⅹ": 877,
      "ⅳ": 878,
      "←": 879,
      "↑": 880,
      "→": 881,
      "↓": 882,
      "↖": 883,
      "∀": 884,
      "∑": 885,
      "−": 886,
      "∕": 887,
      "∗": 888,
      "∘": 889,
      "∙": 890,
      "∞": 891,
      "∣": 892,
      "∨": 893,
      "∮": 894,
      "∵": 895,
      "∶": 896,
      "∼": 897,
      "≒": 898,
      "≤": 899,
      "≥": 900,
      "≦": 901,
      "≧": 902,
      "≪": 903,
      "≫": 904,
      "⊲": 905,
      "⊳": 906,
      "⊿": 907,
      "⋅": 908,
      "⋯": 909,
      "⋹": 910,
      "⌊": 911,
      "⌋": 912,
      "⌒": 913,
      "⎄": 914,
      "⎊": 915,
      "␩": 916,
      "①": 917,
      "②": 918,
      "③": 919,
      "④": 920,
      "⑩": 921,
      "⑴": 922,
      "⑵": 923,
      "⑶": 924,
      "⑷": 925,
      "⑸": 926,
      "⑹": 927,
      "⑺": 928,
      "⑻": 929,
      "⑼": 930,
      "⑽": 931,
      "⑾": 932,
      "⑿": 933,
      "⒀": 934,
      "⒁": 935,
      "⒂": 936,
      "⒃": 937,
      "⒄": 938,
      "⒅": 939,
      "⒆": 940,
      "⒇": 941,
      "─": 942,
      "━": 943,
      "│": 944,
      "┄": 945,
      "┅": 946,
      "┆": 947,
      "┈": 948,
      "┋": 949,
      "┍": 950,
      "┎": 951,
      "┏": 952,
      "┑": 953,
      "┕": 954,
      "┗": 955,
      "┘": 956,
      "┚": 957,
      "├": 958,
      "┠": 959,
      "┣": 960,
      "┤": 961,
      "┥": 962,
      "┦": 963,
      "┪": 964,
      "┬": 965,
      "┮": 966,
      "┯": 967,
      "┰": 968,
      "┱": 969,
      "┵": 970,
      "┶": 971,
      "┷": 972,
      "┸": 973,
      "┻": 974,
      "┾": 975,
      "┿": 976,
      "╀": 977,
      "╃": 978,
      "╆": 979,
      "╈": 980,
      "╊": 981,
      "║": 982,
      "╖": 983,
      "╝": 984,
      "╟": 985,
      "╡": 986,
      "╢": 987,
      "╣": 988,
      "╧": 989,
      "╪": 990,
      "╬": 991,
      "╭": 992,
      "╮": 993,
      "╯": 994,
      "╰": 995,
      "╱": 996,
      "╲": 997,
      "▄": 998,
      "▅": 999,
      "▆": 1000,
      "■": 1001,
      "□": 1002,
      "▪": 1003,
      "△": 1004,
      "►": 1005,
      "▼": 1006,
      "▽": 1007,
      "◆": 1008,
      "◇": 1009,
      "◊": 1010,
      "○": 1011,
      "◎": 1012,
      "●": 1013,
      "◦": 1014,
      "◯": 1015,
      "☃": 1016,
      "★": 1017,
      "☆": 1018,
      "☎": 1019,
      "☺": 1020,
      "☻": 1021,
      "♀": 1022,
      "♂": 1023,
      "♡": 1024,
      "♥": 1025,
      "♦": 1026,
      "♪": 1027,
      "♫": 1028,
      "♬": 1029,
      "♭": 1030,
      "♯": 1031,
      "❑": 1032,
      "❤": 1033,
      "➡": 1034,
      "➢": 1035,
      "⣬": 1036,
      "ⰲ": 1037,
      "⼯": 1038,
      "、": 1039,
      "。": 1040,
      "〃": 1041,
      "々": 1042,
      "〆": 1043,
      "〇": 1044,
      "〈": 1045,
      "〉": 1046,
      "《": 1047,
      "》": 1048,
      "「": 1049,
      "」": 1050,
      "『": 1051,
      "』": 1052,
      "【": 1053,
      "】": 1054,
      "〒": 1055,
      "〓": 1056,
      "〔": 1057,
      "〕": 1058,
      "〖": 1059,
      "〗": 1060,
      "〜": 1061,
      "〝": 1062,
      "〞": 1063,
      "〟": 1064,
      "〡": 1065,
      "〣": 1066,
      "〻": 1067,
      "ぁ": 1068,
      "あ": 1069,
      "ぃ": 1070,
      "い": 1071,
      "ぅ": 1072,
      "う": 1073,
      "ぇ": 1074,
      "え": 1075,
      "ぉ": 1076,
      "お": 1077,
      "か": 1078,
      "が": 1079,
      "き": 1080,
      "ぎ": 1081,
      "く": 1082,
      "ぐ": 1083,
      "け": 1084,
      "げ": 1085,
      "こ": 1086,
      "ご": 1087,
      "さ": 1088,
      "ざ": 1089,
      "し": 1090,
      "じ": 1091,
      "す": 1092,
      "ず": 1093,
      "せ": 1094,
      "ぜ": 1095,
      "そ": 1096,
      "ぞ": 1097,
      "た": 1098,
      "だ": 1099,
      "ち": 1100,
      "ぢ": 1101,
      "っ": 1102,
      "つ": 1103,
      "づ": 1104,
      "て": 1105,
      "で": 1106,
      "と": 1107,
      "ど": 1108,
      "な": 1109,
      "に": 1110,
      "ぬ": 1111,
      "ね": 1112,
      "の": 1113,
      "は": 1114,
      "ば": 1115,
      "ぱ": 1116,
      "ひ": 1117,
      "び": 1118,
      "ぴ": 1119,
      "ふ": 1120,
      "ぶ": 1121,
      "ぷ": 1122,
      "へ": 1123,
      "べ": 1124,
      "ぺ": 1125,
      "ほ": 1126,
      "ぼ": 1127,
      "ぽ": 1128,
      "ま": 1129,
      "み": 1130,
      "む": 1131,
      "め": 1132,
      "も": 1133,
      "ゃ": 1134,
      "や": 1135,
      "ゅ": 1136,
      "ゆ": 1137,
      "ょ": 1138,
      "よ": 1139,
      "ら": 1140,
      "り": 1141,
      "る": 1142,
      "れ": 1143,
      "ろ": 1144,
      "ゎ": 1145,
      "わ": 1146,
      "ゐ": 1147,
      "ゑ": 1148,
      "を": 1149,
      "ん": 1150,
      "゚": 1151,
      "゛": 1152,
      "゜": 1153,
      "ゝ": 1154,
      "ゞ": 1155,
      "ァ": 1156,
      "ア": 1157,
      "ィ": 1158,
      "イ": 1159,
      "ゥ": 1160,
      "ウ": 1161,
      "ェ": 1162,
      "エ": 1163,
      "ォ": 1164,
      "オ": 1165,
      "カ": 1166,
      "ガ": 1167,
      "キ": 1168,
      "ギ": 1169,
      "ク": 1170,
      "グ": 1171,
      "ケ": 1172,
      "ゲ": 1173,
      "コ": 1174,
      "ゴ": 1175,
      "サ": 1176,
      "ザ": 1177,
      "シ": 1178,
      "ジ": 1179,
      "ス": 1180,
      "ズ": 1181,
      "セ": 1182,
      "ゼ": 1183,
      "ソ": 1184,
      "ゾ": 1185,
      "タ": 1186,
      "ダ": 1187,
      "チ": 1188,
      "ヂ": 1189,
      "ッ": 1190,
      "ツ": 1191,
      "ヅ": 1192,
      "テ": 1193,
      "デ": 1194,
      "ト": 1195,
      "ド": 1196,
      "ナ": 1197,
      "ニ": 1198,
      "ヌ": 1199,
      "ネ": 1200,
      "ノ": 1201,
      "ハ": 1202,
      "バ": 1203,
      "パ": 1204,
      "ヒ": 1205,
      "ビ": 1206,
      "ピ": 1207,
      "フ": 1208,
      "ブ": 1209,
      "プ": 1210,
      "ヘ": 1211,
      "ベ": 1212,
      "ペ": 1213,
      "ホ": 1214,
      "ボ": 1215,
      "ポ": 1216,
      "マ": 1217,
      "ミ": 1218,
      "ム": 1219,
      "メ": 1220,
      "モ": 1221,
      "ャ": 1222,
      "ヤ": 1223,
      "ュ": 1224,
      "ユ": 1225,
      "ョ": 1226,
      "ヨ": 1227,
      "ラ": 1228,
      "リ": 1229,
      "ル": 1230,
      "レ": 1231,
      "ロ": 1232,
      "ヮ": 1233,
      "ワ": 1234,
      "ヰ": 1235,
      "ヱ": 1236,
      "ヲ": 1237,
      "ン": 1238,
      "ヴ": 1239,
      "ヵ": 1240,
      "ヶ": 1241,
      "・": 1242,
      "ー": 1243,
      "ヾ": 1244,
      "ㄅ": 1245,
      "ㄆ": 1246,
      "ㄇ": 1247,
      "ㄈ": 1248,
      "ㄉ": 1249,
      "ㄊ": 1250,
      "ㄌ": 1251,
      "ㄎ": 1252,
      "ㄏ": 1253,
      "ㄐ": 1254,
      "ㄑ": 1255,
      "ㄒ": 1256,
      "ㄓ": 1257,
      "ㄗ": 1258,
      "ㄘ": 1259,
      "ㄚ": 1260,
      "ㄛ": 1261,
      "ㄞ": 1262,
      "ㄟ": 1263,
      "ㄠ": 1264,
      "ㄢ": 1265,
      "ㄣ": 1266,
      "ㄤ": 1267,
      "ㄥ": 1268,
      "ㄧ": 1269,
      "ㄨ": 1270,
      "ㄩ": 1271,
      "㈠": 1272,
      "㈡": 1273,
      "㈢": 1274,
      "㈣": 1275,
      "㈤": 1276,
      "㈥": 1277,
      "㈦": 1278,
      "㈧": 1279,
      "㈨": 1280,
      "㈩": 1281,
      "㈱": 1282,
      "㊣": 1283,
      "㊽": 1284,
      "㌘": 1285,
      "㌢": 1286,
      "㌦": 1287,
      "㍉": 1288,
      "㎎": 1289,
      "㎏": 1290,
      "㎝": 1291,
      "㎞": 1292,
      "㎡": 1293,
      "㏄": 1294,
      "㏑": 1295,
      "㐍": 1296,
      "㗎": 1297,
      "㧐": 1298,
      "㮥": 1299,
      "㱮": 1300,
      "㷻": 1301,
      "䁿": 1302,
      "䊽": 1303,
      "䋼": 1304,
      "一": 1305,
      "丁": 1306,
      "七": 1307,
      "万": 1308,
      "丈": 1309,
      "三": 1310,
      "上": 1311,
      "下": 1312,
      "不": 1313,
      "与": 1314,
      "丐": 1315,
      "丑": 1316,
      "专": 1317,
      "且": 1318,
      "世": 1319,
      "丘": 1320,
      "丙": 1321,
      "业": 1322,
      "丛": 1323,
      "东": 1324,
      "丝": 1325,
      "丞": 1326,
      "丟": 1327,
      "両": 1328,
      "丢": 1329,
      "两": 1330,
      "严": 1331,
      "並": 1332,
      "丧": 1333,
      "个": 1334,
      "丫": 1335,
      "中": 1336,
      "丰": 1337,
      "串": 1338,
      "临": 1339,
      "丶": 1340,
      "丸": 1341,
      "丹": 1342,
      "为": 1343,
      "主": 1344,
      "丼": 1345,
      "丽": 1346,
      "举": 1347,
      "丿": 1348,
      "乂": 1349,
      "乃": 1350,
      "久": 1351,
      "么": 1352,
      "义": 1353,
      "之": 1354,
      "乌": 1355,
      "乍": 1356,
      "乎": 1357,
      "乏": 1358,
      "乐": 1359,
      "乒": 1360,
      "乓": 1361,
      "乔": 1362,
      "乖": 1363,
      "乗": 1364,
      "乘": 1365,
      "乙": 1366,
      "乜": 1367,
      "九": 1368,
      "乞": 1369,
      "也": 1370,
      "习": 1371,
      "乡": 1372,
      "书": 1373,
      "买": 1374,
      "乱": 1375,
      "乳": 1376,
      "乾": 1377,
      "亀": 1378,
      "亂": 1379,
      "了": 1380,
      "予": 1381,
      "争": 1382,
      "事": 1383,
      "二": 1384,
      "于": 1385,
      "亏": 1386,
      "云": 1387,
      "互": 1388,
      "五": 1389,
      "井": 1390,
      "亘": 1391,
      "亙": 1392,
      "亚": 1393,
      "些": 1394,
      "亜": 1395,
      "亞": 1396,
      "亟": 1397,
      "亡": 1398,
      "亢": 1399,
      "交": 1400,
      "亥": 1401,
      "亦": 1402,
      "产": 1403,
      "亨": 1404,
      "亩": 1405,
      "享": 1406,
      "京": 1407,
      "亭": 1408,
      "亮": 1409,
      "亲": 1410,
      "亵": 1411,
      "人": 1412,
      "亿": 1413,
      "什": 1414,
      "仁": 1415,
      "仃": 1416,
      "仄": 1417,
      "仅": 1418,
      "仆": 1419,
      "仇": 1420,
      "今": 1421,
      "介": 1422,
      "仍": 1423,
      "从": 1424,
      "仏": 1425,
      "仑": 1426,
      "仓": 1427,
      "仔": 1428,
      "仕": 1429,
      "他": 1430,
      "仗": 1431,
      "付": 1432,
      "仙": 1433,
      "仞": 1434,
      "仟": 1435,
      "代": 1436,
      "令": 1437,
      "以": 1438,
      "仨": 1439,
      "仪": 1440,
      "们": 1441,
      "仮": 1442,
      "仰": 1443,
      "仲": 1444,
      "件": 1445,
      "价": 1446,
      "任": 1447,
      "份": 1448,
      "仿": 1449,
      "企": 1450,
      "伉": 1451,
      "伊": 1452,
      "伍": 1453,
      "伎": 1454,
      "伏": 1455,
      "伐": 1456,
      "休": 1457,
      "伔": 1458,
      "众": 1459,
      "优": 1460,
      "伙": 1461,
      "会": 1462,
      "伝": 1463,
      "伞": 1464,
      "伟": 1465,
      "传": 1466,
      "伢": 1467,
      "伤": 1468,
      "伦": 1469,
      "伪": 1470,
      "伫": 1471,
      "伯": 1472,
      "估": 1473,
      "伲": 1474,
      "伴": 1475,
      "伶": 1476,
      "伸": 1477,
      "伺": 1478,
      "似": 1479,
      "伽": 1480,
      "佃": 1481,
      "但": 1482,
      "佇": 1483,
      "佈": 1484,
      "位": 1485,
      "低": 1486,
      "住": 1487,
      "佐": 1488,
      "佑": 1489,
      "体": 1490,
      "佔": 1491,
      "何": 1492,
      "佗": 1493,
      "佘": 1494,
      "余": 1495,
      "佚": 1496,
      "佛": 1497,
      "作": 1498,
      "佝": 1499,
      "佞": 1500,
      "你": 1501,
      "佢": 1502,
      "佣": 1503,
      "佤": 1504,
      "佩": 1505,
      "佪": 1506,
      "佬": 1507,
      "佯": 1508,
      "佰": 1509,
      "佳": 1510,
      "佴": 1511,
      "併": 1512,
      "佷": 1513,
      "佻": 1514,
      "佼": 1515,
      "佽": 1516,
      "使": 1517,
      "侂": 1518,
      "侃": 1519,
      "侄": 1520,
      "來": 1521,
      "侇": 1522,
      "侈": 1523,
      "例": 1524,
      "侍": 1525,
      "侏": 1526,
      "侑": 1527,
      "侖": 1528,
      "侗": 1529,
      "侘": 1530,
      "侚": 1531,
      "供": 1532,
      "侜": 1533,
      "依": 1534,
      "侠": 1535,
      "価": 1536,
      "侣": 1537,
      "侥": 1538,
      "侦": 1539,
      "侧": 1540,
      "侨": 1541,
      "侩": 1542,
      "侪": 1543,
      "侬": 1544,
      "侭": 1545,
      "侮": 1546,
      "侯": 1547,
      "侳": 1548,
      "侵": 1549,
      "侶": 1550,
      "便": 1551,
      "俀": 1552,
      "係": 1553,
      "促": 1554,
      "俄": 1555,
      "俅": 1556,
      "俇": 1557,
      "俊": 1558,
      "俋": 1559,
      "俎": 1560,
      "俏": 1561,
      "俐": 1562,
      "俑": 1563,
      "俗": 1564,
      "俘": 1565,
      "俙": 1566,
      "俚": 1567,
      "保": 1568,
      "俞": 1569,
      "俟": 1570,
      "俠": 1571,
      "信": 1572,
      "俣": 1573,
      "俨": 1574,
      "俩": 1575,
      "俪": 1576,
      "俬": 1577,
      "俭": 1578,
      "修": 1579,
      "俯": 1580,
      "俱": 1581,
      "俳": 1582,
      "俴": 1583,
      "俵": 1584,
      "俸": 1585,
      "俺": 1586,
      "俾": 1587,
      "倆": 1588,
      "倉": 1589,
      "個": 1590,
      "倌": 1591,
      "倍": 1592,
      "倏": 1593,
      "們": 1594,
      "倒": 1595,
      "倓": 1596,
      "倔": 1597,
      "倖": 1598,
      "倘": 1599,
      "候": 1600,
      "倚": 1601,
      "倜": 1602,
      "借": 1603,
      "倡": 1604,
      "倣": 1605,
      "値": 1606,
      "倦": 1607,
      "倨": 1608,
      "倩": 1609,
      "倪": 1610,
      "倫": 1611,
      "倭": 1612,
      "倮": 1613,
      "倰": 1614,
      "倳": 1615,
      "倶": 1616,
      "倹": 1617,
      "债": 1618,
      "值": 1619,
      "倾": 1620,
      "偃": 1621,
      "假": 1622,
      "偈": 1623,
      "偉": 1624,
      "偌": 1625,
      "偎": 1626,
      "偏": 1627,
      "偕": 1628,
      "做": 1629,
      "停": 1630,
      "健": 1631,
      "偲": 1632,
      "側": 1633,
      "偵": 1634,
      "偶": 1635,
      "偷": 1636,
      "偻": 1637,
      "偽": 1638,
      "偿": 1639,
      "傀": 1640,
      "傅": 1641,
      "傍": 1642,
      "傑": 1643,
      "傖": 1644,
      "傘": 1645,
      "備": 1646,
      "傢": 1647,
      "傣": 1648,
      "傥": 1649,
      "傧": 1650,
      "储": 1651,
      "催": 1652,
      "傭": 1653,
      "傲": 1654,
      "傳": 1655,
      "債": 1656,
      "傷": 1657,
      "傻": 1658,
      "傾": 1659,
      "僅": 1660,
      "僊": 1661,
      "働": 1662,
      "像": 1663,
      "僑": 1664,
      "僕": 1665,
      "僚": 1666,
      "僞": 1667,
      "僧": 1668,
      "僭": 1669,
      "僮": 1670,
      "僱": 1671,
      "僳": 1672,
      "僵": 1673,
      "價": 1674,
      "僻": 1675,
      "儀": 1676,
      "儂": 1677,
      "億": 1678,
      "儆": 1679,
      "儈": 1680,
      "儉": 1681,
      "儒": 1682,
      "儘": 1683,
      "儚": 1684,
      "償": 1685,
      "儡": 1686,
      "優": 1687,
      "儲": 1688,
      "儸": 1689,
      "儿": 1690,
      "兀": 1691,
      "允": 1692,
      "元": 1693,
      "兄": 1694,
      "充": 1695,
      "兆": 1696,
      "兇": 1697,
      "先": 1698,
      "光": 1699,
      "克": 1700,
      "兌": 1701,
      "免": 1702,
      "兎": 1703,
      "児": 1704,
      "兑": 1705,
      "兒": 1706,
      "兔": 1707,
      "党": 1708,
      "兜": 1709,
      "兢": 1710,
      "入": 1711,
      "內": 1712,
      "全": 1713,
      "兩": 1714,
      "八": 1715,
      "公": 1716,
      "六": 1717,
      "兮": 1718,
      "兰": 1719,
      "共": 1720,
      "关": 1721,
      "兴": 1722,
      "兵": 1723,
      "其": 1724,
      "具": 1725,
      "典": 1726,
      "兹": 1727,
      "养": 1728,
      "兼": 1729,
      "兽": 1730,
      "冀": 1731,
      "内": 1732,
      "円": 1733,
      "冇": 1734,
      "冈": 1735,
      "冉": 1736,
      "冊": 1737,
      "册": 1738,
      "再": 1739,
      "冏": 1740,
      "冑": 1741,
      "冒": 1742,
      "冕": 1743,
      "冗": 1744,
      "写": 1745,
      "冚": 1746,
      "军": 1747,
      "农": 1748,
      "冠": 1749,
      "冢": 1750,
      "冤": 1751,
      "冥": 1752,
      "冨": 1753,
      "冪": 1754,
      "冬": 1755,
      "冯": 1756,
      "冰": 1757,
      "冱": 1758,
      "冲": 1759,
      "决": 1760,
      "冴": 1761,
      "况": 1762,
      "冶": 1763,
      "冷": 1764,
      "冻": 1765,
      "净": 1766,
      "凄": 1767,
      "凅": 1768,
      "准": 1769,
      "凉": 1770,
      "凋": 1771,
      "凌": 1772,
      "凍": 1773,
      "减": 1774,
      "凑": 1775,
      "凛": 1776,
      "凜": 1777,
      "凝": 1778,
      "几": 1779,
      "凡": 1780,
      "凤": 1781,
      "処": 1782,
      "凧": 1783,
      "凪": 1784,
      "凫": 1785,
      "凭": 1786,
      "凯": 1787,
      "凰": 1788,
      "凱": 1789,
      "凳": 1790,
      "凵": 1791,
      "凶": 1792,
      "凸": 1793,
      "凹": 1794,
      "出": 1795,
      "击": 1796,
      "函": 1797,
      "凿": 1798,
      "刀": 1799,
      "刁": 1800,
      "刃": 1801,
      "分": 1802,
      "切": 1803,
      "刈": 1804,
      "刉": 1805,
      "刊": 1806,
      "刍": 1807,
      "刎": 1808,
      "刑": 1809,
      "划": 1810,
      "刓": 1811,
      "列": 1812,
      "刘": 1813,
      "则": 1814,
      "刚": 1815,
      "创": 1816,
      "初": 1817,
      "删": 1818,
      "判": 1819,
      "別": 1820,
      "刨": 1821,
      "利": 1822,
      "刪": 1823,
      "别": 1824,
      "刮": 1825,
      "到": 1826,
      "制": 1827,
      "刷": 1828,
      "券": 1829,
      "刹": 1830,
      "刺": 1831,
      "刻": 1832,
      "刽": 1833,
      "剀": 1834,
      "剁": 1835,
      "剂": 1836,
      "剃": 1837,
      "則": 1838,
      "剉": 1839,
      "削": 1840,
      "剋": 1841,
      "剌": 1842,
      "前": 1843,
      "剎": 1844,
      "剐": 1845,
      "剑": 1846,
      "剒": 1847,
      "剔": 1848,
      "剕": 1849,
      "剖": 1850,
      "剛": 1851,
      "剝": 1852,
      "剞": 1853,
      "剣": 1854,
      "剤": 1855,
      "剥": 1856,
      "剧": 1857,
      "剩": 1858,
      "剪": 1859,
      "剮": 1860,
      "副": 1861,
      "剰": 1862,
      "割": 1863,
      "創": 1864,
      "剷": 1865,
      "剽": 1866,
      "剿": 1867,
      "劃": 1868,
      "劇": 1869,
      "劈": 1870,
      "劉": 1871,
      "劊": 1872,
      "劍": 1873,
      "劑": 1874,
      "劓": 1875,
      "力": 1876,
      "劝": 1877,
      "办": 1878,
      "功": 1879,
      "加": 1880,
      "务": 1881,
      "劣": 1882,
      "劦": 1883,
      "动": 1884,
      "助": 1885,
      "努": 1886,
      "劫": 1887,
      "励": 1888,
      "劲": 1889,
      "劳": 1890,
      "労": 1891,
      "劵": 1892,
      "効": 1893,
      "劾": 1894,
      "势": 1895,
      "勀": 1896,
      "勁": 1897,
      "勃": 1898,
      "勅": 1899,
      "勇": 1900,
      "勉": 1901,
      "勋": 1902,
      "勍": 1903,
      "勐": 1904,
      "勒": 1905,
      "動": 1906,
      "勘": 1907,
      "務": 1908,
      "勛": 1909,
      "勝": 1910,
      "勞": 1911,
      "募": 1912,
      "勢": 1913,
      "勤": 1914,
      "勦": 1915,
      "勧": 1916,
      "勲": 1917,
      "勳": 1918,
      "勵": 1919,
      "勸": 1920,
      "勺": 1921,
      "勻": 1922,
      "勾": 1923,
      "勿": 1924,
      "匀": 1925,
      "匂": 1926,
      "包": 1927,
      "匆": 1928,
      "匈": 1929,
      "匍": 1930,
      "匐": 1931,
      "匕": 1932,
      "化": 1933,
      "北": 1934,
      "匙": 1935,
      "匝": 1936,
      "匠": 1937,
      "匡": 1938,
      "匣": 1939,
      "匪": 1940,
      "匮": 1941,
      "匯": 1942,
      "匹": 1943,
      "区": 1944,
      "医": 1945,
      "匾": 1946,
      "匿": 1947,
      "區": 1948,
      "十": 1949,
      "千": 1950,
      "卅": 1951,
      "升": 1952,
      "午": 1953,
      "卉": 1954,
      "半": 1955,
      "卍": 1956,
      "华": 1957,
      "协": 1958,
      "卑": 1959,
      "卒": 1960,
      "卓": 1961,
      "協": 1962,
      "单": 1963,
      "卖": 1964,
      "南": 1965,
      "単": 1966,
      "博": 1967,
      "卜": 1968,
      "卞": 1969,
      "占": 1970,
      "卡": 1971,
      "卢": 1972,
      "卤": 1973,
      "卦": 1974,
      "卧": 1975,
      "卫": 1976,
      "卯": 1977,
      "印": 1978,
      "危": 1979,
      "即": 1980,
      "却": 1981,
      "卵": 1982,
      "卷": 1983,
      "卸": 1984,
      "卻": 1985,
      "卿": 1986,
      "厂": 1987,
      "厄": 1988,
      "厅": 1989,
      "历": 1990,
      "厉": 1991,
      "压": 1992,
      "厌": 1993,
      "厕": 1994,
      "厘": 1995,
      "厚": 1996,
      "厝": 1997,
      "原": 1998,
      "厢": 1999,
      "厥": 2000,
      "厦": 2001,
      "厨": 2002,
      "厩": 2003,
      "厭": 2004,
      "厮": 2005,
      "厲": 2006,
      "厳": 2007,
      "去": 2008,
      "县": 2009,
      "叁": 2010,
      "参": 2011,
      "參": 2012,
      "又": 2013,
      "叉": 2014,
      "及": 2015,
      "友": 2016,
      "双": 2017,
      "反": 2018,
      "収": 2019,
      "发": 2020,
      "叔": 2021,
      "取": 2022,
      "受": 2023,
      "变": 2024,
      "叙": 2025,
      "叛": 2026,
      "叟": 2027,
      "叠": 2028,
      "叡": 2029,
      "叢": 2030,
      "口": 2031,
      "古": 2032,
      "句": 2033,
      "另": 2034,
      "叨": 2035,
      "叩": 2036,
      "只": 2037,
      "叫": 2038,
      "召": 2039,
      "叭": 2040,
      "叮": 2041,
      "可": 2042,
      "台": 2043,
      "叱": 2044,
      "史": 2045,
      "右": 2046,
      "叵": 2047,
      "叶": 2048,
      "号": 2049,
      "司": 2050,
      "叹": 2051,
      "叼": 2052,
      "叽": 2053,
      "吁": 2054,
      "吃": 2055,
      "各": 2056,
      "吆": 2057,
      "合": 2058,
      "吉": 2059,
      "吊": 2060,
      "吋": 2061,
      "同": 2062,
      "名": 2063,
      "后": 2064,
      "吏": 2065,
      "吐": 2066,
      "向": 2067,
      "吓": 2068,
      "吔": 2069,
      "吕": 2070,
      "吖": 2071,
      "吗": 2072,
      "君": 2073,
      "吝": 2074,
      "吞": 2075,
      "吟": 2076,
      "吠": 2077,
      "吡": 2078,
      "否": 2079,
      "吧": 2080,
      "吨": 2081,
      "吩": 2082,
      "含": 2083,
      "听": 2084,
      "吭": 2085,
      "吮": 2086,
      "启": 2087,
      "吱": 2088,
      "吳": 2089,
      "吴": 2090,
      "吵": 2091,
      "吶": 2092,
      "吸": 2093,
      "吹": 2094,
      "吻": 2095,
      "吼": 2096,
      "吽": 2097,
      "吾": 2098,
      "呀": 2099,
      "呂": 2100,
      "呃": 2101,
      "呆": 2102,
      "呈": 2103,
      "呉": 2104,
      "告": 2105,
      "呋": 2106,
      "呎": 2107,
      "呐": 2108,
      "呑": 2109,
      "呒": 2110,
      "呕": 2111,
      "呗": 2112,
      "员": 2113,
      "呛": 2114,
      "呜": 2115,
      "呟": 2116,
      "呡": 2117,
      "呢": 2118,
      "呣": 2119,
      "呤": 2120,
      "呦": 2121,
      "呧": 2122,
      "周": 2123,
      "呪": 2124,
      "呯": 2125,
      "呱": 2126,
      "味": 2127,
      "呵": 2128,
      "呶": 2129,
      "呸": 2130,
      "呻": 2131,
      "呼": 2132,
      "命": 2133,
      "呾": 2134,
      "咀": 2135,
      "咁": 2136,
      "咂": 2137,
      "咄": 2138,
      "咆": 2139,
      "咋": 2140,
      "和": 2141,
      "咍": 2142,
      "咎": 2143,
      "咏": 2144,
      "咐": 2145,
      "咒": 2146,
      "咔": 2147,
      "咕": 2148,
      "咖": 2149,
      "咗": 2150,
      "咙": 2151,
      "咚": 2152,
      "咡": 2153,
      "咤": 2154,
      "咥": 2155,
      "咦": 2156,
      "咧": 2157,
      "咨": 2158,
      "咩": 2159,
      "咪": 2160,
      "咫": 2161,
      "咬": 2162,
      "咭": 2163,
      "咯": 2164,
      "咱": 2165,
      "咲": 2166,
      "咳": 2167,
      "咸": 2168,
      "咻": 2169,
      "咽": 2170,
      "咿": 2171,
      "哀": 2172,
      "品": 2173,
      "哂": 2174,
      "哄": 2175,
      "哆": 2176,
      "哇": 2177,
      "哈": 2178,
      "哉": 2179,
      "哋": 2180,
      "哌": 2181,
      "响": 2182,
      "哎": 2183,
      "哑": 2184,
      "哒": 2185,
      "哔": 2186,
      "哗": 2187,
      "哝": 2188,
      "哞": 2189,
      "哟": 2190,
      "員": 2191,
      "哥": 2192,
      "哦": 2193,
      "哧": 2194,
      "哨": 2195,
      "哩": 2196,
      "哪": 2197,
      "哭": 2198,
      "哮": 2199,
      "哲": 2200,
      "哺": 2201,
      "哼": 2202,
      "哽": 2203,
      "唁": 2204,
      "唄": 2205,
      "唆": 2206,
      "唇": 2207,
      "唉": 2208,
      "唏": 2209,
      "唐": 2210,
      "唑": 2211,
      "唔": 2212,
      "唖": 2213,
      "唗": 2214,
      "唛": 2215,
      "唠": 2216,
      "唤": 2217,
      "唧": 2218,
      "唬": 2219,
      "售": 2220,
      "唯": 2221,
      "唰": 2222,
      "唱": 2223,
      "唳": 2224,
      "唵": 2225,
      "唷": 2226,
      "唸": 2227,
      "唻": 2228,
      "唾": 2229,
      "啁": 2230,
      "啃": 2231,
      "啄": 2232,
      "商": 2233,
      "啊": 2234,
      "啋": 2235,
      "問": 2236,
      "啓": 2237,
      "啕": 2238,
      "啖": 2239,
      "啜": 2240,
      "啞": 2241,
      "啟": 2242,
      "啡": 2243,
      "啣": 2244,
      "啤": 2245,
      "啥": 2246,
      "啦": 2247,
      "啧": 2248,
      "啪": 2249,
      "啫": 2250,
      "啬": 2251,
      "啮": 2252,
      "啰": 2253,
      "啱": 2254,
      "啲": 2255,
      "啵": 2256,
      "啶": 2257,
      "啸": 2258,
      "啻": 2259,
      "啼": 2260,
      "啾": 2261,
      "喀": 2262,
      "喂": 2263,
      "喃": 2264,
      "善": 2265,
      "喇": 2266,
      "喉": 2267,
      "喊": 2268,
      "喋": 2269,
      "喎": 2270,
      "喏": 2271,
      "喑": 2272,
      "喔": 2273,
      "喘": 2274,
      "喙": 2275,
      "喚": 2276,
      "喜": 2277,
      "喝": 2278,
      "喧": 2279,
      "喨": 2280,
      "喩": 2281,
      "喪": 2282,
      "喫": 2283,
      "喬": 2284,
      "單": 2285,
      "喰": 2286,
      "喱": 2287,
      "喲": 2288,
      "喳": 2289,
      "喵": 2290,
      "営": 2291,
      "喷": 2292,
      "喹": 2293,
      "喺": 2294,
      "喻": 2295,
      "喽": 2296,
      "嗅": 2297,
      "嗆": 2298,
      "嗇": 2299,
      "嗌": 2300,
      "嗎": 2301,
      "嗐": 2302,
      "嗑": 2303,
      "嗒": 2304,
      "嗓": 2305,
      "嗖": 2306,
      "嗚": 2307,
      "嗜": 2308,
      "嗝": 2309,
      "嗟": 2310,
      "嗡": 2311,
      "嗣": 2312,
      "嗤": 2313,
      "嗥": 2314,
      "嗦": 2315,
      "嗨": 2316,
      "嗪": 2317,
      "嗬": 2318,
      "嗯": 2319,
      "嗰": 2320,
      "嗱": 2321,
      "嗲": 2322,
      "嗳": 2323,
      "嗶": 2324,
      "嗷": 2325,
      "嗽": 2326,
      "嗾": 2327,
      "嘀": 2328,
      "嘅": 2329,
      "嘆": 2330,
      "嘈": 2331,
      "嘉": 2332,
      "嘍": 2333,
      "嘎": 2334,
      "嘔": 2335,
      "嘗": 2336,
      "嘘": 2337,
      "嘛": 2338,
      "嘞": 2339,
      "嘟": 2340,
      "嘠": 2341,
      "嘢": 2342,
      "嘣": 2343,
      "嘩": 2344,
      "嘭": 2345,
      "嘯": 2346,
      "嘱": 2347,
      "嘲": 2348,
      "嘴": 2349,
      "嘶": 2350,
      "嘹": 2351,
      "嘻": 2352,
      "嘿": 2353,
      "噁": 2354,
      "噂": 2355,
      "噌": 2356,
      "噎": 2357,
      "噓": 2358,
      "噔": 2359,
      "噗": 2360,
      "噙": 2361,
      "噛": 2362,
      "噜": 2363,
      "噠": 2364,
      "噢": 2365,
      "噤": 2366,
      "器": 2367,
      "噩": 2368,
      "噪": 2369,
      "噫": 2370,
      "噬": 2371,
      "噯": 2372,
      "噱": 2373,
      "噴": 2374,
      "噶": 2375,
      "噸": 2376,
      "噹": 2377,
      "噺": 2378,
      "噻": 2379,
      "噿": 2380,
      "嚀": 2381,
      "嚇": 2382,
      "嚎": 2383,
      "嚏": 2384,
      "嚐": 2385,
      "嚒": 2386,
      "嚓": 2387,
      "嚟": 2388,
      "嚢": 2389,
      "嚣": 2390,
      "嚥": 2391,
      "嚨": 2392,
      "嚮": 2393,
      "嚯": 2394,
      "嚴": 2395,
      "嚶": 2396,
      "嚷": 2397,
      "嚼": 2398,
      "囀": 2399,
      "囁": 2400,
      "囂": 2401,
      "囉": 2402,
      "囊": 2403,
      "囑": 2404,
      "囓": 2405,
      "囔": 2406,
      "囗": 2407,
      "囚": 2408,
      "四": 2409,
      "回": 2410,
      "因": 2411,
      "囡": 2412,
      "团": 2413,
      "団": 2414,
      "囤": 2415,
      "囧": 2416,
      "囪": 2417,
      "园": 2418,
      "囮": 2419,
      "困": 2420,
      "囱": 2421,
      "囲": 2422,
      "図": 2423,
      "围": 2424,
      "囹": 2425,
      "固": 2426,
      "国": 2427,
      "图": 2428,
      "囿": 2429,
      "圃": 2430,
      "圄": 2431,
      "圆": 2432,
      "圈": 2433,
      "國": 2434,
      "圍": 2435,
      "圏": 2436,
      "園": 2437,
      "圓": 2438,
      "圖": 2439,
      "團": 2440,
      "土": 2441,
      "圣": 2442,
      "圧": 2443,
      "在": 2444,
      "圭": 2445,
      "地": 2446,
      "圳": 2447,
      "圴": 2448,
      "场": 2449,
      "圾": 2450,
      "址": 2451,
      "坂": 2452,
      "均": 2453,
      "坊": 2454,
      "坍": 2455,
      "坎": 2456,
      "坏": 2457,
      "坐": 2458,
      "坑": 2459,
      "块": 2460,
      "坚": 2461,
      "坛": 2462,
      "坝": 2463,
      "坞": 2464,
      "坟": 2465,
      "坠": 2466,
      "坡": 2467,
      "坤": 2468,
      "坦": 2469,
      "坨": 2470,
      "坩": 2471,
      "坪": 2472,
      "坫": 2473,
      "坯": 2474,
      "坳": 2475,
      "坴": 2476,
      "坶": 2477,
      "坷": 2478,
      "坻": 2479,
      "垀": 2480,
      "垂": 2481,
      "垃": 2482,
      "垄": 2483,
      "型": 2484,
      "垒": 2485,
      "垛": 2486,
      "垠": 2487,
      "垢": 2488,
      "垣": 2489,
      "垦": 2490,
      "垩": 2491,
      "垫": 2492,
      "垭": 2493,
      "垮": 2494,
      "垸": 2495,
      "埃": 2496,
      "埋": 2497,
      "城": 2498,
      "埒": 2499,
      "埓": 2500,
      "埔": 2501,
      "埕": 2502,
      "埚": 2503,
      "埜": 2504,
      "域": 2505,
      "埠": 2506,
      "埣": 2507,
      "埭": 2508,
      "埮": 2509,
      "埲": 2510,
      "執": 2511,
      "埸": 2512,
      "培": 2513,
      "基": 2514,
      "埻": 2515,
      "埼": 2516,
      "堀": 2517,
      "堂": 2518,
      "堅": 2519,
      "堆": 2520,
      "堇": 2521,
      "堈": 2522,
      "堋": 2523,
      "堍": 2524,
      "堎": 2525,
      "堑": 2526,
      "堕": 2527,
      "堝": 2528,
      "堡": 2529,
      "堤": 2530,
      "堪": 2531,
      "堰": 2532,
      "報": 2533,
      "場": 2534,
      "堵": 2535,
      "塀": 2536,
      "塁": 2537,
      "塊": 2538,
      "塋": 2539,
      "塌": 2540,
      "塑": 2541,
      "塔": 2542,
      "塗": 2543,
      "塘": 2544,
      "塚": 2545,
      "塞": 2546,
      "塢": 2547,
      "塩": 2548,
      "填": 2549,
      "塵": 2550,
      "塹": 2551,
      "塾": 2552,
      "境": 2553,
      "墅": 2554,
      "墉": 2555,
      "墊": 2556,
      "墒": 2557,
      "墓": 2558,
      "増": 2559,
      "墙": 2560,
      "墜": 2561,
      "增": 2562,
      "墟": 2563,
      "墨": 2564,
      "墩": 2565,
      "墮": 2566,
      "墳": 2567,
      "墾": 2568,
      "壁": 2569,
      "壅": 2570,
      "壇": 2571,
      "壊": 2572,
      "壌": 2573,
      "壑": 2574,
      "壓": 2575,
      "壕": 2576,
      "壘": 2577,
      "壚": 2578,
      "壜": 2579,
      "壞": 2580,
      "壟": 2581,
      "壤": 2582,
      "壩": 2583,
      "士": 2584,
      "壮": 2585,
      "壯": 2586,
      "声": 2587,
      "売": 2588,
      "壳": 2589,
      "壶": 2590,
      "壷": 2591,
      "壹": 2592,
      "壺": 2593,
      "壽": 2594,
      "处": 2595,
      "备": 2596,
      "変": 2597,
      "复": 2598,
      "夏": 2599,
      "夔": 2600,
      "夕": 2601,
      "外": 2602,
      "夙": 2603,
      "多": 2604,
      "夜": 2605,
      "够": 2606,
      "夠": 2607,
      "夢": 2608,
      "夥": 2609,
      "大": 2610,
      "天": 2611,
      "太": 2612,
      "夫": 2613,
      "夭": 2614,
      "央": 2615,
      "夯": 2616,
      "失": 2617,
      "头": 2618,
      "夷": 2619,
      "夸": 2620,
      "夹": 2621,
      "夺": 2622,
      "夼": 2623,
      "夾": 2624,
      "奀": 2625,
      "奁": 2626,
      "奂": 2627,
      "奄": 2628,
      "奇": 2629,
      "奈": 2630,
      "奉": 2631,
      "奋": 2632,
      "奌": 2633,
      "奎": 2634,
      "奏": 2635,
      "契": 2636,
      "奔": 2637,
      "奕": 2638,
      "奖": 2639,
      "套": 2640,
      "奚": 2641,
      "奠": 2642,
      "奢": 2643,
      "奥": 2644,
      "奧": 2645,
      "奨": 2646,
      "奪": 2647,
      "奮": 2648,
      "女": 2649,
      "奴": 2650,
      "奶": 2651,
      "奸": 2652,
      "她": 2653,
      "奻": 2654,
      "好": 2655,
      "奾": 2656,
      "如": 2657,
      "妃": 2658,
      "妄": 2659,
      "妆": 2660,
      "妇": 2661,
      "妈": 2662,
      "妊": 2663,
      "妍": 2664,
      "妏": 2665,
      "妒": 2666,
      "妓": 2667,
      "妖": 2668,
      "妗": 2669,
      "妙": 2670,
      "妝": 2671,
      "妞": 2672,
      "妥": 2673,
      "妦": 2674,
      "妨": 2675,
      "妩": 2676,
      "妪": 2677,
      "妬": 2678,
      "妮": 2679,
      "妲": 2680,
      "妳": 2681,
      "妹": 2682,
      "妻": 2683,
      "妾": 2684,
      "姆": 2685,
      "姉": 2686,
      "姊": 2687,
      "始": 2688,
      "姍": 2689,
      "姐": 2690,
      "姑": 2691,
      "姓": 2692,
      "委": 2693,
      "姗": 2694,
      "姘": 2695,
      "姚": 2696,
      "姜": 2697,
      "姣": 2698,
      "姥": 2699,
      "姦": 2700,
      "姨": 2701,
      "姪": 2702,
      "姫": 2703,
      "姬": 2704,
      "姻": 2705,
      "姿": 2706,
      "威": 2707,
      "娃": 2708,
      "娄": 2709,
      "娅": 2710,
      "娆": 2711,
      "娇": 2712,
      "娈": 2713,
      "娑": 2714,
      "娒": 2715,
      "娘": 2716,
      "娛": 2717,
      "娜": 2718,
      "娟": 2719,
      "娠": 2720,
      "娣": 2721,
      "娥": 2722,
      "娩": 2723,
      "娯": 2724,
      "娱": 2725,
      "娴": 2726,
      "娶": 2727,
      "娼": 2728,
      "婁": 2729,
      "婄": 2730,
      "婆": 2731,
      "婉": 2732,
      "婊": 2733,
      "婌": 2734,
      "婓": 2735,
      "婕": 2736,
      "婚": 2737,
      "婢": 2738,
      "婦": 2739,
      "婪": 2740,
      "婬": 2741,
      "婭": 2742,
      "婴": 2743,
      "婵": 2744,
      "婶": 2745,
      "婷": 2746,
      "婼": 2747,
      "婿": 2748,
      "媎": 2749,
      "媒": 2750,
      "媚": 2751,
      "媛": 2752,
      "媞": 2753,
      "媲": 2754,
      "媳": 2755,
      "媼": 2756,
      "媽": 2757,
      "媾": 2758,
      "嫁": 2759,
      "嫂": 2760,
      "嫉": 2761,
      "嫌": 2762,
      "嫔": 2763,
      "嫖": 2764,
      "嫡": 2765,
      "嫣": 2766,
      "嫦": 2767,
      "嫩": 2768,
      "嬉": 2769,
      "嬌": 2770,
      "嬢": 2771,
      "嬤": 2772,
      "嬰": 2773,
      "嬲": 2774,
      "嬴": 2775,
      "嬷": 2776,
      "嬸": 2777,
      "孀": 2778,
      "孃": 2779,
      "子": 2780,
      "孑": 2781,
      "孔": 2782,
      "孕": 2783,
      "孖": 2784,
      "字": 2785,
      "存": 2786,
      "孙": 2787,
      "孚": 2788,
      "孜": 2789,
      "孝": 2790,
      "孟": 2791,
      "孢": 2792,
      "季": 2793,
      "孤": 2794,
      "学": 2795,
      "孩": 2796,
      "孪": 2797,
      "孫": 2798,
      "孬": 2799,
      "孮": 2800,
      "孰": 2801,
      "孱": 2802,
      "孳": 2803,
      "孵": 2804,
      "學": 2805,
      "孺": 2806,
      "孽": 2807,
      "孿": 2808,
      "宁": 2809,
      "它": 2810,
      "宅": 2811,
      "宇": 2812,
      "守": 2813,
      "安": 2814,
      "宋": 2815,
      "完": 2816,
      "宎": 2817,
      "宏": 2818,
      "宒": 2819,
      "宓": 2820,
      "宕": 2821,
      "宗": 2822,
      "官": 2823,
      "宙": 2824,
      "定": 2825,
      "宛": 2826,
      "宜": 2827,
      "宝": 2828,
      "实": 2829,
      "実": 2830,
      "宠": 2831,
      "审": 2832,
      "客": 2833,
      "宣": 2834,
      "室": 2835,
      "宥": 2836,
      "宦": 2837,
      "宪": 2838,
      "宫": 2839,
      "宮": 2840,
      "宰": 2841,
      "害": 2842,
      "宴": 2843,
      "宵": 2844,
      "家": 2845,
      "宸": 2846,
      "容": 2847,
      "宽": 2848,
      "宾": 2849,
      "宿": 2850,
      "寀": 2851,
      "寁": 2852,
      "寂": 2853,
      "寄": 2854,
      "寅": 2855,
      "密": 2856,
      "寇": 2857,
      "富": 2858,
      "寐": 2859,
      "寒": 2860,
      "寓": 2861,
      "寛": 2862,
      "寝": 2863,
      "寞": 2864,
      "察": 2865,
      "寡": 2866,
      "寢": 2867,
      "寤": 2868,
      "寥": 2869,
      "實": 2870,
      "寧": 2871,
      "寨": 2872,
      "審": 2873,
      "寫": 2874,
      "寬": 2875,
      "寮": 2876,
      "寰": 2877,
      "寵": 2878,
      "寶": 2879,
      "寸": 2880,
      "对": 2881,
      "寺": 2882,
      "寻": 2883,
      "导": 2884,
      "対": 2885,
      "寿": 2886,
      "封": 2887,
      "専": 2888,
      "射": 2889,
      "尅": 2890,
      "将": 2891,
      "將": 2892,
      "專": 2893,
      "尉": 2894,
      "尊": 2895,
      "尋": 2896,
      "對": 2897,
      "導": 2898,
      "小": 2899,
      "少": 2900,
      "尓": 2901,
      "尔": 2902,
      "尖": 2903,
      "尘": 2904,
      "尚": 2905,
      "尝": 2906,
      "尢": 2907,
      "尤": 2908,
      "尧": 2909,
      "尨": 2910,
      "尪": 2911,
      "尬": 2912,
      "就": 2913,
      "尴": 2914,
      "尷": 2915,
      "尸": 2916,
      "尹": 2917,
      "尺": 2918,
      "尻": 2919,
      "尼": 2920,
      "尽": 2921,
      "尾": 2922,
      "尿": 2923,
      "局": 2924,
      "屁": 2925,
      "层": 2926,
      "屄": 2927,
      "居": 2928,
      "屆": 2929,
      "屈": 2930,
      "屉": 2931,
      "届": 2932,
      "屋": 2933,
      "屌": 2934,
      "屍": 2935,
      "屎": 2936,
      "屏": 2937,
      "屐": 2938,
      "屑": 2939,
      "屓": 2940,
      "展": 2941,
      "屙": 2942,
      "屜": 2943,
      "属": 2944,
      "屠": 2945,
      "屡": 2946,
      "層": 2947,
      "履": 2948,
      "屬": 2949,
      "屯": 2950,
      "山": 2951,
      "屹": 2952,
      "屾": 2953,
      "屿": 2954,
      "岁": 2955,
      "岂": 2956,
      "岆": 2957,
      "岈": 2958,
      "岌": 2959,
      "岍": 2960,
      "岐": 2961,
      "岑": 2962,
      "岔": 2963,
      "岖": 2964,
      "岗": 2965,
      "岘": 2966,
      "岚": 2967,
      "岛": 2968,
      "岡": 2969,
      "岩": 2970,
      "岬": 2971,
      "岭": 2972,
      "岱": 2973,
      "岳": 2974,
      "岸": 2975,
      "岿": 2976,
      "峇": 2977,
      "峈": 2978,
      "峊": 2979,
      "峋": 2980,
      "峙": 2981,
      "峠": 2982,
      "峡": 2983,
      "峥": 2984,
      "峦": 2985,
      "峨": 2986,
      "峪": 2987,
      "峭": 2988,
      "峯": 2989,
      "峰": 2990,
      "島": 2991,
      "峻": 2992,
      "峽": 2993,
      "崂": 2994,
      "崇": 2995,
      "崋": 2996,
      "崎": 2997,
      "崑": 2998,
      "崔": 2999,
      "崖": 3000,
      "崗": 3001,
      "崛": 3002,
      "崩": 3003,
      "崭": 3004,
      "崴": 3005,
      "崽": 3006,
      "嵋": 3007,
      "嵌": 3008,
      "嵐": 3009,
      "嵘": 3010,
      "嵩": 3011,
      "嵴": 3012,
      "嶂": 3013,
      "嶄": 3014,
      "嶋": 3015,
      "嶙": 3016,
      "嶲": 3017,
      "嶺": 3018,
      "嶼": 3019,
      "巅": 3020,
      "巒": 3021,
      "巖": 3022,
      "川": 3023,
      "州": 3024,
      "巡": 3025,
      "巢": 3026,
      "巣": 3027,
      "工": 3028,
      "左": 3029,
      "巧": 3030,
      "巨": 3031,
      "巩": 3032,
      "巫": 3033,
      "差": 3034,
      "己": 3035,
      "已": 3036,
      "巳": 3037,
      "巴": 3038,
      "巷": 3039,
      "巻": 3040,
      "巾": 3041,
      "巿": 3042,
      "币": 3043,
      "市": 3044,
      "布": 3045,
      "帅": 3046,
      "帆": 3047,
      "师": 3048,
      "帊": 3049,
      "希": 3050,
      "帐": 3051,
      "帑": 3052,
      "帕": 3053,
      "帖": 3054,
      "帘": 3055,
      "帚": 3056,
      "帛": 3057,
      "帜": 3058,
      "帝": 3059,
      "帥": 3060,
      "带": 3061,
      "帧": 3062,
      "師": 3063,
      "席": 3064,
      "帮": 3065,
      "帯": 3066,
      "帰": 3067,
      "帳": 3068,
      "帶": 3069,
      "帷": 3070,
      "常": 3071,
      "帼": 3072,
      "帽": 3073,
      "幂": 3074,
      "幄": 3075,
      "幅": 3076,
      "幇": 3077,
      "幌": 3078,
      "幔": 3079,
      "幕": 3080,
      "幗": 3081,
      "幛": 3082,
      "幡": 3083,
      "幢": 3084,
      "幣": 3085,
      "幫": 3086,
      "干": 3087,
      "平": 3088,
      "年": 3089,
      "并": 3090,
      "幸": 3091,
      "幹": 3092,
      "幺": 3093,
      "幻": 3094,
      "幼": 3095,
      "幽": 3096,
      "幾": 3097,
      "广": 3098,
      "庁": 3099,
      "広": 3100,
      "庄": 3101,
      "庆": 3102,
      "庇": 3103,
      "庈": 3104,
      "床": 3105,
      "序": 3106,
      "庐": 3107,
      "库": 3108,
      "应": 3109,
      "底": 3110,
      "庖": 3111,
      "店": 3112,
      "庙": 3113,
      "庚": 3114,
      "府": 3115,
      "庞": 3116,
      "废": 3117,
      "度": 3118,
      "座": 3119,
      "庫": 3120,
      "庭": 3121,
      "庵": 3122,
      "庶": 3123,
      "康": 3124,
      "庸": 3125,
      "廁": 3126,
      "廂": 3127,
      "廃": 3128,
      "廄": 3129,
      "廈": 3130,
      "廉": 3131,
      "廊": 3132,
      "廓": 3133,
      "廖": 3134,
      "廚": 3135,
      "廝": 3136,
      "廟": 3137,
      "廠": 3138,
      "廢": 3139,
      "廣": 3140,
      "廳": 3141,
      "延": 3142,
      "廷": 3143,
      "廸": 3144,
      "建": 3145,
      "廻": 3146,
      "廿": 3147,
      "开": 3148,
      "弁": 3149,
      "异": 3150,
      "弃": 3151,
      "弄": 3152,
      "弅": 3153,
      "弇": 3154,
      "弈": 3155,
      "弊": 3156,
      "弋": 3157,
      "式": 3158,
      "弑": 3159,
      "弓": 3160,
      "弔": 3161,
      "引": 3162,
      "弗": 3163,
      "弘": 3164,
      "弛": 3165,
      "弝": 3166,
      "弟": 3167,
      "张": 3168,
      "弥": 3169,
      "弦": 3170,
      "弧": 3171,
      "弩": 3172,
      "弭": 3173,
      "弯": 3174,
      "弱": 3175,
      "張": 3176,
      "強": 3177,
      "弹": 3178,
      "强": 3179,
      "弼": 3180,
      "弾": 3181,
      "彆": 3182,
      "彈": 3183,
      "彊": 3184,
      "彌": 3185,
      "彎": 3186,
      "归": 3187,
      "当": 3188,
      "录": 3189,
      "彗": 3190,
      "彙": 3191,
      "彡": 3192,
      "形": 3193,
      "彤": 3194,
      "彥": 3195,
      "彦": 3196,
      "彩": 3197,
      "彪": 3198,
      "彫": 3199,
      "彬": 3200,
      "彭": 3201,
      "彰": 3202,
      "影": 3203,
      "彴": 3204,
      "彷": 3205,
      "彸": 3206,
      "役": 3207,
      "彻": 3208,
      "彼": 3209,
      "彿": 3210,
      "往": 3211,
      "征": 3212,
      "径": 3213,
      "待": 3214,
      "徇": 3215,
      "很": 3216,
      "徉": 3217,
      "徊": 3218,
      "律": 3219,
      "後": 3220,
      "徏": 3221,
      "徐": 3222,
      "徑": 3223,
      "徒": 3224,
      "従": 3225,
      "徕": 3226,
      "得": 3227,
      "徘": 3228,
      "徙": 3229,
      "徜": 3230,
      "從": 3231,
      "御": 3232,
      "徨": 3233,
      "復": 3234,
      "循": 3235,
      "徬": 3236,
      "微": 3237,
      "徳": 3238,
      "徴": 3239,
      "徵": 3240,
      "德": 3241,
      "徹": 3242,
      "徼": 3243,
      "徽": 3244,
      "心": 3245,
      "必": 3246,
      "忆": 3247,
      "忌": 3248,
      "忍": 3249,
      "忏": 3250,
      "忒": 3251,
      "忖": 3252,
      "志": 3253,
      "忘": 3254,
      "忙": 3255,
      "応": 3256,
      "忠": 3257,
      "忡": 3258,
      "忤": 3259,
      "忧": 3260,
      "忪": 3261,
      "快": 3262,
      "忭": 3263,
      "忱": 3264,
      "念": 3265,
      "忸": 3266,
      "忽": 3267,
      "忾": 3268,
      "忿": 3269,
      "怀": 3270,
      "态": 3271,
      "怂": 3272,
      "怅": 3273,
      "怆": 3274,
      "怍": 3275,
      "怎": 3276,
      "怏": 3277,
      "怒": 3278,
      "怓": 3279,
      "怕": 3280,
      "怖": 3281,
      "怙": 3282,
      "怜": 3283,
      "思": 3284,
      "怠": 3285,
      "怡": 3286,
      "急": 3287,
      "怦": 3288,
      "性": 3289,
      "怨": 3290,
      "怩": 3291,
      "怪": 3292,
      "怮": 3293,
      "怯": 3294,
      "总": 3295,
      "恀": 3296,
      "恁": 3297,
      "恃": 3298,
      "恅": 3299,
      "恆": 3300,
      "恋": 3301,
      "恍": 3302,
      "恐": 3303,
      "恒": 3304,
      "恕": 3305,
      "恙": 3306,
      "恛": 3307,
      "恢": 3308,
      "恣": 3309,
      "恤": 3310,
      "恥": 3311,
      "恨": 3312,
      "恩": 3313,
      "恪": 3314,
      "恫": 3315,
      "恬": 3316,
      "恭": 3317,
      "息": 3318,
      "恰": 3319,
      "恳": 3320,
      "恵": 3321,
      "恶": 3322,
      "恸": 3323,
      "恺": 3324,
      "恻": 3325,
      "恼": 3326,
      "恿": 3327,
      "悄": 3328,
      "悅": 3329,
      "悉": 3330,
      "悌": 3331,
      "悍": 3332,
      "悔": 3333,
      "悖": 3334,
      "悗": 3335,
      "悚": 3336,
      "悛": 3337,
      "悝": 3338,
      "悟": 3339,
      "悠": 3340,
      "患": 3341,
      "悦": 3342,
      "悧": 3343,
      "您": 3344,
      "悩": 3345,
      "悪": 3346,
      "悬": 3347,
      "悯": 3348,
      "悲": 3349,
      "悴": 3350,
      "悵": 3351,
      "悶": 3352,
      "悸": 3353,
      "悼": 3354,
      "悽": 3355,
      "情": 3356,
      "惆": 3357,
      "惇": 3358,
      "惊": 3359,
      "惋": 3360,
      "惑": 3361,
      "惕": 3362,
      "惘": 3363,
      "惚": 3364,
      "惛": 3365,
      "惜": 3366,
      "惟": 3367,
      "惠": 3368,
      "惡": 3369,
      "惦": 3370,
      "惧": 3371,
      "惨": 3372,
      "惩": 3373,
      "惫": 3374,
      "惬": 3375,
      "惭": 3376,
      "惮": 3377,
      "惯": 3378,
      "惰": 3379,
      "惱": 3380,
      "想": 3381,
      "惶": 3382,
      "惹": 3383,
      "惺": 3384,
      "愁": 3385,
      "愆": 3386,
      "愈": 3387,
      "愉": 3388,
      "愍": 3389,
      "愎": 3390,
      "意": 3391,
      "愕": 3392,
      "愚": 3393,
      "愛": 3394,
      "感": 3395,
      "愣": 3396,
      "愤": 3397,
      "愦": 3398,
      "愧": 3399,
      "愼": 3400,
      "愿": 3401,
      "慄": 3402,
      "慇": 3403,
      "慈": 3404,
      "態": 3405,
      "慌": 3406,
      "慎": 3407,
      "慑": 3408,
      "慕": 3409,
      "慘": 3410,
      "慟": 3411,
      "慢": 3412,
      "慣": 3413,
      "慧": 3414,
      "慨": 3415,
      "慫": 3416,
      "慮": 3417,
      "慰": 3418,
      "慶": 3419,
      "慷": 3420,
      "慹": 3421,
      "慾": 3422,
      "憂": 3423,
      "憊": 3424,
      "憋": 3425,
      "憎": 3426,
      "憐": 3427,
      "憑": 3428,
      "憒": 3429,
      "憔": 3430,
      "憚": 3431,
      "憤": 3432,
      "憧": 3433,
      "憨": 3434,
      "憩": 3435,
      "憫": 3436,
      "憬": 3437,
      "憲": 3438,
      "憶": 3439,
      "憺": 3440,
      "憾": 3441,
      "懂": 3442,
      "懃": 3443,
      "懇": 3444,
      "懈": 3445,
      "應": 3446,
      "懊": 3447,
      "懐": 3448,
      "懑": 3449,
      "懒": 3450,
      "懟": 3451,
      "懦": 3452,
      "懧": 3453,
      "懨": 3454,
      "懮": 3455,
      "懲": 3456,
      "懵": 3457,
      "懶": 3458,
      "懷": 3459,
      "懸": 3460,
      "懺": 3461,
      "懼": 3462,
      "懾": 3463,
      "懿": 3464,
      "戀": 3465,
      "戈": 3466,
      "戊": 3467,
      "戌": 3468,
      "戍": 3469,
      "戎": 3470,
      "戏": 3471,
      "成": 3472,
      "我": 3473,
      "戒": 3474,
      "戕": 3475,
      "或": 3476,
      "战": 3477,
      "戚": 3478,
      "戛": 3479,
      "戟": 3480,
      "戡": 3481,
      "戥": 3482,
      "戦": 3483,
      "截": 3484,
      "戮": 3485,
      "戯": 3486,
      "戰": 3487,
      "戲": 3488,
      "戳": 3489,
      "戴": 3490,
      "戶": 3491,
      "户": 3492,
      "戸": 3493,
      "戻": 3494,
      "房": 3495,
      "所": 3496,
      "扁": 3497,
      "扂": 3498,
      "扇": 3499,
      "扈": 3500,
      "扉": 3501,
      "手": 3502,
      "才": 3503,
      "扎": 3504,
      "扑": 3505,
      "扒": 3506,
      "打": 3507,
      "扔": 3508,
      "払": 3509,
      "托": 3510,
      "扛": 3511,
      "扞": 3512,
      "扢": 3513,
      "扣": 3514,
      "执": 3515,
      "扩": 3516,
      "扪": 3517,
      "扫": 3518,
      "扬": 3519,
      "扭": 3520,
      "扮": 3521,
      "扯": 3522,
      "扰": 3523,
      "扱": 3524,
      "扲": 3525,
      "扳": 3526,
      "扶": 3527,
      "批": 3528,
      "扼": 3529,
      "找": 3530,
      "承": 3531,
      "技": 3532,
      "抄": 3533,
      "抇": 3534,
      "抉": 3535,
      "把": 3536,
      "抑": 3537,
      "抒": 3538,
      "抓": 3539,
      "投": 3540,
      "抖": 3541,
      "抗": 3542,
      "折": 3543,
      "抚": 3544,
      "抛": 3545,
      "抜": 3546,
      "択": 3547,
      "抠": 3548,
      "抡": 3549,
      "抢": 3550,
      "护": 3551,
      "报": 3552,
      "抨": 3553,
      "披": 3554,
      "抬": 3555,
      "抰": 3556,
      "抱": 3557,
      "抵": 3558,
      "抹": 3559,
      "抻": 3560,
      "押": 3561,
      "抽": 3562,
      "抿": 3563,
      "拂": 3564,
      "拄": 3565,
      "担": 3566,
      "拆": 3567,
      "拇": 3568,
      "拈": 3569,
      "拉": 3570,
      "拋": 3571,
      "拌": 3572,
      "拍": 3573,
      "拎": 3574,
      "拐": 3575,
      "拒": 3576,
      "拓": 3577,
      "拔": 3578,
      "拖": 3579,
      "拗": 3580,
      "拘": 3581,
      "拙": 3582,
      "拚": 3583,
      "招": 3584,
      "拜": 3585,
      "拝": 3586,
      "拟": 3587,
      "拠": 3588,
      "拡": 3589,
      "拢": 3590,
      "拣": 3591,
      "拥": 3592,
      "拦": 3593,
      "拧": 3594,
      "拨": 3595,
      "择": 3596,
      "括": 3597,
      "拭": 3598,
      "拮": 3599,
      "拯": 3600,
      "拱": 3601,
      "拳": 3602,
      "拴": 3603,
      "拵": 3604,
      "拶": 3605,
      "拷": 3606,
      "拸": 3607,
      "拼": 3608,
      "拽": 3609,
      "拾": 3610,
      "拿": 3611,
      "持": 3612,
      "挂": 3613,
      "指": 3614,
      "挈": 3615,
      "按": 3616,
      "挎": 3617,
      "挑": 3618,
      "挖": 3619,
      "挙": 3620,
      "挚": 3621,
      "挛": 3622,
      "挝": 3623,
      "挞": 3624,
      "挟": 3625,
      "挠": 3626,
      "挡": 3627,
      "挣": 3628,
      "挤": 3629,
      "挥": 3630,
      "挨": 3631,
      "挪": 3632,
      "挫": 3633,
      "振": 3634,
      "挲": 3635,
      "挺": 3636,
      "挼": 3637,
      "挽": 3638,
      "挾": 3639,
      "挿": 3640,
      "捂": 3641,
      "捅": 3642,
      "捆": 3643,
      "捉": 3644,
      "捋": 3645,
      "捌": 3646,
      "捍": 3647,
      "捎": 3648,
      "捏": 3649,
      "捐": 3650,
      "捕": 3651,
      "捗": 3652,
      "捚": 3653,
      "捜": 3654,
      "捞": 3655,
      "损": 3656,
      "捡": 3657,
      "换": 3658,
      "捣": 3659,
      "捧": 3660,
      "捨": 3661,
      "捩": 3662,
      "捫": 3663,
      "据": 3664,
      "捱": 3665,
      "捲": 3666,
      "捶": 3667,
      "捷": 3668,
      "捺": 3669,
      "捻": 3670,
      "掀": 3671,
      "掂": 3672,
      "掃": 3673,
      "掇": 3674,
      "授": 3675,
      "掉": 3676,
      "掌": 3677,
      "掍": 3678,
      "掏": 3679,
      "掐": 3680,
      "排": 3681,
      "掖": 3682,
      "掗": 3683,
      "掘": 3684,
      "掙": 3685,
      "掛": 3686,
      "掟": 3687,
      "掠": 3688,
      "採": 3689,
      "探": 3690,
      "掣": 3691,
      "接": 3692,
      "控": 3693,
      "推": 3694,
      "掩": 3695,
      "措": 3696,
      "掬": 3697,
      "掮": 3698,
      "掰": 3699,
      "掲": 3700,
      "掳": 3701,
      "掴": 3702,
      "掷": 3703,
      "掸": 3704,
      "掺": 3705,
      "掻": 3706,
      "揀": 3707,
      "揃": 3708,
      "揄": 3709,
      "揆": 3710,
      "揉": 3711,
      "揌": 3712,
      "揍": 3713,
      "描": 3714,
      "提": 3715,
      "插": 3716,
      "揖": 3717,
      "揚": 3718,
      "換": 3719,
      "揝": 3720,
      "握": 3721,
      "揣": 3722,
      "揤": 3723,
      "揩": 3724,
      "揪": 3725,
      "揭": 3726,
      "揮": 3727,
      "援": 3728,
      "揶": 3729,
      "揸": 3730,
      "揹": 3731,
      "揺": 3732,
      "揽": 3733,
      "揾": 3734,
      "搀": 3735,
      "搁": 3736,
      "搂": 3737,
      "搅": 3738,
      "損": 3739,
      "搏": 3740,
      "搐": 3741,
      "搓": 3742,
      "搔": 3743,
      "搖": 3744,
      "搗": 3745,
      "搛": 3746,
      "搜": 3747,
      "搞": 3748,
      "搟": 3749,
      "搡": 3750,
      "搥": 3751,
      "搦": 3752,
      "搪": 3753,
      "搬": 3754,
      "搭": 3755,
      "搴": 3756,
      "搵": 3757,
      "搶": 3758,
      "携": 3759,
      "搽": 3760,
      "搾": 3761,
      "摀": 3762,
      "摁": 3763,
      "摂": 3764,
      "摄": 3765,
      "摆": 3766,
      "摇": 3767,
      "摈": 3768,
      "摊": 3769,
      "摒": 3770,
      "摔": 3771,
      "摘": 3772,
      "摟": 3773,
      "摧": 3774,
      "摩": 3775,
      "摯": 3776,
      "摸": 3777,
      "摹": 3778,
      "摺": 3779,
      "摻": 3780,
      "撂": 3781,
      "撃": 3782,
      "撅": 3783,
      "撇": 3784,
      "撈": 3785,
      "撐": 3786,
      "撑": 3787,
      "撒": 3788,
      "撓": 3789,
      "撕": 3790,
      "撙": 3791,
      "撚": 3792,
      "撞": 3793,
      "撣": 3794,
      "撤": 3795,
      "撥": 3796,
      "撩": 3797,
      "撫": 3798,
      "撬": 3799,
      "播": 3800,
      "撮": 3801,
      "撰": 3802,
      "撲": 3803,
      "撵": 3804,
      "撷": 3805,
      "撸": 3806,
      "撹": 3807,
      "撺": 3808,
      "撼": 3809,
      "撿": 3810,
      "擁": 3811,
      "擂": 3812,
      "擄": 3813,
      "擅": 3814,
      "擇": 3815,
      "擊": 3816,
      "擋": 3817,
      "操": 3818,
      "擎": 3819,
      "擒": 3820,
      "擔": 3821,
      "擘": 3822,
      "據": 3823,
      "擞": 3824,
      "擠": 3825,
      "擢": 3826,
      "擤": 3827,
      "擦": 3828,
      "擬": 3829,
      "擭": 3830,
      "擰": 3831,
      "擱": 3832,
      "擲": 3833,
      "擴": 3834,
      "擺": 3835,
      "擼": 3836,
      "擾": 3837,
      "攀": 3838,
      "攆": 3839,
      "攏": 3840,
      "攒": 3841,
      "攔": 3842,
      "攘": 3843,
      "攛": 3844,
      "攜": 3845,
      "攝": 3846,
      "攢": 3847,
      "攣": 3848,
      "攤": 3849,
      "攥": 3850,
      "攪": 3851,
      "攫": 3852,
      "攬": 3853,
      "支": 3854,
      "攰": 3855,
      "收": 3856,
      "攸": 3857,
      "改": 3858,
      "攻": 3859,
      "放": 3860,
      "政": 3861,
      "敃": 3862,
      "故": 3863,
      "效": 3864,
      "敌": 3865,
      "敏": 3866,
      "救": 3867,
      "敕": 3868,
      "敖": 3869,
      "敗": 3870,
      "敘": 3871,
      "教": 3872,
      "敛": 3873,
      "敝": 3874,
      "敞": 3875,
      "敢": 3876,
      "散": 3877,
      "敦": 3878,
      "敬": 3879,
      "数": 3880,
      "敲": 3881,
      "整": 3882,
      "敵": 3883,
      "敷": 3884,
      "數": 3885,
      "斂": 3886,
      "斃": 3887,
      "文": 3888,
      "斉": 3889,
      "斋": 3890,
      "斌": 3891,
      "斎": 3892,
      "斐": 3893,
      "斑": 3894,
      "斓": 3895,
      "斕": 3896,
      "斗": 3897,
      "料": 3898,
      "斛": 3899,
      "斜": 3900,
      "斟": 3901,
      "斡": 3902,
      "斤": 3903,
      "斥": 3904,
      "斧": 3905,
      "斩": 3906,
      "斬": 3907,
      "断": 3908,
      "斯": 3909,
      "新": 3910,
      "斷": 3911,
      "方": 3912,
      "於": 3913,
      "施": 3914,
      "旁": 3915,
      "旅": 3916,
      "旋": 3917,
      "旌": 3918,
      "旍": 3919,
      "族": 3920,
      "旗": 3921,
      "无": 3922,
      "既": 3923,
      "日": 3924,
      "旦": 3925,
      "旧": 3926,
      "旨": 3927,
      "早": 3928,
      "旬": 3929,
      "旭": 3930,
      "旮": 3931,
      "旯": 3932,
      "旰": 3933,
      "旱": 3934,
      "旳": 3935,
      "时": 3936,
      "旷": 3937,
      "旺": 3938,
      "昂": 3939,
      "昄": 3940,
      "昆": 3941,
      "昇": 3942,
      "昊": 3943,
      "昌": 3944,
      "明": 3945,
      "昏": 3946,
      "昒": 3947,
      "易": 3948,
      "昔": 3949,
      "昕": 3950,
      "昙": 3951,
      "昜": 3952,
      "星": 3953,
      "映": 3954,
      "昢": 3955,
      "春": 3956,
      "昧": 3957,
      "昨": 3958,
      "昫": 3959,
      "昭": 3960,
      "是": 3961,
      "昴": 3962,
      "昵": 3963,
      "昹": 3964,
      "昻": 3965,
      "昼": 3966,
      "显": 3967,
      "時": 3968,
      "晃": 3969,
      "晉": 3970,
      "晋": 3971,
      "晌": 3972,
      "晏": 3973,
      "晒": 3974,
      "晓": 3975,
      "晔": 3976,
      "晕": 3977,
      "晖": 3978,
      "晚": 3979,
      "晝": 3980,
      "晟": 3981,
      "晡": 3982,
      "晤": 3983,
      "晦": 3984,
      "晨": 3985,
      "晩": 3986,
      "普": 3987,
      "景": 3988,
      "晰": 3989,
      "晴": 3990,
      "晶": 3991,
      "智": 3992,
      "晾": 3993,
      "暁": 3994,
      "暂": 3995,
      "暄": 3996,
      "暇": 3997,
      "暈": 3998,
      "暉": 3999,
      "暍": 4000,
      "暑": 4001,
      "暖": 4002,
      "暗": 4003,
      "暢": 4004,
      "暦": 4005,
      "暧": 4006,
      "暨": 4007,
      "暫": 4008,
      "暮": 4009,
      "暴": 4010,
      "暹": 4011,
      "暺": 4012,
      "曆": 4013,
      "曇": 4014,
      "曉": 4015,
      "曖": 4016,
      "曙": 4017,
      "曜": 4018,
      "曝": 4019,
      "曠": 4020,
      "曦": 4021,
      "曬": 4022,
      "曰": 4023,
      "曲": 4024,
      "曳": 4025,
      "更": 4026,
      "書": 4027,
      "曹": 4028,
      "曼": 4029,
      "曽": 4030,
      "曾": 4031,
      "替": 4032,
      "最": 4033,
      "會": 4034,
      "月": 4035,
      "有": 4036,
      "朊": 4037,
      "朋": 4038,
      "服": 4039,
      "朔": 4040,
      "朕": 4041,
      "朗": 4042,
      "望": 4043,
      "朝": 4044,
      "期": 4045,
      "朦": 4046,
      "朧": 4047,
      "木": 4048,
      "未": 4049,
      "末": 4050,
      "本": 4051,
      "札": 4052,
      "朮": 4053,
      "术": 4054,
      "朱": 4055,
      "朴": 4056,
      "朵": 4057,
      "朶": 4058,
      "朸": 4059,
      "机": 4060,
      "朽": 4061,
      "杀": 4062,
      "杂": 4063,
      "权": 4064,
      "杅": 4065,
      "杆": 4066,
      "杈": 4067,
      "杉": 4068,
      "李": 4069,
      "杏": 4070,
      "材": 4071,
      "村": 4072,
      "杓": 4073,
      "杖": 4074,
      "杜": 4075,
      "杞": 4076,
      "束": 4077,
      "杠": 4078,
      "条": 4079,
      "来": 4080,
      "杨": 4081,
      "杪": 4082,
      "杭": 4083,
      "杯": 4084,
      "杰": 4085,
      "東": 4086,
      "杵": 4087,
      "杷": 4088,
      "杻": 4089,
      "松": 4090,
      "板": 4091,
      "极": 4092,
      "构": 4093,
      "枅": 4094,
      "枇": 4095,
      "枉": 4096,
      "析": 4097,
      "枑": 4098,
      "枕": 4099,
      "林": 4100,
      "枙": 4101,
      "枚": 4102,
      "果": 4103,
      "枝": 4104,
      "枞": 4105,
      "枠": 4106,
      "枡": 4107,
      "枢": 4108,
      "枣": 4109,
      "枦": 4110,
      "枪": 4111,
      "枫": 4112,
      "枭": 4113,
      "枯": 4114,
      "枱": 4115,
      "枴": 4116,
      "架": 4117,
      "枷": 4118,
      "枸": 4119,
      "柁": 4120,
      "柄": 4121,
      "柊": 4122,
      "柏": 4123,
      "某": 4124,
      "柑": 4125,
      "柒": 4126,
      "染": 4127,
      "柔": 4128,
      "柚": 4129,
      "柜": 4130,
      "柠": 4131,
      "柢": 4132,
      "柤": 4133,
      "查": 4134,
      "柩": 4135,
      "柬": 4136,
      "柯": 4137,
      "柰": 4138,
      "柱": 4139,
      "柲": 4140,
      "柳": 4141,
      "柴": 4142,
      "柵": 4143,
      "査": 4144,
      "柽": 4145,
      "柿": 4146,
      "栀": 4147,
      "栄": 4148,
      "栅": 4149,
      "标": 4150,
      "栈": 4151,
      "栉": 4152,
      "栋": 4153,
      "栎": 4154,
      "栏": 4155,
      "树": 4156,
      "栓": 4157,
      "栖": 4158,
      "栗": 4159,
      "栠": 4160,
      "校": 4161,
      "栩": 4162,
      "株": 4163,
      "样": 4164,
      "核": 4165,
      "根": 4166,
      "格": 4167,
      "栽": 4168,
      "桀": 4169,
      "桁": 4170,
      "桂": 4171,
      "桃": 4172,
      "桅": 4173,
      "框": 4174,
      "案": 4175,
      "桉": 4176,
      "桌": 4177,
      "桎": 4178,
      "桐": 4179,
      "桑": 4180,
      "桓": 4181,
      "桔": 4182,
      "桖": 4183,
      "桜": 4184,
      "桝": 4185,
      "桟": 4186,
      "桡": 4187,
      "桢": 4188,
      "档": 4189,
      "桥": 4190,
      "桦": 4191,
      "桧": 4192,
      "桨": 4193,
      "桩": 4194,
      "桯": 4195,
      "桲": 4196,
      "桴": 4197,
      "桵": 4198,
      "桶": 4199,
      "桽": 4200,
      "桿": 4201,
      "梁": 4202,
      "梅": 4203,
      "梆": 4204,
      "梏": 4205,
      "梑": 4206,
      "梒": 4207,
      "梓": 4208,
      "梗": 4209,
      "條": 4210,
      "梟": 4211,
      "梢": 4212,
      "梦": 4213,
      "梧": 4214,
      "梨": 4215,
      "梭": 4216,
      "梯": 4217,
      "械": 4218,
      "梱": 4219,
      "梳": 4220,
      "梵": 4221,
      "梶": 4222,
      "检": 4223,
      "棄": 4224,
      "棉": 4225,
      "棋": 4226,
      "棍": 4227,
      "棒": 4228,
      "棓": 4229,
      "棕": 4230,
      "棗": 4231,
      "棘": 4232,
      "棚": 4233,
      "棟": 4234,
      "棠": 4235,
      "棣": 4236,
      "森": 4237,
      "棱": 4238,
      "棲": 4239,
      "棵": 4240,
      "棺": 4241,
      "椀": 4242,
      "椄": 4243,
      "椅": 4244,
      "椋": 4245,
      "植": 4246,
      "椎": 4247,
      "椐": 4248,
      "椒": 4249,
      "検": 4250,
      "椤": 4251,
      "椭": 4252,
      "椰": 4253,
      "椿": 4254,
      "楂": 4255,
      "楊": 4256,
      "楓": 4257,
      "楔": 4258,
      "楕": 4259,
      "楚": 4260,
      "楛": 4261,
      "楝": 4262,
      "楞": 4263,
      "楠": 4264,
      "楢": 4265,
      "楣": 4266,
      "楦": 4267,
      "楨": 4268,
      "業": 4269,
      "楯": 4270,
      "極": 4271,
      "楷": 4272,
      "楸": 4273,
      "楼": 4274,
      "楽": 4275,
      "概": 4276,
      "榄": 4277,
      "榅": 4278,
      "榆": 4279,
      "榈": 4280,
      "榉": 4281,
      "榊": 4282,
      "榎": 4283,
      "榔": 4284,
      "榕": 4285,
      "榘": 4286,
      "榛": 4287,
      "榜": 4288,
      "榨": 4289,
      "榭": 4290,
      "榮": 4291,
      "榴": 4292,
      "榷": 4293,
      "榻": 4294,
      "槁": 4295,
      "槃": 4296,
      "構": 4297,
      "槌": 4298,
      "槍": 4299,
      "槐": 4300,
      "槓": 4301,
      "様": 4302,
      "槙": 4303,
      "槛": 4304,
      "槟": 4305,
      "槨": 4306,
      "槲": 4307,
      "槳": 4308,
      "槽": 4309,
      "槿": 4310,
      "樁": 4311,
      "樂": 4312,
      "樊": 4313,
      "樑": 4314,
      "樓": 4315,
      "標": 4316,
      "樞": 4317,
      "樟": 4318,
      "模": 4319,
      "樣": 4320,
      "権": 4321,
      "横": 4322,
      "樫": 4323,
      "樱": 4324,
      "樵": 4325,
      "樸": 4326,
      "樹": 4327,
      "樺": 4328,
      "樽": 4329,
      "橄": 4330,
      "橇": 4331,
      "橈": 4332,
      "橋": 4333,
      "橔": 4334,
      "橘": 4335,
      "橙": 4336,
      "機": 4337,
      "橡": 4338,
      "橢": 4339,
      "橥": 4340,
      "橫": 4341,
      "橱": 4342,
      "橵": 4343,
      "橼": 4344,
      "橾": 4345,
      "橿": 4346,
      "檀": 4347,
      "檎": 4348,
      "檐": 4349,
      "檔": 4350,
      "檜": 4351,
      "檞": 4352,
      "檢": 4353,
      "檫": 4354,
      "檬": 4355,
      "檯": 4356,
      "檳": 4357,
      "檸": 4358,
      "檻": 4359,
      "櫃": 4360,
      "櫈": 4361,
      "櫑": 4362,
      "櫓": 4363,
      "櫚": 4364,
      "櫛": 4365,
      "櫥": 4366,
      "櫻": 4367,
      "欄": 4368,
      "權": 4369,
      "欑": 4370,
      "欒": 4371,
      "欖": 4372,
      "欝": 4373,
      "欠": 4374,
      "次": 4375,
      "欢": 4376,
      "欣": 4377,
      "欧": 4378,
      "欲": 4379,
      "欴": 4380,
      "欸": 4381,
      "欺": 4382,
      "欽": 4383,
      "款": 4384,
      "歃": 4385,
      "歆": 4386,
      "歇": 4387,
      "歉": 4388,
      "歌": 4389,
      "歎": 4390,
      "歐": 4391,
      "歓": 4392,
      "歛": 4393,
      "歡": 4394,
      "止": 4395,
      "正": 4396,
      "此": 4397,
      "步": 4398,
      "武": 4399,
      "歧": 4400,
      "歩": 4401,
      "歪": 4402,
      "歯": 4403,
      "歲": 4404,
      "歳": 4405,
      "歴": 4406,
      "歷": 4407,
      "歸": 4408,
      "歹": 4409,
      "死": 4410,
      "歼": 4411,
      "殃": 4412,
      "殄": 4413,
      "殆": 4414,
      "殉": 4415,
      "殊": 4416,
      "残": 4417,
      "殒": 4418,
      "殓": 4419,
      "殖": 4420,
      "殘": 4421,
      "殛": 4422,
      "殡": 4423,
      "殭": 4424,
      "殲": 4425,
      "殴": 4426,
      "段": 4427,
      "殷": 4428,
      "殺": 4429,
      "殻": 4430,
      "殼": 4431,
      "殿": 4432,
      "毀": 4433,
      "毁": 4434,
      "毂": 4435,
      "毅": 4436,
      "毆": 4437,
      "毋": 4438,
      "母": 4439,
      "毎": 4440,
      "每": 4441,
      "毒": 4442,
      "毓": 4443,
      "比": 4444,
      "毕": 4445,
      "毖": 4446,
      "毗": 4447,
      "毘": 4448,
      "毙": 4449,
      "毚": 4450,
      "毛": 4451,
      "毞": 4452,
      "毡": 4453,
      "毫": 4454,
      "毯": 4455,
      "毽": 4456,
      "氏": 4457,
      "氐": 4458,
      "民": 4459,
      "氓": 4460,
      "气": 4461,
      "氖": 4462,
      "気": 4463,
      "氘": 4464,
      "氙": 4465,
      "氚": 4466,
      "氛": 4467,
      "氟": 4468,
      "氡": 4469,
      "氢": 4470,
      "氣": 4471,
      "氦": 4472,
      "氧": 4473,
      "氨": 4474,
      "氩": 4475,
      "氪": 4476,
      "氫": 4477,
      "氮": 4478,
      "氯": 4479,
      "氰": 4480,
      "水": 4481,
      "氷": 4482,
      "永": 4483,
      "氹": 4484,
      "氾": 4485,
      "汀": 4486,
      "汁": 4487,
      "求": 4488,
      "汇": 4489,
      "汉": 4490,
      "汎": 4491,
      "汐": 4492,
      "汔": 4493,
      "汗": 4494,
      "汚": 4495,
      "汜": 4496,
      "汝": 4497,
      "汞": 4498,
      "江": 4499,
      "池": 4500,
      "污": 4501,
      "汤": 4502,
      "汩": 4503,
      "汪": 4504,
      "汰": 4505,
      "汲": 4506,
      "汴": 4507,
      "汶": 4508,
      "汹": 4509,
      "決": 4510,
      "汽": 4511,
      "汾": 4512,
      "沁": 4513,
      "沂": 4514,
      "沃": 4515,
      "沅": 4516,
      "沆": 4517,
      "沈": 4518,
      "沉": 4519,
      "沌": 4520,
      "沏": 4521,
      "沐": 4522,
      "沒": 4523,
      "沓": 4524,
      "沖": 4525,
      "沙": 4526,
      "沛": 4527,
      "沟": 4528,
      "没": 4529,
      "沢": 4530,
      "沣": 4531,
      "沤": 4532,
      "沥": 4533,
      "沦": 4534,
      "沧": 4535,
      "沫": 4536,
      "沬": 4537,
      "沭": 4538,
      "沮": 4539,
      "沱": 4540,
      "河": 4541,
      "沸": 4542,
      "油": 4543,
      "治": 4544,
      "沼": 4545,
      "沽": 4546,
      "沾": 4547,
      "沿": 4548,
      "況": 4549,
      "泂": 4550,
      "泄": 4551,
      "泅": 4552,
      "泉": 4553,
      "泊": 4554,
      "泌": 4555,
      "泐": 4556,
      "泔": 4557,
      "法": 4558,
      "泗": 4559,
      "泙": 4560,
      "泛": 4561,
      "泞": 4562,
      "泠": 4563,
      "泡": 4564,
      "波": 4565,
      "泣": 4566,
      "泥": 4567,
      "注": 4568,
      "泪": 4569,
      "泭": 4570,
      "泮": 4571,
      "泯": 4572,
      "泰": 4573,
      "泱": 4574,
      "泳": 4575,
      "泵": 4576,
      "泷": 4577,
      "泻": 4578,
      "泼": 4579,
      "泽": 4580,
      "泾": 4581,
      "洁": 4582,
      "洄": 4583,
      "洇": 4584,
      "洋": 4585,
      "洒": 4586,
      "洗": 4587,
      "洙": 4588,
      "洛": 4589,
      "洞": 4590,
      "洟": 4591,
      "津": 4592,
      "洩": 4593,
      "洪": 4594,
      "洮": 4595,
      "洱": 4596,
      "洲": 4597,
      "洶": 4598,
      "洷": 4599,
      "活": 4600,
      "洼": 4601,
      "洽": 4602,
      "派": 4603,
      "流": 4604,
      "浃": 4605,
      "浄": 4606,
      "浅": 4607,
      "浆": 4608,
      "浇": 4609,
      "浊": 4610,
      "测": 4611,
      "浍": 4612,
      "济": 4613,
      "浏": 4614,
      "浑": 4615,
      "浒": 4616,
      "浓": 4617,
      "浙": 4618,
      "浚": 4619,
      "浜": 4620,
      "浣": 4621,
      "浦": 4622,
      "浩": 4623,
      "浪": 4624,
      "浬": 4625,
      "浮": 4626,
      "浯": 4627,
      "浴": 4628,
      "海": 4629,
      "浸": 4630,
      "涂": 4631,
      "涅": 4632,
      "消": 4633,
      "涉": 4634,
      "涌": 4635,
      "涎": 4636,
      "涓": 4637,
      "涕": 4638,
      "涙": 4639,
      "涛": 4640,
      "涜": 4641,
      "涝": 4642,
      "涟": 4643,
      "涡": 4644,
      "涣": 4645,
      "涤": 4646,
      "润": 4647,
      "涧": 4648,
      "涨": 4649,
      "涩": 4650,
      "涮": 4651,
      "涯": 4652,
      "液": 4653,
      "涴": 4654,
      "涵": 4655,
      "涸": 4656,
      "涼": 4657,
      "淀": 4658,
      "淅": 4659,
      "淆": 4660,
      "淇": 4661,
      "淊": 4662,
      "淋": 4663,
      "淌": 4664,
      "淏": 4665,
      "淑": 4666,
      "淖": 4667,
      "淘": 4668,
      "淚": 4669,
      "淡": 4670,
      "淤": 4671,
      "淨": 4672,
      "淩": 4673,
      "淪": 4674,
      "淫": 4675,
      "淬": 4676,
      "淮": 4677,
      "深": 4678,
      "淳": 4679,
      "淵": 4680,
      "混": 4681,
      "淹": 4682,
      "淺": 4683,
      "添": 4684,
      "渀": 4685,
      "清": 4686,
      "渇": 4687,
      "済": 4688,
      "渉": 4689,
      "渊": 4690,
      "渋": 4691,
      "渍": 4692,
      "渎": 4693,
      "渐": 4694,
      "渓": 4695,
      "渔": 4696,
      "渗": 4697,
      "渙": 4698,
      "渚": 4699,
      "減": 4700,
      "渝": 4701,
      "渠": 4702,
      "渡": 4703,
      "渣": 4704,
      "渤": 4705,
      "渥": 4706,
      "渦": 4707,
      "渧": 4708,
      "温": 4709,
      "測": 4710,
      "渭": 4711,
      "港": 4712,
      "渲": 4713,
      "渴": 4714,
      "游": 4715,
      "渺": 4716,
      "渾": 4717,
      "湃": 4718,
      "湄": 4719,
      "湊": 4720,
      "湍": 4721,
      "湎": 4722,
      "湔": 4723,
      "湖": 4724,
      "湘": 4725,
      "湛": 4726,
      "湧": 4727,
      "湮": 4728,
      "湯": 4729,
      "湴": 4730,
      "湾": 4731,
      "湿": 4732,
      "満": 4733,
      "溃": 4734,
      "溅": 4735,
      "溉": 4736,
      "溌": 4737,
      "溏": 4738,
      "源": 4739,
      "準": 4740,
      "溘": 4741,
      "溜": 4742,
      "溝": 4743,
      "溢": 4744,
      "溥": 4745,
      "溪": 4746,
      "溫": 4747,
      "溯": 4748,
      "溴": 4749,
      "溶": 4750,
      "溷": 4751,
      "溺": 4752,
      "溼": 4753,
      "滂": 4754,
      "滅": 4755,
      "滇": 4756,
      "滋": 4757,
      "滌": 4758,
      "滑": 4759,
      "滓": 4760,
      "滔": 4761,
      "滕": 4762,
      "滚": 4763,
      "滝": 4764,
      "滞": 4765,
      "满": 4766,
      "滤": 4767,
      "滥": 4768,
      "滨": 4769,
      "滩": 4770,
      "滯": 4771,
      "滲": 4772,
      "滴": 4773,
      "滾": 4774,
      "滿": 4775,
      "漁": 4776,
      "漂": 4777,
      "漆": 4778,
      "漉": 4779,
      "漏": 4780,
      "漑": 4781,
      "漒": 4782,
      "漓": 4783,
      "演": 4784,
      "漕": 4785,
      "漠": 4786,
      "漢": 4787,
      "漩": 4788,
      "漪": 4789,
      "漫": 4790,
      "漬": 4791,
      "漯": 4792,
      "漱": 4793,
      "漲": 4794,
      "漸": 4795,
      "漾": 4796,
      "漿": 4797,
      "潅": 4798,
      "潇": 4799,
      "潑": 4800,
      "潔": 4801,
      "潘": 4802,
      "潛": 4803,
      "潜": 4804,
      "潟": 4805,
      "潠": 4806,
      "潢": 4807,
      "潤": 4808,
      "潦": 4809,
      "潭": 4810,
      "潮": 4811,
      "潰": 4812,
      "潸": 4813,
      "潺": 4814,
      "澄": 4815,
      "澆": 4816,
      "澈": 4817,
      "澎": 4818,
      "澜": 4819,
      "澡": 4820,
      "澤": 4821,
      "澪": 4822,
      "澳": 4823,
      "澹": 4824,
      "激": 4825,
      "濁": 4826,
      "濂": 4827,
      "濃": 4828,
      "濑": 4829,
      "濒": 4830,
      "濕": 4831,
      "濘": 4832,
      "濛": 4833,
      "濟": 4834,
      "濡": 4835,
      "濤": 4836,
      "濫": 4837,
      "濬": 4838,
      "濮": 4839,
      "濯": 4840,
      "濱": 4841,
      "濳": 4842,
      "濺": 4843,
      "濾": 4844,
      "瀆": 4845,
      "瀉": 4846,
      "瀋": 4847,
      "瀏": 4848,
      "瀑": 4849,
      "瀕": 4850,
      "瀘": 4851,
      "瀚": 4852,
      "瀝": 4853,
      "瀟": 4854,
      "瀣": 4855,
      "瀬": 4856,
      "瀰": 4857,
      "瀾": 4858,
      "灌": 4859,
      "灑": 4860,
      "灘": 4861,
      "灣": 4862,
      "火": 4863,
      "灭": 4864,
      "灯": 4865,
      "灰": 4866,
      "灵": 4867,
      "灶": 4868,
      "灸": 4869,
      "灼": 4870,
      "災": 4871,
      "灾": 4872,
      "灿": 4873,
      "炆": 4874,
      "炉": 4875,
      "炊": 4876,
      "炎": 4877,
      "炒": 4878,
      "炔": 4879,
      "炕": 4880,
      "炖": 4881,
      "炙": 4882,
      "炜": 4883,
      "炫": 4884,
      "炬": 4885,
      "炭": 4886,
      "炮": 4887,
      "炯": 4888,
      "炰": 4889,
      "炳": 4890,
      "炵": 4891,
      "炷": 4892,
      "炸": 4893,
      "点": 4894,
      "為": 4895,
      "炼": 4896,
      "炽": 4897,
      "烁": 4898,
      "烂": 4899,
      "烃": 4900,
      "烈": 4901,
      "烊": 4902,
      "烏": 4903,
      "烘": 4904,
      "烙": 4905,
      "烛": 4906,
      "烟": 4907,
      "烤": 4908,
      "烦": 4909,
      "烧": 4910,
      "烩": 4911,
      "烫": 4912,
      "烬": 4913,
      "热": 4914,
      "烯": 4915,
      "烷": 4916,
      "烹": 4917,
      "烽": 4918,
      "焉": 4919,
      "焊": 4920,
      "焔": 4921,
      "焕": 4922,
      "焖": 4923,
      "焗": 4924,
      "焙": 4925,
      "焚": 4926,
      "無": 4927,
      "焦": 4928,
      "焰": 4929,
      "然": 4930,
      "焼": 4931,
      "煅": 4932,
      "煉": 4933,
      "煌": 4934,
      "煎": 4935,
      "煖": 4936,
      "煙": 4937,
      "煞": 4938,
      "煤": 4939,
      "煥": 4940,
      "煦": 4941,
      "照": 4942,
      "煨": 4943,
      "煩": 4944,
      "煭": 4945,
      "煮": 4946,
      "煲": 4947,
      "煸": 4948,
      "煽": 4949,
      "熄": 4950,
      "熊": 4951,
      "熏": 4952,
      "熔": 4953,
      "熙": 4954,
      "熟": 4955,
      "熠": 4956,
      "熨": 4957,
      "熬": 4958,
      "熱": 4959,
      "熵": 4960,
      "熹": 4961,
      "熾": 4962,
      "燃": 4963,
      "燄": 4964,
      "燈": 4965,
      "燉": 4966,
      "燎": 4967,
      "燐": 4968,
      "燒": 4969,
      "燕": 4970,
      "燙": 4971,
      "營": 4972,
      "燠": 4973,
      "燥": 4974,
      "燦": 4975,
      "燧": 4976,
      "燬": 4977,
      "燭": 4978,
      "燮": 4979,
      "燴": 4980,
      "燻": 4981,
      "燼": 4982,
      "爆": 4983,
      "爍": 4984,
      "爐": 4985,
      "爛": 4986,
      "爪": 4987,
      "爬": 4988,
      "爭": 4989,
      "爱": 4990,
      "爲": 4991,
      "爵": 4992,
      "父": 4993,
      "爷": 4994,
      "爸": 4995,
      "爹": 4996,
      "爺": 4997,
      "爽": 4998,
      "爾": 4999,
      "牀": 5000,
      "牆": 5001,
      "片": 5002,
      "版": 5003,
      "牌": 5004,
      "牍": 5005,
      "牒": 5006,
      "牙": 5007,
      "牛": 5008,
      "牝": 5009,
      "牟": 5010,
      "牠": 5011,
      "牡": 5012,
      "牢": 5013,
      "牦": 5014,
      "牧": 5015,
      "物": 5016,
      "牲": 5017,
      "牵": 5018,
      "特": 5019,
      "牺": 5020,
      "牽": 5021,
      "犀": 5022,
      "犁": 5023,
      "犄": 5024,
      "犇": 5025,
      "犊": 5026,
      "犒": 5027,
      "犖": 5028,
      "犠": 5029,
      "犢": 5030,
      "犧": 5031,
      "犬": 5032,
      "犭": 5033,
      "犯": 5034,
      "犰": 5035,
      "状": 5036,
      "犸": 5037,
      "犹": 5038,
      "狀": 5039,
      "狂": 5040,
      "狄": 5041,
      "狈": 5042,
      "狍": 5043,
      "狎": 5044,
      "狐": 5045,
      "狒": 5046,
      "狓": 5047,
      "狗": 5048,
      "狙": 5049,
      "狝": 5050,
      "狞": 5051,
      "狟": 5052,
      "狠": 5053,
      "狡": 5054,
      "狥": 5055,
      "狦": 5056,
      "狨": 5057,
      "狩": 5058,
      "独": 5059,
      "狭": 5060,
      "狮": 5061,
      "狰": 5062,
      "狱": 5063,
      "狲": 5064,
      "狳": 5065,
      "狵": 5066,
      "狶": 5067,
      "狸": 5068,
      "狹": 5069,
      "狻": 5070,
      "狼": 5071,
      "狽": 5072,
      "狾": 5073,
      "狿": 5074,
      "猁": 5075,
      "猂": 5076,
      "猅": 5077,
      "猊": 5078,
      "猋": 5079,
      "猌": 5080,
      "猎": 5081,
      "猓": 5082,
      "猔": 5083,
      "猕": 5084,
      "猖": 5085,
      "猘": 5086,
      "猛": 5087,
      "猜": 5088,
      "猝": 5089,
      "猞": 5090,
      "猟": 5091,
      "猠": 5092,
      "猡": 5093,
      "猢": 5094,
      "猥": 5095,
      "猧": 5096,
      "猩": 5097,
      "猪": 5098,
      "猫": 5099,
      "猬": 5100,
      "猭": 5101,
      "献": 5102,
      "猳": 5103,
      "猴": 5104,
      "猵": 5105,
      "猶": 5106,
      "猾": 5107,
      "猿": 5108,
      "獀": 5109,
      "獁": 5110,
      "獃": 5111,
      "獄": 5112,
      "獅": 5113,
      "獎": 5114,
      "獗": 5115,
      "獠": 5116,
      "獣": 5117,
      "獨": 5118,
      "獭": 5119,
      "獰": 5120,
      "獲": 5121,
      "獴": 5122,
      "獵": 5123,
      "獶": 5124,
      "獸": 5125,
      "獹": 5126,
      "獺": 5127,
      "獻": 5128,
      "獽": 5129,
      "獾": 5130,
      "獿": 5131,
      "玂": 5132,
      "玄": 5133,
      "玅": 5134,
      "玆": 5135,
      "率": 5136,
      "玉": 5137,
      "玊": 5138,
      "王": 5139,
      "玌": 5140,
      "玍": 5141,
      "玐": 5142,
      "玒": 5143,
      "玙": 5144,
      "玛": 5145,
      "玜": 5146,
      "玡": 5147,
      "玥": 5148,
      "玦": 5149,
      "玨": 5150,
      "玩": 5151,
      "玪": 5152,
      "玫": 5153,
      "玭": 5154,
      "玮": 5155,
      "环": 5156,
      "现": 5157,
      "玱": 5158,
      "玲": 5159,
      "玳": 5160,
      "玴": 5161,
      "玵": 5162,
      "玶": 5163,
      "玷": 5164,
      "玺": 5165,
      "玻": 5166,
      "玼": 5167,
      "玾": 5168,
      "珀": 5169,
      "珂": 5170,
      "珃": 5171,
      "珅": 5172,
      "珆": 5173,
      "珇": 5174,
      "珈": 5175,
      "珉": 5176,
      "珊": 5177,
      "珋": 5178,
      "珍": 5179,
      "珏": 5180,
      "珑": 5181,
      "珗": 5182,
      "珠": 5183,
      "珥": 5184,
      "珧": 5185,
      "珨": 5186,
      "珩": 5187,
      "班": 5188,
      "珮": 5189,
      "珹": 5190,
      "珼": 5191,
      "現": 5192,
      "珿": 5193,
      "琁": 5194,
      "球": 5195,
      "琄": 5196,
      "琅": 5197,
      "理": 5198,
      "琉": 5199,
      "琌": 5200,
      "琍": 5201,
      "琎": 5202,
      "琐": 5203,
      "琕": 5204,
      "琘": 5205,
      "琛": 5206,
      "琜": 5207,
      "琢": 5208,
      "琥": 5209,
      "琦": 5210,
      "琩": 5211,
      "琪": 5212,
      "琰": 5213,
      "琲": 5214,
      "琳": 5215,
      "琴": 5216,
      "琵": 5217,
      "琶": 5218,
      "琼": 5219,
      "琾": 5220,
      "琿": 5221,
      "瑀": 5222,
      "瑁": 5223,
      "瑅": 5224,
      "瑆": 5225,
      "瑇": 5226,
      "瑈": 5227,
      "瑌": 5228,
      "瑍": 5229,
      "瑕": 5230,
      "瑗": 5231,
      "瑙": 5232,
      "瑚": 5233,
      "瑛": 5234,
      "瑜": 5235,
      "瑞": 5236,
      "瑟": 5237,
      "瑠": 5238,
      "瑩": 5239,
      "瑪": 5240,
      "瑯": 5241,
      "瑰": 5242,
      "瑶": 5243,
      "瑻": 5244,
      "瑼": 5245,
      "瑾": 5246,
      "瑿": 5247,
      "璀": 5248,
      "璂": 5249,
      "璃": 5250,
      "璅": 5251,
      "璆": 5252,
      "璇": 5253,
      "璉": 5254,
      "璊": 5255,
      "璍": 5256,
      "璐": 5257,
      "璑": 5258,
      "璓": 5259,
      "璗": 5260,
      "璚": 5261,
      "璛": 5262,
      "璜": 5263,
      "璝": 5264,
      "璞": 5265,
      "璣": 5266,
      "璦": 5267,
      "璧": 5268,
      "璨": 5269,
      "璭": 5270,
      "璮": 5271,
      "環": 5272,
      "璱": 5273,
      "璵": 5274,
      "璶": 5275,
      "璸": 5276,
      "璹": 5277,
      "璼": 5278,
      "璽": 5279,
      "瓀": 5280,
      "瓁": 5281,
      "瓂": 5282,
      "瓃": 5283,
      "瓆": 5284,
      "瓊": 5285,
      "瓒": 5286,
      "瓜": 5287,
      "瓠": 5288,
      "瓢": 5289,
      "瓣": 5290,
      "瓦": 5291,
      "瓮": 5292,
      "瓳": 5293,
      "瓶": 5294,
      "瓷": 5295,
      "瓸": 5296,
      "瓿": 5297,
      "甀": 5298,
      "甁": 5299,
      "甃": 5300,
      "甄": 5301,
      "甅": 5302,
      "甉": 5303,
      "甊": 5304,
      "甘": 5305,
      "甚": 5306,
      "甜": 5307,
      "甝": 5308,
      "生": 5309,
      "甡": 5310,
      "產": 5311,
      "産": 5312,
      "甤": 5313,
      "甥": 5314,
      "甦": 5315,
      "甧": 5316,
      "用": 5317,
      "甩": 5318,
      "甪": 5319,
      "甫": 5320,
      "甬": 5321,
      "甭": 5322,
      "甮": 5323,
      "田": 5324,
      "由": 5325,
      "甲": 5326,
      "申": 5327,
      "电": 5328,
      "甶": 5329,
      "男": 5330,
      "甸": 5331,
      "町": 5332,
      "画": 5333,
      "畀": 5334,
      "畃": 5335,
      "畄": 5336,
      "畅": 5337,
      "畉": 5338,
      "界": 5339,
      "畍": 5340,
      "畏": 5341,
      "畐": 5342,
      "畑": 5343,
      "畒": 5344,
      "畓": 5345,
      "畔": 5346,
      "畕": 5347,
      "留": 5348,
      "畜": 5349,
      "畝": 5350,
      "畟": 5351,
      "畢": 5352,
      "略": 5353,
      "番": 5354,
      "畫": 5355,
      "異": 5356,
      "畳": 5357,
      "畴": 5358,
      "當": 5359,
      "畸": 5360,
      "畿": 5361,
      "疆": 5362,
      "疇": 5363,
      "疉": 5364,
      "疊": 5365,
      "疍": 5366,
      "疎": 5367,
      "疏": 5368,
      "疑": 5369,
      "疔": 5370,
      "疖": 5371,
      "疗": 5372,
      "疙": 5373,
      "疚": 5374,
      "疝": 5375,
      "疟": 5376,
      "疡": 5377,
      "疣": 5378,
      "疤": 5379,
      "疥": 5380,
      "疦": 5381,
      "疩": 5382,
      "疫": 5383,
      "疭": 5384,
      "疮": 5385,
      "疯": 5386,
      "疱": 5387,
      "疲": 5388,
      "疵": 5389,
      "疶": 5390,
      "疸": 5391,
      "疹": 5392,
      "疻": 5393,
      "疼": 5394,
      "疽": 5395,
      "疾": 5396,
      "痁": 5397,
      "痂": 5398,
      "痄": 5399,
      "病": 5400,
      "症": 5401,
      "痈": 5402,
      "痉": 5403,
      "痊": 5404,
      "痌": 5405,
      "痍": 5406,
      "痒": 5407,
      "痔": 5408,
      "痕": 5409,
      "痘": 5410,
      "痙": 5411,
      "痚": 5412,
      "痛": 5413,
      "痜": 5414,
      "痝": 5415,
      "痞": 5416,
      "痠": 5417,
      "痢": 5418,
      "痣": 5419,
      "痨": 5420,
      "痩": 5421,
      "痪": 5422,
      "痫": 5423,
      "痮": 5424,
      "痰": 5425,
      "痲": 5426,
      "痴": 5427,
      "痷": 5428,
      "痸": 5429,
      "痹": 5430,
      "痺": 5431,
      "痻": 5432,
      "痼": 5433,
      "痾": 5434,
      "痿": 5435,
      "瘀": 5436,
      "瘁": 5437,
      "瘂": 5438,
      "瘆": 5439,
      "瘋": 5440,
      "瘍": 5441,
      "瘓": 5442,
      "瘘": 5443,
      "瘙": 5444,
      "瘜": 5445,
      "瘟": 5446,
      "瘠": 5447,
      "瘡": 5448,
      "瘢": 5449,
      "瘤": 5450,
      "瘦": 5451,
      "瘧": 5452,
      "瘩": 5453,
      "瘪": 5454,
      "瘫": 5455,
      "瘴": 5456,
      "瘸": 5457,
      "瘻": 5458,
      "瘾": 5459,
      "療": 5460,
      "癇": 5461,
      "癌": 5462,
      "癐": 5463,
      "癑": 5464,
      "癒": 5465,
      "癔": 5466,
      "癖": 5467,
      "癘": 5468,
      "癚": 5469,
      "癛": 5470,
      "癞": 5471,
      "癟": 5472,
      "癠": 5473,
      "癡": 5474,
      "癢": 5475,
      "癣": 5476,
      "癥": 5477,
      "癩": 5478,
      "癪": 5479,
      "癫": 5480,
      "癬": 5481,
      "癮": 5482,
      "癱": 5483,
      "癲": 5484,
      "癳": 5485,
      "癵": 5486,
      "癶": 5487,
      "癸": 5488,
      "癹": 5489,
      "発": 5490,
      "登": 5491,
      "發": 5492,
      "白": 5493,
      "百": 5494,
      "皁": 5495,
      "皂": 5496,
      "皃": 5497,
      "的": 5498,
      "皆": 5499,
      "皇": 5500,
      "皈": 5501,
      "皊": 5502,
      "皌": 5503,
      "皎": 5504,
      "皐": 5505,
      "皑": 5506,
      "皓": 5507,
      "皗": 5508,
      "皘": 5509,
      "皙": 5510,
      "皛": 5511,
      "皮": 5512,
      "皱": 5513,
      "皺": 5514,
      "皿": 5515,
      "盂": 5516,
      "盃": 5517,
      "盅": 5518,
      "盆": 5519,
      "盈": 5520,
      "盉": 5521,
      "益": 5522,
      "盋": 5523,
      "盌": 5524,
      "盎": 5525,
      "盏": 5526,
      "盐": 5527,
      "监": 5528,
      "盒": 5529,
      "盓": 5530,
      "盔": 5531,
      "盕": 5532,
      "盖": 5533,
      "盗": 5534,
      "盘": 5535,
      "盚": 5536,
      "盛": 5537,
      "盜": 5538,
      "盞": 5539,
      "盟": 5540,
      "盠": 5541,
      "盡": 5542,
      "盢": 5543,
      "監": 5544,
      "盤": 5545,
      "盥": 5546,
      "盧": 5547,
      "盪": 5548,
      "目": 5549,
      "盯": 5550,
      "盰": 5551,
      "盲": 5552,
      "直": 5553,
      "相": 5554,
      "盹": 5555,
      "盼": 5556,
      "盽": 5557,
      "盾": 5558,
      "盿": 5559,
      "眀": 5560,
      "省": 5561,
      "眃": 5562,
      "眅": 5563,
      "眈": 5564,
      "眉": 5565,
      "眊": 5566,
      "看": 5567,
      "県": 5568,
      "眎": 5569,
      "眏": 5570,
      "眒": 5571,
      "眔": 5572,
      "眕": 5573,
      "眖": 5574,
      "眙": 5575,
      "眞": 5576,
      "真": 5577,
      "眠": 5578,
      "眢": 5579,
      "眣": 5580,
      "眤": 5581,
      "眦": 5582,
      "眨": 5583,
      "眩": 5584,
      "眭": 5585,
      "眯": 5586,
      "眳": 5587,
      "眶": 5588,
      "眷": 5589,
      "眸": 5590,
      "眺": 5591,
      "眻": 5592,
      "眼": 5593,
      "眾": 5594,
      "着": 5595,
      "睁": 5596,
      "睆": 5597,
      "睇": 5598,
      "睌": 5599,
      "睐": 5600,
      "睑": 5601,
      "睚": 5602,
      "睛": 5603,
      "睜": 5604,
      "睝": 5605,
      "睡": 5606,
      "睢": 5607,
      "督": 5608,
      "睤": 5609,
      "睦": 5610,
      "睨": 5611,
      "睪": 5612,
      "睫": 5613,
      "睬": 5614,
      "睭": 5615,
      "睱": 5616,
      "睲": 5617,
      "睵": 5618,
      "睹": 5619,
      "睼": 5620,
      "睽": 5621,
      "睾": 5622,
      "睿": 5623,
      "瞄": 5624,
      "瞅": 5625,
      "瞇": 5626,
      "瞈": 5627,
      "瞉": 5628,
      "瞊": 5629,
      "瞋": 5630,
      "瞌": 5631,
      "瞎": 5632,
      "瞏": 5633,
      "瞑": 5634,
      "瞒": 5635,
      "瞝": 5636,
      "瞞": 5637,
      "瞟": 5638,
      "瞠": 5639,
      "瞡": 5640,
      "瞥": 5641,
      "瞦": 5642,
      "瞧": 5643,
      "瞨": 5644,
      "瞩": 5645,
      "瞪": 5646,
      "瞬": 5647,
      "瞭": 5648,
      "瞯": 5649,
      "瞰": 5650,
      "瞳": 5651,
      "瞴": 5652,
      "瞶": 5653,
      "瞷": 5654,
      "瞺": 5655,
      "瞻": 5656,
      "瞼": 5657,
      "矇": 5658,
      "矓": 5659,
      "矗": 5660,
      "矚": 5661,
      "矛": 5662,
      "矜": 5663,
      "矢": 5664,
      "矣": 5665,
      "知": 5666,
      "矩": 5667,
      "矪": 5668,
      "矫": 5669,
      "短": 5670,
      "矮": 5671,
      "矯": 5672,
      "石": 5673,
      "矶": 5674,
      "矹": 5675,
      "矽": 5676,
      "矾": 5677,
      "矿": 5678,
      "码": 5679,
      "砂": 5680,
      "砃": 5681,
      "砆": 5682,
      "砈": 5683,
      "砉": 5684,
      "砊": 5685,
      "砋": 5686,
      "砌": 5687,
      "砍": 5688,
      "砏": 5689,
      "砐": 5690,
      "砑": 5691,
      "砒": 5692,
      "砓": 5693,
      "研": 5694,
      "砕": 5695,
      "砖": 5696,
      "砘": 5697,
      "砛": 5698,
      "砝": 5699,
      "砞": 5700,
      "砣": 5701,
      "砥": 5702,
      "砦": 5703,
      "砧": 5704,
      "砩": 5705,
      "砪": 5706,
      "砫": 5707,
      "砭": 5708,
      "砯": 5709,
      "砰": 5710,
      "砱": 5711,
      "砲": 5712,
      "破": 5713,
      "砷": 5714,
      "砸": 5715,
      "砺": 5716,
      "砾": 5717,
      "础": 5718,
      "硁": 5719,
      "硂": 5720,
      "硃": 5721,
      "硄": 5722,
      "硅": 5723,
      "硈": 5724,
      "硉": 5725,
      "硋": 5726,
      "硌": 5727,
      "硐": 5728,
      "硑": 5729,
      "硒": 5730,
      "硓": 5731,
      "硔": 5732,
      "硕": 5733,
      "硖": 5734,
      "硙": 5735,
      "硚": 5736,
      "硝": 5737,
      "硪": 5738,
      "硫": 5739,
      "硬": 5740,
      "确": 5741,
      "硷": 5742,
      "硼": 5743,
      "碁": 5744,
      "碇": 5745,
      "碈": 5746,
      "碉": 5747,
      "碊": 5748,
      "碌": 5749,
      "碍": 5750,
      "碎": 5751,
      "碑": 5752,
      "碓": 5753,
      "碔": 5754,
      "碕": 5755,
      "碗": 5756,
      "碘": 5757,
      "碙": 5758,
      "碜": 5759,
      "碝": 5760,
      "碞": 5761,
      "碟": 5762,
      "碧": 5763,
      "碩": 5764,
      "碪": 5765,
      "碭": 5766,
      "碰": 5767,
      "碱": 5768,
      "碲": 5769,
      "碳": 5770,
      "碴": 5771,
      "確": 5772,
      "碼": 5773,
      "碾": 5774,
      "碿": 5775,
      "磀": 5776,
      "磁": 5777,
      "磅": 5778,
      "磊": 5779,
      "磋": 5780,
      "磐": 5781,
      "磑": 5782,
      "磔": 5783,
      "磕": 5784,
      "磖": 5785,
      "磚": 5786,
      "磝": 5787,
      "磞": 5788,
      "磨": 5789,
      "磯": 5790,
      "磷": 5791,
      "磺": 5792,
      "礁": 5793,
      "礎": 5794,
      "礙": 5795,
      "礚": 5796,
      "礛": 5797,
      "礟": 5798,
      "礢": 5799,
      "礦": 5800,
      "礨": 5801,
      "礩": 5802,
      "礫": 5803,
      "礴": 5804,
      "礶": 5805,
      "礷": 5806,
      "礹": 5807,
      "示": 5808,
      "礼": 5809,
      "社": 5810,
      "礿": 5811,
      "祀": 5812,
      "祁": 5813,
      "祂": 5814,
      "祅": 5815,
      "祇": 5816,
      "祈": 5817,
      "祉": 5818,
      "祍": 5819,
      "祏": 5820,
      "祐": 5821,
      "祑": 5822,
      "祓": 5823,
      "祔": 5824,
      "祕": 5825,
      "祖": 5826,
      "祗": 5827,
      "祘": 5828,
      "祙": 5829,
      "祛": 5830,
      "祜": 5831,
      "祝": 5832,
      "神": 5833,
      "祟": 5834,
      "祠": 5835,
      "祢": 5836,
      "祥": 5837,
      "祧": 5838,
      "票": 5839,
      "祩": 5840,
      "祭": 5841,
      "祷": 5842,
      "祸": 5843,
      "祺": 5844,
      "祿": 5845,
      "禀": 5846,
      "禁": 5847,
      "禄": 5848,
      "禅": 5849,
      "禍": 5850,
      "禎": 5851,
      "福": 5852,
      "禔": 5853,
      "禗": 5854,
      "禘": 5855,
      "禜": 5856,
      "禟": 5857,
      "禣": 5858,
      "禥": 5859,
      "禦": 5860,
      "禧": 5861,
      "禪": 5862,
      "禫": 5863,
      "禬": 5864,
      "禭": 5865,
      "禮": 5866,
      "禯": 5867,
      "禰": 5868,
      "禱": 5869,
      "禲": 5870,
      "禴": 5871,
      "禸": 5872,
      "禺": 5873,
      "离": 5874,
      "禼": 5875,
      "禽": 5876,
      "禾": 5877,
      "禿": 5878,
      "秀": 5879,
      "私": 5880,
      "秂": 5881,
      "秃": 5882,
      "秅": 5883,
      "秆": 5884,
      "秈": 5885,
      "秉": 5886,
      "秋": 5887,
      "种": 5888,
      "秎": 5889,
      "秏": 5890,
      "科": 5891,
      "秒": 5892,
      "秖": 5893,
      "秘": 5894,
      "秝": 5895,
      "租": 5896,
      "秤": 5897,
      "秦": 5898,
      "秧": 5899,
      "秨": 5900,
      "秩": 5901,
      "秪": 5902,
      "积": 5903,
      "称": 5904,
      "秶": 5905,
      "秸": 5906,
      "移": 5907,
      "秽": 5908,
      "稀": 5909,
      "稂": 5910,
      "稅": 5911,
      "程": 5912,
      "稍": 5913,
      "税": 5914,
      "稔": 5915,
      "稗": 5916,
      "稚": 5917,
      "稜": 5918,
      "稟": 5919,
      "稠": 5920,
      "稣": 5921,
      "稦": 5922,
      "稬": 5923,
      "種": 5924,
      "稰": 5925,
      "稱": 5926,
      "稲": 5927,
      "稳": 5928,
      "稴": 5929,
      "稵": 5930,
      "稶": 5931,
      "稷": 5932,
      "稺": 5933,
      "稻": 5934,
      "稼": 5935,
      "稽": 5936,
      "稿": 5937,
      "穀": 5938,
      "穂": 5939,
      "穆": 5940,
      "穌": 5941,
      "積": 5942,
      "穎": 5943,
      "穏": 5944,
      "穐": 5945,
      "穑": 5946,
      "穒": 5947,
      "穓": 5948,
      "穕": 5949,
      "穖": 5950,
      "穗": 5951,
      "穘": 5952,
      "穚": 5953,
      "穛": 5954,
      "穝": 5955,
      "穢": 5956,
      "穦": 5957,
      "穨": 5958,
      "穩": 5959,
      "穫": 5960,
      "穰": 5961,
      "穱": 5962,
      "穴": 5963,
      "究": 5964,
      "穷": 5965,
      "穹": 5966,
      "空": 5967,
      "穻": 5968,
      "穿": 5969,
      "突": 5970,
      "窃": 5971,
      "窄": 5972,
      "窈": 5973,
      "窍": 5974,
      "窑": 5975,
      "窒": 5976,
      "窓": 5977,
      "窕": 5978,
      "窖": 5979,
      "窗": 5980,
      "窘": 5981,
      "窜": 5982,
      "窝": 5983,
      "窟": 5984,
      "窠": 5985,
      "窥": 5986,
      "窦": 5987,
      "窩": 5988,
      "窪": 5989,
      "窮": 5990,
      "窯": 5991,
      "窰": 5992,
      "窱": 5993,
      "窵": 5994,
      "窸": 5995,
      "窺": 5996,
      "窽": 5997,
      "窾": 5998,
      "窿": 5999,
      "竃": 6000,
      "竄": 6001,
      "竅": 6002,
      "竇": 6003,
      "竊": 6004,
      "立": 6005,
      "竒": 6006,
      "竕": 6007,
      "竖": 6008,
      "站": 6009,
      "竚": 6010,
      "竛": 6011,
      "竜": 6012,
      "竝": 6013,
      "竞": 6014,
      "竟": 6015,
      "章": 6016,
      "竡": 6017,
      "竣": 6018,
      "竤": 6019,
      "童": 6020,
      "竦": 6021,
      "竧": 6022,
      "竨": 6023,
      "竪": 6024,
      "竬": 6025,
      "竭": 6026,
      "竮": 6027,
      "端": 6028,
      "竲": 6029,
      "竳": 6030,
      "競": 6031,
      "竹": 6032,
      "竺": 6033,
      "竽": 6034,
      "竿": 6035,
      "笃": 6036,
      "笆": 6037,
      "笈": 6038,
      "笋": 6039,
      "笑": 6040,
      "笔": 6041,
      "笘": 6042,
      "笙": 6043,
      "笛": 6044,
      "笞": 6045,
      "笠": 6046,
      "笢": 6047,
      "笥": 6048,
      "符": 6049,
      "笨": 6050,
      "第": 6051,
      "笭": 6052,
      "笰": 6053,
      "笱": 6054,
      "笲": 6055,
      "笳": 6056,
      "笴": 6057,
      "笵": 6058,
      "笷": 6059,
      "笹": 6060,
      "笺": 6061,
      "笻": 6062,
      "笼": 6063,
      "笿": 6064,
      "筁": 6065,
      "筂": 6066,
      "筆": 6067,
      "筈": 6068,
      "等": 6069,
      "筋": 6070,
      "筍": 6071,
      "筎": 6072,
      "筏": 6073,
      "筐": 6074,
      "筑": 6075,
      "筒": 6076,
      "答": 6077,
      "策": 6078,
      "筛": 6079,
      "筝": 6080,
      "筠": 6081,
      "筧": 6082,
      "筱": 6083,
      "筳": 6084,
      "筴": 6085,
      "筵": 6086,
      "筷": 6087,
      "筹": 6088,
      "筽": 6089,
      "签": 6090,
      "筿": 6091,
      "简": 6092,
      "箂": 6093,
      "箄": 6094,
      "箇": 6095,
      "箉": 6096,
      "箋": 6097,
      "箍": 6098,
      "箎": 6099,
      "箒": 6100,
      "箔": 6101,
      "算": 6102,
      "箝": 6103,
      "管": 6104,
      "箩": 6105,
      "箪": 6106,
      "箫": 6107,
      "箬": 6108,
      "箭": 6109,
      "箱": 6110,
      "箴": 6111,
      "箸": 6112,
      "節": 6113,
      "範": 6114,
      "篆": 6115,
      "篇": 6116,
      "篈": 6117,
      "築": 6118,
      "篊": 6119,
      "篋": 6120,
      "篏": 6121,
      "篑": 6122,
      "篓": 6123,
      "篗": 6124,
      "篙": 6125,
      "篝": 6126,
      "篟": 6127,
      "篠": 6128,
      "篡": 6129,
      "篤": 6130,
      "篦": 6131,
      "篪": 6132,
      "篫": 6133,
      "篭": 6134,
      "篮": 6135,
      "篱": 6136,
      "篴": 6137,
      "篶": 6138,
      "篷": 6139,
      "篽": 6140,
      "篾": 6141,
      "簀": 6142,
      "簆": 6143,
      "簇": 6144,
      "簈": 6145,
      "簍": 6146,
      "簎": 6147,
      "簑": 6148,
      "簒": 6149,
      "簘": 6150,
      "簙": 6151,
      "簡": 6152,
      "簧": 6153,
      "簫": 6154,
      "簸": 6155,
      "簽": 6156,
      "簾": 6157,
      "簿": 6158,
      "籁": 6159,
      "籃": 6160,
      "籄": 6161,
      "籇": 6162,
      "籈": 6163,
      "籊": 6164,
      "籌": 6165,
      "籍": 6166,
      "籏": 6167,
      "籐": 6168,
      "籓": 6169,
      "籔": 6170,
      "籖": 6171,
      "籘": 6172,
      "籜": 6173,
      "籟": 6174,
      "籠": 6175,
      "籤": 6176,
      "籥": 6177,
      "籩": 6178,
      "籬": 6179,
      "籮": 6180,
      "籯": 6181,
      "籲": 6182,
      "米": 6183,
      "籴": 6184,
      "籹": 6185,
      "类": 6186,
      "籽": 6187,
      "籾": 6188,
      "粁": 6189,
      "粂": 6190,
      "粃": 6191,
      "粄": 6192,
      "粆": 6193,
      "粇": 6194,
      "粉": 6195,
      "粋": 6196,
      "粑": 6197,
      "粒": 6198,
      "粕": 6199,
      "粖": 6200,
      "粗": 6201,
      "粘": 6202,
      "粛": 6203,
      "粟": 6204,
      "粤": 6205,
      "粥": 6206,
      "粧": 6207,
      "粪": 6208,
      "粮": 6209,
      "粱": 6210,
      "粹": 6211,
      "粽": 6212,
      "精": 6213,
      "粿": 6214,
      "糃": 6215,
      "糅": 6216,
      "糉": 6217,
      "糊": 6218,
      "糋": 6219,
      "糎": 6220,
      "糐": 6221,
      "糑": 6222,
      "糒": 6223,
      "糓": 6224,
      "糔": 6225,
      "糕": 6226,
      "糖": 6227,
      "糗": 6228,
      "糙": 6229,
      "糛": 6230,
      "糞": 6231,
      "糟": 6232,
      "糠": 6233,
      "糤": 6234,
      "糧": 6235,
      "糯": 6236,
      "糴": 6237,
      "糵": 6238,
      "糶": 6239,
      "糷": 6240,
      "糸": 6241,
      "糺": 6242,
      "系": 6243,
      "糽": 6244,
      "糾": 6245,
      "紀": 6246,
      "紁": 6247,
      "約": 6248,
      "紅": 6249,
      "紆": 6250,
      "紇": 6251,
      "紈": 6252,
      "紊": 6253,
      "紋": 6254,
      "紌": 6255,
      "納": 6256,
      "紏": 6257,
      "紐": 6258,
      "純": 6259,
      "紗": 6260,
      "紙": 6261,
      "級": 6262,
      "紛": 6263,
      "素": 6264,
      "紡": 6265,
      "索": 6266,
      "紧": 6267,
      "紫": 6268,
      "紮": 6269,
      "累": 6270,
      "細": 6271,
      "紲": 6272,
      "紳": 6273,
      "紹": 6274,
      "紺": 6275,
      "紽": 6276,
      "紿": 6277,
      "終": 6278,
      "絃": 6279,
      "組": 6280,
      "絆": 6281,
      "絉": 6282,
      "絊": 6283,
      "絋": 6284,
      "経": 6285,
      "絏": 6286,
      "結": 6287,
      "絒": 6288,
      "絕": 6289,
      "絘": 6290,
      "絙": 6291,
      "絚": 6292,
      "絛": 6293,
      "絞": 6294,
      "絡": 6295,
      "絢": 6296,
      "絤": 6297,
      "給": 6298,
      "絨": 6299,
      "絩": 6300,
      "絪": 6301,
      "絫": 6302,
      "絬": 6303,
      "絮": 6304,
      "絰": 6305,
      "統": 6306,
      "絲": 6307,
      "絴": 6308,
      "絵": 6309,
      "絶": 6310,
      "絹": 6311,
      "絿": 6312,
      "綁": 6313,
      "綑": 6314,
      "經": 6315,
      "継": 6316,
      "続": 6317,
      "綜": 6318,
      "綝": 6319,
      "綟": 6320,
      "綠": 6321,
      "綢": 6322,
      "綣": 6323,
      "綤": 6324,
      "綪": 6325,
      "維": 6326,
      "綮": 6327,
      "綰": 6328,
      "綱": 6329,
      "網": 6330,
      "綴": 6331,
      "綵": 6332,
      "綸": 6333,
      "綺": 6334,
      "綻": 6335,
      "綼": 6336,
      "綽": 6337,
      "綾": 6338,
      "綿": 6339,
      "緄": 6340,
      "緅": 6341,
      "緇": 6342,
      "緊": 6343,
      "緋": 6344,
      "緍": 6345,
      "総": 6346,
      "緑": 6347,
      "緒": 6348,
      "緓": 6349,
      "緖": 6350,
      "緘": 6351,
      "緙": 6352,
      "線": 6353,
      "緝": 6354,
      "緞": 6355,
      "締": 6356,
      "緣": 6357,
      "編": 6358,
      "緩": 6359,
      "緬": 6360,
      "緯": 6361,
      "練": 6362,
      "緸": 6363,
      "緻": 6364,
      "緼": 6365,
      "緽": 6366,
      "縀": 6367,
      "縁": 6368,
      "縄": 6369,
      "縇": 6370,
      "縈": 6371,
      "縉": 6372,
      "縊": 6373,
      "縋": 6374,
      "縎": 6375,
      "縐": 6376,
      "縒": 6377,
      "縛": 6378,
      "縞": 6379,
      "縡": 6380,
      "縣": 6381,
      "縤": 6382,
      "縦": 6383,
      "縩": 6384,
      "縫": 6385,
      "縬": 6386,
      "縮": 6387,
      "縱": 6388,
      "縷": 6389,
      "縸": 6390,
      "總": 6391,
      "績": 6392,
      "繁": 6393,
      "繃": 6394,
      "繆": 6395,
      "繊": 6396,
      "繋": 6397,
      "繍": 6398,
      "織": 6399,
      "繕": 6400,
      "繚": 6401,
      "繞": 6402,
      "繡": 6403,
      "繥": 6404,
      "繦": 6405,
      "繧": 6406,
      "繨": 6407,
      "繩": 6408,
      "繪": 6409,
      "繫": 6410,
      "繭": 6411,
      "繰": 6412,
      "繳": 6413,
      "繵": 6414,
      "繷": 6415,
      "繹": 6416,
      "繺": 6417,
      "繻": 6418,
      "繼": 6419,
      "繽": 6420,
      "繿": 6421,
      "纂": 6422,
      "纄": 6423,
      "纉": 6424,
      "纊": 6425,
      "續": 6426,
      "纏": 6427,
      "纐": 6428,
      "纒": 6429,
      "纓": 6430,
      "纔": 6431,
      "纕": 6432,
      "纖": 6433,
      "纗": 6434,
      "纘": 6435,
      "纜": 6436,
      "纞": 6437,
      "纠": 6438,
      "红": 6439,
      "纣": 6440,
      "纤": 6441,
      "约": 6442,
      "级": 6443,
      "纨": 6444,
      "纪": 6445,
      "纫": 6446,
      "纬": 6447,
      "纭": 6448,
      "纯": 6449,
      "纰": 6450,
      "纱": 6451,
      "纲": 6452,
      "纳": 6453,
      "纵": 6454,
      "纶": 6455,
      "纷": 6456,
      "纸": 6457,
      "纹": 6458,
      "纺": 6459,
      "纽": 6460,
      "纾": 6461,
      "线": 6462,
      "练": 6463,
      "组": 6464,
      "绅": 6465,
      "细": 6466,
      "织": 6467,
      "终": 6468,
      "绉": 6469,
      "绊": 6470,
      "绌": 6471,
      "绍": 6472,
      "绎": 6473,
      "经": 6474,
      "绑": 6475,
      "绒": 6476,
      "结": 6477,
      "绔": 6478,
      "绕": 6479,
      "绘": 6480,
      "给": 6481,
      "绚": 6482,
      "绛": 6483,
      "络": 6484,
      "绝": 6485,
      "绞": 6486,
      "统": 6487,
      "绢": 6488,
      "绣": 6489,
      "绥": 6490,
      "绦": 6491,
      "继": 6492,
      "绩": 6493,
      "绪": 6494,
      "续": 6495,
      "绮": 6496,
      "绯": 6497,
      "绰": 6498,
      "绳": 6499,
      "维": 6500,
      "绵": 6501,
      "绶": 6502,
      "绷": 6503,
      "绸": 6504,
      "综": 6505,
      "绽": 6506,
      "绿": 6507,
      "缀": 6508,
      "缄": 6509,
      "缅": 6510,
      "缆": 6511,
      "缇": 6512,
      "缈": 6513,
      "缉": 6514,
      "缎": 6515,
      "缒": 6516,
      "缓": 6517,
      "缔": 6518,
      "缕": 6519,
      "编": 6520,
      "缘": 6521,
      "缙": 6522,
      "缚": 6523,
      "缛": 6524,
      "缜": 6525,
      "缝": 6526,
      "缠": 6527,
      "缡": 6528,
      "缢": 6529,
      "缤": 6530,
      "缥": 6531,
      "缨": 6532,
      "缩": 6533,
      "缪": 6534,
      "缫": 6535,
      "缬": 6536,
      "缭": 6537,
      "缮": 6538,
      "缯": 6539,
      "缰": 6540,
      "缴": 6541,
      "缶": 6542,
      "缷": 6543,
      "缸": 6544,
      "缺": 6545,
      "缽": 6546,
      "罂": 6547,
      "罄": 6548,
      "罌": 6549,
      "罎": 6550,
      "罐": 6551,
      "网": 6552,
      "罔": 6553,
      "罕": 6554,
      "罖": 6555,
      "罗": 6556,
      "罙": 6557,
      "罚": 6558,
      "罠": 6559,
      "罢": 6560,
      "罩": 6561,
      "罪": 6562,
      "置": 6563,
      "罰": 6564,
      "署": 6565,
      "罵": 6566,
      "罷": 6567,
      "罹": 6568,
      "罺": 6569,
      "罽": 6570,
      "罾": 6571,
      "羁": 6572,
      "羅": 6573,
      "羆": 6574,
      "羇": 6575,
      "羈": 6576,
      "羊": 6577,
      "羌": 6578,
      "美": 6579,
      "羔": 6580,
      "羘": 6581,
      "羙": 6582,
      "羚": 6583,
      "羛": 6584,
      "羞": 6585,
      "羟": 6586,
      "羡": 6587,
      "羣": 6588,
      "群": 6589,
      "羦": 6590,
      "羨": 6591,
      "義": 6592,
      "羪": 6593,
      "羬": 6594,
      "羭": 6595,
      "羯": 6596,
      "羰": 6597,
      "羲": 6598,
      "羶": 6599,
      "羸": 6600,
      "羹": 6601,
      "羽": 6602,
      "翁": 6603,
      "翅": 6604,
      "翊": 6605,
      "翌": 6606,
      "翎": 6607,
      "習": 6608,
      "翔": 6609,
      "翘": 6610,
      "翠": 6611,
      "翡": 6612,
      "翦": 6613,
      "翧": 6614,
      "翩": 6615,
      "翰": 6616,
      "翱": 6617,
      "翳": 6618,
      "翴": 6619,
      "翹": 6620,
      "翺": 6621,
      "翻": 6622,
      "翼": 6623,
      "耀": 6624,
      "老": 6625,
      "考": 6626,
      "耄": 6627,
      "者": 6628,
      "耆": 6629,
      "耋": 6630,
      "而": 6631,
      "耍": 6632,
      "耐": 6633,
      "耑": 6634,
      "耕": 6635,
      "耗": 6636,
      "耘": 6637,
      "耙": 6638,
      "耚": 6639,
      "耞": 6640,
      "耡": 6641,
      "耤": 6642,
      "耦": 6643,
      "耫": 6644,
      "耭": 6645,
      "耳": 6646,
      "耴": 6647,
      "耶": 6648,
      "耷": 6649,
      "耸": 6650,
      "耻": 6651,
      "耽": 6652,
      "耿": 6653,
      "聂": 6654,
      "聆": 6655,
      "聊": 6656,
      "聋": 6657,
      "职": 6658,
      "聐": 6659,
      "聒": 6660,
      "联": 6661,
      "聕": 6662,
      "聖": 6663,
      "聘": 6664,
      "聚": 6665,
      "聞": 6666,
      "聡": 6667,
      "聩": 6668,
      "聪": 6669,
      "聯": 6670,
      "聰": 6671,
      "聲": 6672,
      "聳": 6673,
      "聴": 6674,
      "聶": 6675,
      "職": 6676,
      "聼": 6677,
      "聽": 6678,
      "聾": 6679,
      "肃": 6680,
      "肄": 6681,
      "肅": 6682,
      "肆": 6683,
      "肇": 6684,
      "肈": 6685,
      "肉": 6686,
      "肋": 6687,
      "肌": 6688,
      "肏": 6689,
      "肓": 6690,
      "肖": 6691,
      "肘": 6692,
      "肚": 6693,
      "肛": 6694,
      "肝": 6695,
      "肞": 6696,
      "肠": 6697,
      "股": 6698,
      "肢": 6699,
      "肤": 6700,
      "肥": 6701,
      "肩": 6702,
      "肪": 6703,
      "肫": 6704,
      "肮": 6705,
      "肯": 6706,
      "肱": 6707,
      "育": 6708,
      "肴": 6709,
      "肺": 6710,
      "肽": 6711,
      "肾": 6712,
      "肿": 6713,
      "胀": 6714,
      "胁": 6715,
      "胃": 6716,
      "胄": 6717,
      "胆": 6718,
      "胊": 6719,
      "背": 6720,
      "胎": 6721,
      "胐": 6722,
      "胑": 6723,
      "胔": 6724,
      "胕": 6725,
      "胖": 6726,
      "胚": 6727,
      "胛": 6728,
      "胜": 6729,
      "胞": 6730,
      "胠": 6731,
      "胡": 6732,
      "胥": 6733,
      "胧": 6734,
      "胫": 6735,
      "胭": 6736,
      "胯": 6737,
      "胰": 6738,
      "胱": 6739,
      "胳": 6740,
      "胴": 6741,
      "胶": 6742,
      "胸": 6743,
      "胺": 6744,
      "胻": 6745,
      "能": 6746,
      "脂": 6747,
      "脄": 6748,
      "脅": 6749,
      "脆": 6750,
      "脇": 6751,
      "脈": 6752,
      "脉": 6753,
      "脊": 6754,
      "脋": 6755,
      "脏": 6756,
      "脐": 6757,
      "脑": 6758,
      "脓": 6759,
      "脔": 6760,
      "脖": 6761,
      "脚": 6762,
      "脛": 6763,
      "脫": 6764,
      "脯": 6765,
      "脱": 6766,
      "脳": 6767,
      "脸": 6768,
      "脹": 6769,
      "脾": 6770,
      "腀": 6771,
      "腃": 6772,
      "腆": 6773,
      "腇": 6774,
      "腈": 6775,
      "腉": 6776,
      "腊": 6777,
      "腋": 6778,
      "腌": 6779,
      "腎": 6780,
      "腐": 6781,
      "腑": 6782,
      "腓": 6783,
      "腔": 6784,
      "腕": 6785,
      "腞": 6786,
      "腟": 6787,
      "腢": 6788,
      "腥": 6789,
      "腦": 6790,
      "腨": 6791,
      "腩": 6792,
      "腪": 6793,
      "腫": 6794,
      "腭": 6795,
      "腮": 6796,
      "腯": 6797,
      "腰": 6798,
      "腱": 6799,
      "腳": 6800,
      "腴": 6801,
      "腶": 6802,
      "腸": 6803,
      "腹": 6804,
      "腺": 6805,
      "腻": 6806,
      "腼": 6807,
      "腾": 6808,
      "腿": 6809,
      "膀": 6810,
      "膅": 6811,
      "膈": 6812,
      "膊": 6813,
      "膎": 6814,
      "膏": 6815,
      "膐": 6816,
      "膑": 6817,
      "膒": 6818,
      "膘": 6819,
      "膚": 6820,
      "膛": 6821,
      "膜": 6822,
      "膝": 6823,
      "膞": 6824,
      "膠": 6825,
      "膣": 6826,
      "膥": 6827,
      "膨": 6828,
      "膩": 6829,
      "膳": 6830,
      "膵": 6831,
      "膺": 6832,
      "膽": 6833,
      "膿": 6834,
      "臀": 6835,
      "臂": 6836,
      "臃": 6837,
      "臆": 6838,
      "臈": 6839,
      "臉": 6840,
      "臊": 6841,
      "臍": 6842,
      "臓": 6843,
      "臔": 6844,
      "臘": 6845,
      "臚": 6846,
      "臛": 6847,
      "臟": 6848,
      "臣": 6849,
      "臥": 6850,
      "臦": 6851,
      "臨": 6852,
      "臩": 6853,
      "自": 6854,
      "臫": 6855,
      "臭": 6856,
      "臮": 6857,
      "臱": 6858,
      "至": 6859,
      "致": 6860,
      "臷": 6861,
      "臸": 6862,
      "臺": 6863,
      "臻": 6864,
      "臼": 6865,
      "臽": 6866,
      "舀": 6867,
      "舂": 6868,
      "舅": 6869,
      "舆": 6870,
      "與": 6871,
      "興": 6872,
      "舉": 6873,
      "舊": 6874,
      "舌": 6875,
      "舍": 6876,
      "舎": 6877,
      "舐": 6878,
      "舒": 6879,
      "舔": 6880,
      "舖": 6881,
      "舗": 6882,
      "舘": 6883,
      "舛": 6884,
      "舜": 6885,
      "舞": 6886,
      "舟": 6887,
      "舠": 6888,
      "舦": 6889,
      "舧": 6890,
      "舩": 6891,
      "航": 6892,
      "舫": 6893,
      "般": 6894,
      "舮": 6895,
      "舰": 6896,
      "舱": 6897,
      "舵": 6898,
      "舶": 6899,
      "舷": 6900,
      "船": 6901,
      "舺": 6902,
      "艀": 6903,
      "艇": 6904,
      "艉": 6905,
      "艋": 6906,
      "艘": 6907,
      "艙": 6908,
      "艦": 6909,
      "艮": 6910,
      "良": 6911,
      "艰": 6912,
      "艱": 6913,
      "色": 6914,
      "艳": 6915,
      "艶": 6916,
      "艷": 6917,
      "艹": 6918,
      "艺": 6919,
      "艼": 6920,
      "艾": 6921,
      "节": 6922,
      "芅": 6923,
      "芉": 6924,
      "芋": 6925,
      "芍": 6926,
      "芒": 6927,
      "芔": 6928,
      "芖": 6929,
      "芙": 6930,
      "芚": 6931,
      "芛": 6932,
      "芜": 6933,
      "芝": 6934,
      "芠": 6935,
      "芥": 6936,
      "芦": 6937,
      "芬": 6938,
      "芭": 6939,
      "芮": 6940,
      "芯": 6941,
      "花": 6942,
      "芲": 6943,
      "芳": 6944,
      "芴": 6945,
      "芶": 6946,
      "芷": 6947,
      "芸": 6948,
      "芹": 6949,
      "芻": 6950,
      "芽": 6951,
      "芾": 6952,
      "苀": 6953,
      "苂": 6954,
      "苅": 6955,
      "苇": 6956,
      "苍": 6957,
      "苏": 6958,
      "苑": 6959,
      "苒": 6960,
      "苓": 6961,
      "苔": 6962,
      "苗": 6963,
      "苘": 6964,
      "苛": 6965,
      "苜": 6966,
      "苝": 6967,
      "苞": 6968,
      "苟": 6969,
      "苣": 6970,
      "苤": 6971,
      "若": 6972,
      "苦": 6973,
      "苯": 6974,
      "英": 6975,
      "苳": 6976,
      "苷": 6977,
      "苹": 6978,
      "苺": 6979,
      "茁": 6980,
      "茂": 6981,
      "范": 6982,
      "茄": 6983,
      "茅": 6984,
      "茉": 6985,
      "茍": 6986,
      "茎": 6987,
      "茗": 6988,
      "茛": 6989,
      "茜": 6990,
      "茞": 6991,
      "茧": 6992,
      "茨": 6993,
      "茫": 6994,
      "茬": 6995,
      "茱": 6996,
      "茲": 6997,
      "茴": 6998,
      "茵": 6999,
      "茶": 7000,
      "茸": 7001,
      "茹": 7002,
      "荀": 7003,
      "荃": 7004,
      "荆": 7005,
      "草": 7006,
      "荊": 7007,
      "荎": 7008,
      "荏": 7009,
      "荐": 7010,
      "荒": 7011,
      "荔": 7012,
      "荘": 7013,
      "荚": 7014,
      "荜": 7015,
      "荟": 7016,
      "荡": 7017,
      "荣": 7018,
      "荤": 7019,
      "荧": 7020,
      "荨": 7021,
      "荪": 7022,
      "荫": 7023,
      "药": 7024,
      "荳": 7025,
      "荷": 7026,
      "荻": 7027,
      "荼": 7028,
      "荽": 7029,
      "莅": 7030,
      "莆": 7031,
      "莉": 7032,
      "莊": 7033,
      "莎": 7034,
      "莓": 7035,
      "莖": 7036,
      "莞": 7037,
      "莠": 7038,
      "莢": 7039,
      "莪": 7040,
      "莫": 7041,
      "莰": 7042,
      "莱": 7043,
      "莲": 7044,
      "获": 7045,
      "莹": 7046,
      "莺": 7047,
      "莽": 7048,
      "菁": 7049,
      "菅": 7050,
      "菇": 7051,
      "菈": 7052,
      "菊": 7053,
      "菌": 7054,
      "菏": 7055,
      "菓": 7056,
      "菜": 7057,
      "菝": 7058,
      "菠": 7059,
      "菩": 7060,
      "華": 7061,
      "菱": 7062,
      "菲": 7063,
      "菴": 7064,
      "菸": 7065,
      "萃": 7066,
      "萄": 7067,
      "萇": 7068,
      "萊": 7069,
      "萌": 7070,
      "萍": 7071,
      "萎": 7072,
      "萘": 7073,
      "萜": 7074,
      "萝": 7075,
      "萠": 7076,
      "萤": 7077,
      "营": 7078,
      "萦": 7079,
      "萧": 7080,
      "萨": 7081,
      "萩": 7082,
      "萬": 7083,
      "萱": 7084,
      "萵": 7085,
      "萸": 7086,
      "萺": 7087,
      "萼": 7088,
      "落": 7089,
      "葆": 7090,
      "葉": 7091,
      "著": 7092,
      "葚": 7093,
      "葛": 7094,
      "葡": 7095,
      "董": 7096,
      "葦": 7097,
      "葩": 7098,
      "葫": 7099,
      "葬": 7100,
      "葭": 7101,
      "葱": 7102,
      "葳": 7103,
      "葵": 7104,
      "葷": 7105,
      "葺": 7106,
      "蒂": 7107,
      "蒋": 7108,
      "蒐": 7109,
      "蒔": 7110,
      "蒙": 7111,
      "蒜": 7112,
      "蒞": 7113,
      "蒠": 7114,
      "蒡": 7115,
      "蒲": 7116,
      "蒳": 7117,
      "蒸": 7118,
      "蒼": 7119,
      "蒿": 7120,
      "蓄": 7121,
      "蓉": 7122,
      "蓋": 7123,
      "蓑": 7124,
      "蓓": 7125,
      "蓖": 7126,
      "蓝": 7127,
      "蓟": 7128,
      "蓦": 7129,
      "蓬": 7130,
      "蓮": 7131,
      "蓼": 7132,
      "蓿": 7133,
      "蔑": 7134,
      "蔓": 7135,
      "蔔": 7136,
      "蔗": 7137,
      "蔚": 7138,
      "蔡": 7139,
      "蔣": 7140,
      "蔥": 7141,
      "蔫": 7142,
      "蔬": 7143,
      "蔭": 7144,
      "蔵": 7145,
      "蔷": 7146,
      "蔻": 7147,
      "蔼": 7148,
      "蔽": 7149,
      "蕁": 7150,
      "蕃": 7151,
      "蕈": 7152,
      "蕉": 7153,
      "蕊": 7154,
      "蕓": 7155,
      "蕗": 7156,
      "蕙": 7157,
      "蕞": 7158,
      "蕨": 7159,
      "蕩": 7160,
      "蕪": 7161,
      "蕭": 7162,
      "蕴": 7163,
      "蕾": 7164,
      "薃": 7165,
      "薄": 7166,
      "薇": 7167,
      "薊": 7168,
      "薏": 7169,
      "薑": 7170,
      "薔": 7171,
      "薙": 7172,
      "薛": 7173,
      "薜": 7174,
      "薦": 7175,
      "薩": 7176,
      "薪": 7177,
      "薫": 7178,
      "薬": 7179,
      "薮": 7180,
      "薯": 7181,
      "薰": 7182,
      "藁": 7183,
      "藉": 7184,
      "藍": 7185,
      "藏": 7186,
      "藐": 7187,
      "藓": 7188,
      "藕": 7189,
      "藜": 7190,
      "藝": 7191,
      "藤": 7192,
      "藥": 7193,
      "藩": 7194,
      "藪": 7195,
      "藷": 7196,
      "藻": 7197,
      "藿": 7198,
      "蘃": 7199,
      "蘇": 7200,
      "蘊": 7201,
      "蘋": 7202,
      "蘑": 7203,
      "蘭": 7204,
      "蘸": 7205,
      "蘼": 7206,
      "蘿": 7207,
      "虎": 7208,
      "虏": 7209,
      "虐": 7210,
      "虑": 7211,
      "虔": 7212,
      "處": 7213,
      "虚": 7214,
      "虛": 7215,
      "虜": 7216,
      "虞": 7217,
      "號": 7218,
      "虧": 7219,
      "虫": 7220,
      "虱": 7221,
      "虷": 7222,
      "虹": 7223,
      "虻": 7224,
      "虼": 7225,
      "虽": 7226,
      "虾": 7227,
      "蚀": 7228,
      "蚁": 7229,
      "蚂": 7230,
      "蚊": 7231,
      "蚋": 7232,
      "蚌": 7233,
      "蚓": 7234,
      "蚔": 7235,
      "蚕": 7236,
      "蚗": 7237,
      "蚚": 7238,
      "蚜": 7239,
      "蚝": 7240,
      "蚣": 7241,
      "蚤": 7242,
      "蚩": 7243,
      "蚪": 7244,
      "蚬": 7245,
      "蚯": 7246,
      "蚱": 7247,
      "蚳": 7248,
      "蚾": 7249,
      "蛀": 7250,
      "蛁": 7251,
      "蛂": 7252,
      "蛆": 7253,
      "蛇": 7254,
      "蛊": 7255,
      "蛋": 7256,
      "蛍": 7257,
      "蛎": 7258,
      "蛐": 7259,
      "蛔": 7260,
      "蛙": 7261,
      "蛛": 7262,
      "蛞": 7263,
      "蛟": 7264,
      "蛤": 7265,
      "蛭": 7266,
      "蛮": 7267,
      "蛰": 7268,
      "蛸": 7269,
      "蛹": 7270,
      "蛾": 7271,
      "蜀": 7272,
      "蜂": 7273,
      "蜃": 7274,
      "蜆": 7275,
      "蜇": 7276,
      "蜈": 7277,
      "蜊": 7278,
      "蜍": 7279,
      "蜒": 7280,
      "蜓": 7281,
      "蜕": 7282,
      "蜗": 7283,
      "蜘": 7284,
      "蜚": 7285,
      "蜜": 7286,
      "蜡": 7287,
      "蜢": 7288,
      "蜥": 7289,
      "蜧": 7290,
      "蜩": 7291,
      "蜱": 7292,
      "蜴": 7293,
      "蜷": 7294,
      "蜻": 7295,
      "蜿": 7296,
      "蝇": 7297,
      "蝉": 7298,
      "蝋": 7299,
      "蝌": 7300,
      "蝎": 7301,
      "蝓": 7302,
      "蝕": 7303,
      "蝗": 7304,
      "蝙": 7305,
      "蝚": 7306,
      "蝟": 7307,
      "蝠": 7308,
      "蝦": 7309,
      "蝨": 7310,
      "蝬": 7311,
      "蝮": 7312,
      "蝰": 7313,
      "蝴": 7314,
      "蝶": 7315,
      "蝸": 7316,
      "蝽": 7317,
      "蝾": 7318,
      "蝿": 7319,
      "螁": 7320,
      "螂": 7321,
      "螃": 7322,
      "螆": 7323,
      "螇": 7324,
      "螈": 7325,
      "螉": 7326,
      "螌": 7327,
      "融": 7328,
      "螒": 7329,
      "螔": 7330,
      "螕": 7331,
      "螖": 7332,
      "螘": 7333,
      "螚": 7334,
      "螛": 7335,
      "螝": 7336,
      "螞": 7337,
      "螟": 7338,
      "螠": 7339,
      "螡": 7340,
      "螢": 7341,
      "螣": 7342,
      "螤": 7343,
      "螨": 7344,
      "螯": 7345,
      "螳": 7346,
      "螺": 7347,
      "蟀": 7348,
      "蟄": 7349,
      "蟆": 7350,
      "蟈": 7351,
      "蟋": 7352,
      "蟑": 7353,
      "蟒": 7354,
      "蟠": 7355,
      "蟥": 7356,
      "蟬": 7357,
      "蟲": 7358,
      "蟹": 7359,
      "蟺": 7360,
      "蟻": 7361,
      "蟼": 7362,
      "蟽": 7363,
      "蟾": 7364,
      "蟿": 7365,
      "蠀": 7366,
      "蠁": 7367,
      "蠂": 7368,
      "蠄": 7369,
      "蠅": 7370,
      "蠈": 7371,
      "蠉": 7372,
      "蠋": 7373,
      "蠍": 7374,
      "蠑": 7375,
      "蠔": 7376,
      "蠕": 7377,
      "蠖": 7378,
      "蠟": 7379,
      "蠢": 7380,
      "蠣": 7381,
      "蠱": 7382,
      "蠹": 7383,
      "蠻": 7384,
      "血": 7385,
      "衄": 7386,
      "衅": 7387,
      "衆": 7388,
      "行": 7389,
      "衍": 7390,
      "術": 7391,
      "衔": 7392,
      "街": 7393,
      "衙": 7394,
      "衛": 7395,
      "衝": 7396,
      "衡": 7397,
      "衣": 7398,
      "补": 7399,
      "表": 7400,
      "衩": 7401,
      "衪": 7402,
      "衫": 7403,
      "衬": 7404,
      "衭": 7405,
      "衰": 7406,
      "衲": 7407,
      "衷": 7408,
      "衹": 7409,
      "衾": 7410,
      "衿": 7411,
      "袁": 7412,
      "袂": 7413,
      "袄": 7414,
      "袈": 7415,
      "袉": 7416,
      "袋": 7417,
      "袍": 7418,
      "袒": 7419,
      "袖": 7420,
      "袛": 7421,
      "袜": 7422,
      "袤": 7423,
      "袧": 7424,
      "袨": 7425,
      "被": 7426,
      "袭": 7427,
      "袱": 7428,
      "袴": 7429,
      "裁": 7430,
      "裂": 7431,
      "装": 7432,
      "裆": 7433,
      "裋": 7434,
      "裎": 7435,
      "裏": 7436,
      "裔": 7437,
      "裕": 7438,
      "裘": 7439,
      "裙": 7440,
      "補": 7441,
      "裝": 7442,
      "裟": 7443,
      "裡": 7444,
      "裤": 7445,
      "裨": 7446,
      "裱": 7447,
      "裳": 7448,
      "裴": 7449,
      "裸": 7450,
      "裹": 7451,
      "製": 7452,
      "裾": 7453,
      "褂": 7454,
      "褄": 7455,
      "複": 7456,
      "褊": 7457,
      "褐": 7458,
      "褒": 7459,
      "褓": 7460,
      "褛": 7461,
      "褥": 7462,
      "褪": 7463,
      "褫": 7464,
      "褲": 7465,
      "褶": 7466,
      "褻": 7467,
      "襁": 7468,
      "襄": 7469,
      "襞": 7470,
      "襟": 7471,
      "襢": 7472,
      "襪": 7473,
      "襯": 7474,
      "襲": 7475,
      "西": 7476,
      "要": 7477,
      "覂": 7478,
      "覃": 7479,
      "覆": 7480,
      "覇": 7481,
      "見": 7482,
      "規": 7483,
      "覓": 7484,
      "視": 7485,
      "覗": 7486,
      "覘": 7487,
      "覚": 7488,
      "覜": 7489,
      "覧": 7490,
      "親": 7491,
      "覲": 7492,
      "観": 7493,
      "覷": 7494,
      "覺": 7495,
      "覽": 7496,
      "覿": 7497,
      "觀": 7498,
      "见": 7499,
      "观": 7500,
      "规": 7501,
      "觅": 7502,
      "视": 7503,
      "览": 7504,
      "觉": 7505,
      "觊": 7506,
      "觎": 7507,
      "觐": 7508,
      "觑": 7509,
      "角": 7510,
      "觝": 7511,
      "觞": 7512,
      "觟": 7513,
      "解": 7514,
      "触": 7515,
      "觸": 7516,
      "言": 7517,
      "訂": 7518,
      "訃": 7519,
      "訇": 7520,
      "計": 7521,
      "訊": 7522,
      "討": 7523,
      "訓": 7524,
      "訕": 7525,
      "託": 7526,
      "記": 7527,
      "訛": 7528,
      "訝": 7529,
      "訟": 7530,
      "訢": 7531,
      "訣": 7532,
      "訧": 7533,
      "訪": 7534,
      "設": 7535,
      "許": 7536,
      "訳": 7537,
      "訴": 7538,
      "診": 7539,
      "註": 7540,
      "証": 7541,
      "訾": 7542,
      "詆": 7543,
      "詈": 7544,
      "詐": 7545,
      "詔": 7546,
      "評": 7547,
      "詛": 7548,
      "詞": 7549,
      "詠": 7550,
      "詢": 7551,
      "詣": 7552,
      "試": 7553,
      "詩": 7554,
      "詪": 7555,
      "詫": 7556,
      "詭": 7557,
      "詮": 7558,
      "詰": 7559,
      "話": 7560,
      "該": 7561,
      "詳": 7562,
      "詹": 7563,
      "誂": 7564,
      "誅": 7565,
      "誇": 7566,
      "誉": 7567,
      "誊": 7568,
      "誌": 7569,
      "認": 7570,
      "誑": 7571,
      "誒": 7572,
      "誓": 7573,
      "誕": 7574,
      "誘": 7575,
      "語": 7576,
      "誠": 7577,
      "誡": 7578,
      "誣": 7579,
      "誤": 7580,
      "誦": 7581,
      "誨": 7582,
      "說": 7583,
      "説": 7584,
      "読": 7585,
      "誰": 7586,
      "課": 7587,
      "誹": 7588,
      "誼": 7589,
      "調": 7590,
      "諀": 7591,
      "談": 7592,
      "諉": 7593,
      "請": 7594,
      "諍": 7595,
      "諒": 7596,
      "論": 7597,
      "諜": 7598,
      "諢": 7599,
      "諦": 7600,
      "諧": 7601,
      "諫": 7602,
      "諭": 7603,
      "諮": 7604,
      "諱": 7605,
      "諷": 7606,
      "諸": 7607,
      "諺": 7608,
      "諾": 7609,
      "謀": 7610,
      "謁": 7611,
      "謂": 7612,
      "謄": 7613,
      "謊": 7614,
      "謎": 7615,
      "謐": 7616,
      "謔": 7617,
      "謗": 7618,
      "謙": 7619,
      "講": 7620,
      "謝": 7621,
      "謠": 7622,
      "謡": 7623,
      "謬": 7624,
      "謳": 7625,
      "謹": 7626,
      "謽": 7627,
      "謾": 7628,
      "譁": 7629,
      "證": 7630,
      "識": 7631,
      "譚": 7632,
      "譛": 7633,
      "譜": 7634,
      "譟": 7635,
      "譡": 7636,
      "警": 7637,
      "譫": 7638,
      "譬": 7639,
      "譯": 7640,
      "議": 7641,
      "譲": 7642,
      "譴": 7643,
      "護": 7644,
      "譻": 7645,
      "譽": 7646,
      "讀": 7647,
      "讃": 7648,
      "變": 7649,
      "讐": 7650,
      "讓": 7651,
      "讕": 7652,
      "讚": 7653,
      "计": 7654,
      "订": 7655,
      "讣": 7656,
      "认": 7657,
      "讥": 7658,
      "讦": 7659,
      "讧": 7660,
      "讨": 7661,
      "让": 7662,
      "讪": 7663,
      "讫": 7664,
      "讬": 7665,
      "训": 7666,
      "议": 7667,
      "讯": 7668,
      "记": 7669,
      "讲": 7670,
      "讳": 7671,
      "讴": 7672,
      "讶": 7673,
      "讷": 7674,
      "许": 7675,
      "讹": 7676,
      "论": 7677,
      "讼": 7678,
      "讽": 7679,
      "设": 7680,
      "访": 7681,
      "诀": 7682,
      "证": 7683,
      "诂": 7684,
      "诃": 7685,
      "评": 7686,
      "诅": 7687,
      "识": 7688,
      "诈": 7689,
      "诉": 7690,
      "诊": 7691,
      "诋": 7692,
      "诌": 7693,
      "词": 7694,
      "诏": 7695,
      "译": 7696,
      "诓": 7697,
      "试": 7698,
      "诖": 7699,
      "诗": 7700,
      "诘": 7701,
      "诙": 7702,
      "诚": 7703,
      "诛": 7704,
      "话": 7705,
      "诞": 7706,
      "诟": 7707,
      "诠": 7708,
      "诡": 7709,
      "询": 7710,
      "诣": 7711,
      "该": 7712,
      "详": 7713,
      "诧": 7714,
      "诨": 7715,
      "诩": 7716,
      "诫": 7717,
      "诬": 7718,
      "语": 7719,
      "误": 7720,
      "诱": 7721,
      "诲": 7722,
      "说": 7723,
      "诵": 7724,
      "诶": 7725,
      "请": 7726,
      "诸": 7727,
      "诹": 7728,
      "诺": 7729,
      "读": 7730,
      "诽": 7731,
      "课": 7732,
      "诿": 7733,
      "谀": 7734,
      "谁": 7735,
      "谂": 7736,
      "调": 7737,
      "谄": 7738,
      "谅": 7739,
      "谆": 7740,
      "谈": 7741,
      "谊": 7742,
      "谋": 7743,
      "谌": 7744,
      "谍": 7745,
      "谎": 7746,
      "谏": 7747,
      "谐": 7748,
      "谑": 7749,
      "谓": 7750,
      "谔": 7751,
      "谕": 7752,
      "谗": 7753,
      "谘": 7754,
      "谙": 7755,
      "谚": 7756,
      "谛": 7757,
      "谜": 7758,
      "谟": 7759,
      "谢": 7760,
      "谣": 7761,
      "谤": 7762,
      "谦": 7763,
      "谧": 7764,
      "谨": 7765,
      "谩": 7766,
      "谬": 7767,
      "谭": 7768,
      "谰": 7769,
      "谱": 7770,
      "谲": 7771,
      "谴": 7772,
      "谶": 7773,
      "谷": 7774,
      "豁": 7775,
      "豆": 7776,
      "豈": 7777,
      "豉": 7778,
      "豊": 7779,
      "豌": 7780,
      "豎": 7781,
      "豐": 7782,
      "豖": 7783,
      "豚": 7784,
      "象": 7785,
      "豢": 7786,
      "豪": 7787,
      "豫": 7788,
      "豬": 7789,
      "豸": 7790,
      "豹": 7791,
      "豺": 7792,
      "貂": 7793,
      "貉": 7794,
      "貌": 7795,
      "貍": 7796,
      "貓": 7797,
      "貘": 7798,
      "貝": 7799,
      "貞": 7800,
      "負": 7801,
      "財": 7802,
      "貢": 7803,
      "貧": 7804,
      "貨": 7805,
      "販": 7806,
      "貪": 7807,
      "貫": 7808,
      "責": 7809,
      "貯": 7810,
      "貰": 7811,
      "貴": 7812,
      "貶": 7813,
      "買": 7814,
      "貸": 7815,
      "費": 7816,
      "貼": 7817,
      "貿": 7818,
      "賀": 7819,
      "賂": 7820,
      "賃": 7821,
      "賄": 7822,
      "資": 7823,
      "賈": 7824,
      "賊": 7825,
      "賎": 7826,
      "賑": 7827,
      "賓": 7828,
      "賛": 7829,
      "賜": 7830,
      "賞": 7831,
      "賠": 7832,
      "賡": 7833,
      "賢": 7834,
      "賣": 7835,
      "賤": 7836,
      "賦": 7837,
      "質": 7838,
      "賬": 7839,
      "賭": 7840,
      "賴": 7841,
      "賵": 7842,
      "賸": 7843,
      "賺": 7844,
      "購": 7845,
      "賽": 7846,
      "贄": 7847,
      "贅": 7848,
      "贈": 7849,
      "贊": 7850,
      "贋": 7851,
      "贍": 7852,
      "贏": 7853,
      "贓": 7854,
      "贔": 7855,
      "贖": 7856,
      "贗": 7857,
      "贝": 7858,
      "贞": 7859,
      "负": 7860,
      "贡": 7861,
      "财": 7862,
      "责": 7863,
      "贤": 7864,
      "败": 7865,
      "账": 7866,
      "货": 7867,
      "质": 7868,
      "贩": 7869,
      "贪": 7870,
      "贫": 7871,
      "贬": 7872,
      "购": 7873,
      "贮": 7874,
      "贯": 7875,
      "贰": 7876,
      "贱": 7877,
      "贲": 7878,
      "贴": 7879,
      "贵": 7880,
      "贷": 7881,
      "贸": 7882,
      "费": 7883,
      "贺": 7884,
      "贻": 7885,
      "贼": 7886,
      "贾": 7887,
      "贿": 7888,
      "赀": 7889,
      "赁": 7890,
      "赂": 7891,
      "赃": 7892,
      "资": 7893,
      "赅": 7894,
      "赈": 7895,
      "赊": 7896,
      "赋": 7897,
      "赌": 7898,
      "赎": 7899,
      "赏": 7900,
      "赐": 7901,
      "赔": 7902,
      "赖": 7903,
      "赘": 7904,
      "赚": 7905,
      "赛": 7906,
      "赝": 7907,
      "赞": 7908,
      "赠": 7909,
      "赡": 7910,
      "赢": 7911,
      "赣": 7912,
      "赤": 7913,
      "赦": 7914,
      "赫": 7915,
      "走": 7916,
      "赳": 7917,
      "赴": 7918,
      "赵": 7919,
      "赶": 7920,
      "起": 7921,
      "赻": 7922,
      "赽": 7923,
      "趁": 7924,
      "趄": 7925,
      "超": 7926,
      "越": 7927,
      "趋": 7928,
      "趔": 7929,
      "趕": 7930,
      "趙": 7931,
      "趟": 7932,
      "趣": 7933,
      "趨": 7934,
      "足": 7935,
      "趴": 7936,
      "趸": 7937,
      "趼": 7938,
      "趾": 7939,
      "跃": 7940,
      "跄": 7941,
      "跆": 7942,
      "跋": 7943,
      "跌": 7944,
      "跎": 7945,
      "跑": 7946,
      "跖": 7947,
      "跘": 7948,
      "跚": 7949,
      "跛": 7950,
      "距": 7951,
      "跟": 7952,
      "跡": 7953,
      "跤": 7954,
      "跨": 7955,
      "跩": 7956,
      "跪": 7957,
      "跬": 7958,
      "路": 7959,
      "跳": 7960,
      "践": 7961,
      "跶": 7962,
      "跷": 7963,
      "跺": 7964,
      "跻": 7965,
      "踉": 7966,
      "踊": 7967,
      "踌": 7968,
      "踏": 7969,
      "踐": 7970,
      "踝": 7971,
      "踞": 7972,
      "踟": 7973,
      "踡": 7974,
      "踢": 7975,
      "踩": 7976,
      "踪": 7977,
      "踫": 7978,
      "踮": 7979,
      "踯": 7980,
      "踰": 7981,
      "踱": 7982,
      "踵": 7983,
      "踹": 7984,
      "蹂": 7985,
      "蹄": 7986,
      "蹈": 7987,
      "蹉": 7988,
      "蹊": 7989,
      "蹋": 7990,
      "蹌": 7991,
      "蹑": 7992,
      "蹒": 7993,
      "蹓": 7994,
      "蹙": 7995,
      "蹚": 7996,
      "蹟": 7997,
      "蹤": 7998,
      "蹦": 7999,
      "蹩": 8000,
      "蹬": 8001,
      "蹭": 8002,
      "蹰": 8003,
      "蹲": 8004,
      "蹴": 8005,
      "蹶": 8006,
      "蹺": 8007,
      "蹼": 8008,
      "蹿": 8009,
      "躁": 8010,
      "躅": 8011,
      "躇": 8012,
      "躉": 8013,
      "躊": 8014,
      "躍": 8015,
      "躏": 8016,
      "躓": 8017,
      "躙": 8018,
      "躪": 8019,
      "身": 8020,
      "躬": 8021,
      "躯": 8022,
      "躲": 8023,
      "躺": 8024,
      "躾": 8025,
      "軀": 8026,
      "車": 8027,
      "軋": 8028,
      "軌": 8029,
      "軍": 8030,
      "軒": 8031,
      "軗": 8032,
      "軟": 8033,
      "転": 8034,
      "軸": 8035,
      "軽": 8036,
      "較": 8037,
      "載": 8038,
      "輌": 8039,
      "輔": 8040,
      "輕": 8041,
      "輛": 8042,
      "輝": 8043,
      "輟": 8044,
      "輩": 8045,
      "輪": 8046,
      "輯": 8047,
      "輸": 8048,
      "輻": 8049,
      "輾": 8050,
      "輿": 8051,
      "轄": 8052,
      "轉": 8053,
      "轍": 8054,
      "轎": 8055,
      "轟": 8056,
      "轢": 8057,
      "车": 8058,
      "轧": 8059,
      "轨": 8060,
      "轩": 8061,
      "轫": 8062,
      "转": 8063,
      "轭": 8064,
      "轮": 8065,
      "软": 8066,
      "轰": 8067,
      "轱": 8068,
      "轲": 8069,
      "轴": 8070,
      "轶": 8071,
      "轻": 8072,
      "载": 8073,
      "轾": 8074,
      "轿": 8075,
      "较": 8076,
      "辄": 8077,
      "辅": 8078,
      "辆": 8079,
      "辇": 8080,
      "辈": 8081,
      "辉": 8082,
      "辊": 8083,
      "辋": 8084,
      "辍": 8085,
      "辐": 8086,
      "辑": 8087,
      "输": 8088,
      "辕": 8089,
      "辖": 8090,
      "辗": 8091,
      "辘": 8092,
      "辙": 8093,
      "辛": 8094,
      "辜": 8095,
      "辞": 8096,
      "辟": 8097,
      "辣": 8098,
      "辦": 8099,
      "辨": 8100,
      "辩": 8101,
      "辫": 8102,
      "辭": 8103,
      "辮": 8104,
      "辯": 8105,
      "辰": 8106,
      "辱": 8107,
      "農": 8108,
      "辷": 8109,
      "边": 8110,
      "辺": 8111,
      "辻": 8112,
      "込": 8113,
      "辽": 8114,
      "达": 8115,
      "辿": 8116,
      "迁": 8117,
      "迂": 8118,
      "迄": 8119,
      "迅": 8120,
      "过": 8121,
      "迈": 8122,
      "迎": 8123,
      "运": 8124,
      "近": 8125,
      "返": 8126,
      "迖": 8127,
      "还": 8128,
      "这": 8129,
      "进": 8130,
      "远": 8131,
      "违": 8132,
      "连": 8133,
      "迟": 8134,
      "迡": 8135,
      "迢": 8136,
      "迥": 8137,
      "迦": 8138,
      "迨": 8139,
      "迪": 8140,
      "迫": 8141,
      "迭": 8142,
      "述": 8143,
      "迳": 8144,
      "迴": 8145,
      "迷": 8146,
      "迸": 8147,
      "迹": 8148,
      "迺": 8149,
      "追": 8150,
      "退": 8151,
      "送": 8152,
      "适": 8153,
      "逃": 8154,
      "逄": 8155,
      "逅": 8156,
      "逆": 8157,
      "选": 8158,
      "逊": 8159,
      "逋": 8160,
      "逌": 8161,
      "逍": 8162,
      "透": 8163,
      "逐": 8164,
      "递": 8165,
      "途": 8166,
      "逗": 8167,
      "這": 8168,
      "通": 8169,
      "逛": 8170,
      "逝": 8171,
      "逞": 8172,
      "速": 8173,
      "造": 8174,
      "逡": 8175,
      "逢": 8176,
      "連": 8177,
      "逮": 8178,
      "週": 8179,
      "進": 8180,
      "逸": 8181,
      "逻": 8182,
      "逼": 8183,
      "逾": 8184,
      "遁": 8185,
      "遂": 8186,
      "遅": 8187,
      "遇": 8188,
      "遊": 8189,
      "運": 8190,
      "遍": 8191,
      "過": 8192,
      "遏": 8193,
      "遐": 8194,
      "遑": 8195,
      "遒": 8196,
      "道": 8197,
      "達": 8198,
      "違": 8199,
      "遗": 8200,
      "遙": 8201,
      "遛": 8202,
      "遜": 8203,
      "遞": 8204,
      "遠": 8205,
      "遡": 8206,
      "遢": 8207,
      "遣": 8208,
      "遥": 8209,
      "遨": 8210,
      "適": 8211,
      "遭": 8212,
      "遮": 8213,
      "遲": 8214,
      "遴": 8215,
      "遵": 8216,
      "遷": 8217,
      "選": 8218,
      "遺": 8219,
      "遼": 8220,
      "遽": 8221,
      "避": 8222,
      "邀": 8223,
      "邁": 8224,
      "邂": 8225,
      "邃": 8226,
      "還": 8227,
      "邇": 8228,
      "邈": 8229,
      "邊": 8230,
      "邋": 8231,
      "邏": 8232,
      "邑": 8233,
      "邓": 8234,
      "邝": 8235,
      "邟": 8236,
      "邢": 8237,
      "那": 8238,
      "邦": 8239,
      "邨": 8240,
      "邪": 8241,
      "邮": 8242,
      "邱": 8243,
      "邵": 8244,
      "邸": 8245,
      "邹": 8246,
      "邻": 8247,
      "邾": 8248,
      "郁": 8249,
      "郅": 8250,
      "郊": 8251,
      "郎": 8252,
      "郑": 8253,
      "郔": 8254,
      "郝": 8255,
      "郞": 8256,
      "郡": 8257,
      "部": 8258,
      "郪": 8259,
      "郭": 8260,
      "郴": 8261,
      "郵": 8262,
      "郷": 8263,
      "郸": 8264,
      "都": 8265,
      "鄂": 8266,
      "鄉": 8267,
      "鄔": 8268,
      "鄙": 8269,
      "鄢": 8270,
      "鄧": 8271,
      "鄭": 8272,
      "鄰": 8273,
      "酉": 8274,
      "酊": 8275,
      "酋": 8276,
      "酌": 8277,
      "配": 8278,
      "酐": 8279,
      "酒": 8280,
      "酔": 8281,
      "酕": 8282,
      "酖": 8283,
      "酗": 8284,
      "酚": 8285,
      "酝": 8286,
      "酢": 8287,
      "酣": 8288,
      "酥": 8289,
      "酩": 8290,
      "酪": 8291,
      "酬": 8292,
      "酮": 8293,
      "酯": 8294,
      "酰": 8295,
      "酱": 8296,
      "酵": 8297,
      "酶": 8298,
      "酷": 8299,
      "酸": 8300,
      "酿": 8301,
      "醃": 8302,
      "醇": 8303,
      "醉": 8304,
      "醋": 8305,
      "醍": 8306,
      "醐": 8307,
      "醒": 8308,
      "醚": 8309,
      "醛": 8310,
      "醜": 8311,
      "醤": 8312,
      "醫": 8313,
      "醬": 8314,
      "醮": 8315,
      "醯": 8316,
      "醱": 8317,
      "醴": 8318,
      "醸": 8319,
      "醺": 8320,
      "釀": 8321,
      "釁": 8322,
      "釆": 8323,
      "采": 8324,
      "釈": 8325,
      "釉": 8326,
      "释": 8327,
      "釋": 8328,
      "里": 8329,
      "重": 8330,
      "野": 8331,
      "量": 8332,
      "釐": 8333,
      "金": 8334,
      "釘": 8335,
      "釜": 8336,
      "針": 8337,
      "釣": 8338,
      "釦": 8339,
      "釬": 8340,
      "釭": 8341,
      "釱": 8342,
      "釵": 8343,
      "鈍": 8344,
      "鈔": 8345,
      "鈕": 8346,
      "鈣": 8347,
      "鈦": 8348,
      "鈩": 8349,
      "鈴": 8350,
      "鈾": 8351,
      "鉄": 8352,
      "鉅": 8353,
      "鉈": 8354,
      "鉑": 8355,
      "鉖": 8356,
      "鉗": 8357,
      "鉛": 8358,
      "鉜": 8359,
      "鉢": 8360,
      "鉤": 8361,
      "鉱": 8362,
      "鉴": 8363,
      "鉶": 8364,
      "鉾": 8365,
      "銀": 8366,
      "銃": 8367,
      "銅": 8368,
      "銘": 8369,
      "銛": 8370,
      "銜": 8371,
      "銡": 8372,
      "銫": 8373,
      "銬": 8374,
      "銭": 8375,
      "銮": 8376,
      "銱": 8377,
      "銳": 8378,
      "銶": 8379,
      "銷": 8380,
      "銹": 8381,
      "鋅": 8382,
      "鋏": 8383,
      "鋒": 8384,
      "鋪": 8385,
      "鋭": 8386,
      "鋲": 8387,
      "鋳": 8388,
      "鋸": 8389,
      "鋻": 8390,
      "鋼": 8391,
      "錄": 8392,
      "錆": 8393,
      "錐": 8394,
      "錘": 8395,
      "錠": 8396,
      "錢": 8397,
      "錦": 8398,
      "錨": 8399,
      "錫": 8400,
      "錬": 8401,
      "錯": 8402,
      "録": 8403,
      "錶": 8404,
      "鍊": 8405,
      "鍋": 8406,
      "鍔": 8407,
      "鍛": 8408,
      "鍬": 8409,
      "鍮": 8410,
      "鍰": 8411,
      "鍵": 8412,
      "鍺": 8413,
      "鍼": 8414,
      "鍾": 8415,
      "鎊": 8416,
      "鎌": 8417,
      "鎔": 8418,
      "鎖": 8419,
      "鎗": 8420,
      "鎘": 8421,
      "鎚": 8422,
      "鎧": 8423,
      "鎮": 8424,
      "鎰": 8425,
      "鎴": 8426,
      "鏈": 8427,
      "鏍": 8428,
      "鏓": 8429,
      "鏖": 8430,
      "鏘": 8431,
      "鏝": 8432,
      "鏟": 8433,
      "鏡": 8434,
      "鏢": 8435,
      "鏽": 8436,
      "鐐": 8437,
      "鐘": 8438,
      "鐮": 8439,
      "鐲": 8440,
      "鐳": 8441,
      "鐵": 8442,
      "鑄": 8443,
      "鑊": 8444,
      "鑑": 8445,
      "鑒": 8446,
      "鑚": 8447,
      "鑢": 8448,
      "鑣": 8449,
      "鑫": 8450,
      "鑰": 8451,
      "鑲": 8452,
      "鑽": 8453,
      "鑿": 8454,
      "针": 8455,
      "钉": 8456,
      "钊": 8457,
      "钋": 8458,
      "钍": 8459,
      "钎": 8460,
      "钐": 8461,
      "钓": 8462,
      "钙": 8463,
      "钚": 8464,
      "钛": 8465,
      "钝": 8466,
      "钞": 8467,
      "钟": 8468,
      "钠": 8469,
      "钡": 8470,
      "钢": 8471,
      "钥": 8472,
      "钦": 8473,
      "钧": 8474,
      "钨": 8475,
      "钩": 8476,
      "钮": 8477,
      "钯": 8478,
      "钱": 8479,
      "钳": 8480,
      "钴": 8481,
      "钵": 8482,
      "钶": 8483,
      "钸": 8484,
      "钹": 8485,
      "钻": 8486,
      "钼": 8487,
      "钽": 8488,
      "钾": 8489,
      "铀": 8490,
      "铁": 8491,
      "铂": 8492,
      "铃": 8493,
      "铅": 8494,
      "铆": 8495,
      "铈": 8496,
      "铉": 8497,
      "铋": 8498,
      "铌": 8499,
      "铍": 8500,
      "铎": 8501,
      "铏": 8502,
      "铐": 8503,
      "铕": 8504,
      "铛": 8505,
      "铜": 8506,
      "铝": 8507,
      "铟": 8508,
      "铠": 8509,
      "铢": 8510,
      "铤": 8511,
      "铪": 8512,
      "铬": 8513,
      "铭": 8514,
      "铮": 8515,
      "铯": 8516,
      "铰": 8517,
      "铱": 8518,
      "铲": 8519,
      "铳": 8520,
      "铵": 8521,
      "银": 8522,
      "铸": 8523,
      "铺": 8524,
      "链": 8525,
      "铿": 8526,
      "销": 8527,
      "锁": 8528,
      "锂": 8529,
      "锃": 8530,
      "锄": 8531,
      "锅": 8532,
      "锆": 8533,
      "锈": 8534,
      "锉": 8535,
      "锋": 8536,
      "锌": 8537,
      "锏": 8538,
      "锐": 8539,
      "锑": 8540,
      "锒": 8541,
      "错": 8542,
      "锚": 8543,
      "锡": 8544,
      "锢": 8545,
      "锣": 8546,
      "锤": 8547,
      "锥": 8548,
      "锦": 8549,
      "锭": 8550,
      "键": 8551,
      "锯": 8552,
      "锰": 8553,
      "锱": 8554,
      "锲": 8555,
      "锵": 8556,
      "锶": 8557,
      "锹": 8558,
      "锺": 8559,
      "锻": 8560,
      "镀": 8561,
      "镁": 8562,
      "镇": 8563,
      "镉": 8564,
      "镊": 8565,
      "镍": 8566,
      "镐": 8567,
      "镑": 8568,
      "镓": 8569,
      "镕": 8570,
      "镖": 8571,
      "镗": 8572,
      "镛": 8573,
      "镜": 8574,
      "镣": 8575,
      "镦": 8576,
      "镬": 8577,
      "镭": 8578,
      "镮": 8579,
      "镯": 8580,
      "镰": 8581,
      "镳": 8582,
      "镶": 8583,
      "長": 8584,
      "长": 8585,
      "門": 8586,
      "閂": 8587,
      "閃": 8588,
      "閉": 8589,
      "閊": 8590,
      "開": 8591,
      "閏": 8592,
      "閑": 8593,
      "閒": 8594,
      "間": 8595,
      "閕": 8596,
      "閘": 8597,
      "閟": 8598,
      "関": 8599,
      "閣": 8600,
      "閤": 8601,
      "閥": 8602,
      "閨": 8603,
      "閩": 8604,
      "閱": 8605,
      "閲": 8606,
      "閻": 8607,
      "閿": 8608,
      "闆": 8609,
      "闇": 8610,
      "闊": 8611,
      "闌": 8612,
      "闔": 8613,
      "闕": 8614,
      "闖": 8615,
      "闘": 8616,
      "關": 8617,
      "闡": 8618,
      "闢": 8619,
      "门": 8620,
      "闩": 8621,
      "闪": 8622,
      "闭": 8623,
      "问": 8624,
      "闯": 8625,
      "闰": 8626,
      "闱": 8627,
      "闲": 8628,
      "间": 8629,
      "闵": 8630,
      "闷": 8631,
      "闸": 8632,
      "闹": 8633,
      "闺": 8634,
      "闻": 8635,
      "闽": 8636,
      "阀": 8637,
      "阁": 8638,
      "阂": 8639,
      "阄": 8640,
      "阅": 8641,
      "阈": 8642,
      "阉": 8643,
      "阎": 8644,
      "阐": 8645,
      "阑": 8646,
      "阔": 8647,
      "阖": 8648,
      "阙": 8649,
      "阜": 8650,
      "阞": 8651,
      "队": 8652,
      "阡": 8653,
      "阨": 8654,
      "阪": 8655,
      "阮": 8656,
      "阰": 8657,
      "阱": 8658,
      "防": 8659,
      "阳": 8660,
      "阴": 8661,
      "阵": 8662,
      "阶": 8663,
      "阻": 8664,
      "阿": 8665,
      "陀": 8666,
      "附": 8667,
      "际": 8668,
      "陆": 8669,
      "陈": 8670,
      "陋": 8671,
      "陌": 8672,
      "降": 8673,
      "陎": 8674,
      "限": 8675,
      "陑": 8676,
      "陓": 8677,
      "陔": 8678,
      "陕": 8679,
      "陛": 8680,
      "陡": 8681,
      "院": 8682,
      "陣": 8683,
      "除": 8684,
      "陥": 8685,
      "陨": 8686,
      "险": 8687,
      "陪": 8688,
      "陬": 8689,
      "陰": 8690,
      "陲": 8691,
      "陳": 8692,
      "陵": 8693,
      "陶": 8694,
      "陷": 8695,
      "陸": 8696,
      "険": 8697,
      "陽": 8698,
      "隅": 8699,
      "隆": 8700,
      "隈": 8701,
      "隊": 8702,
      "隋": 8703,
      "階": 8704,
      "随": 8705,
      "隐": 8706,
      "隔": 8707,
      "隕": 8708,
      "隘": 8709,
      "隙": 8710,
      "際": 8711,
      "障": 8712,
      "隠": 8713,
      "隣": 8714,
      "隧": 8715,
      "隨": 8716,
      "險": 8717,
      "隱": 8718,
      "隴": 8719,
      "隶": 8720,
      "隷": 8721,
      "隸": 8722,
      "隻": 8723,
      "隼": 8724,
      "隽": 8725,
      "难": 8726,
      "雀": 8727,
      "雁": 8728,
      "雄": 8729,
      "雅": 8730,
      "集": 8731,
      "雇": 8732,
      "雉": 8733,
      "雌": 8734,
      "雍": 8735,
      "雏": 8736,
      "雑": 8737,
      "雕": 8738,
      "雖": 8739,
      "雙": 8740,
      "雛": 8741,
      "雜": 8742,
      "雞": 8743,
      "離": 8744,
      "難": 8745,
      "雨": 8746,
      "雪": 8747,
      "雫": 8748,
      "雯": 8749,
      "雰": 8750,
      "雲": 8751,
      "雳": 8752,
      "零": 8753,
      "雷": 8754,
      "雹": 8755,
      "電": 8756,
      "雾": 8757,
      "需": 8758,
      "霄": 8759,
      "霆": 8760,
      "震": 8761,
      "霉": 8762,
      "霊": 8763,
      "霍": 8764,
      "霎": 8765,
      "霏": 8766,
      "霓": 8767,
      "霖": 8768,
      "霜": 8769,
      "霞": 8770,
      "霣": 8771,
      "霧": 8772,
      "霫": 8773,
      "霰": 8774,
      "露": 8775,
      "霸": 8776,
      "霹": 8777,
      "霾": 8778,
      "靂": 8779,
      "靄": 8780,
      "靈": 8781,
      "青": 8782,
      "靓": 8783,
      "靖": 8784,
      "静": 8785,
      "靚": 8786,
      "靜": 8787,
      "非": 8788,
      "靠": 8789,
      "靡": 8790,
      "面": 8791,
      "革": 8792,
      "靭": 8793,
      "靱": 8794,
      "靳": 8795,
      "靴": 8796,
      "靶": 8797,
      "靼": 8798,
      "鞄": 8799,
      "鞋": 8800,
      "鞍": 8801,
      "鞏": 8802,
      "鞑": 8803,
      "鞘": 8804,
      "鞠": 8805,
      "鞣": 8806,
      "鞭": 8807,
      "韁": 8808,
      "韃": 8809,
      "韋": 8810,
      "韌": 8811,
      "韓": 8812,
      "韜": 8813,
      "韦": 8814,
      "韧": 8815,
      "韩": 8816,
      "韭": 8817,
      "音": 8818,
      "韵": 8819,
      "韶": 8820,
      "韻": 8821,
      "響": 8822,
      "頁": 8823,
      "頂": 8824,
      "頃": 8825,
      "項": 8826,
      "順": 8827,
      "須": 8828,
      "頌": 8829,
      "頏": 8830,
      "預": 8831,
      "頑": 8832,
      "頒": 8833,
      "頓": 8834,
      "頗": 8835,
      "領": 8836,
      "頚": 8837,
      "頤": 8838,
      "頬": 8839,
      "頭": 8840,
      "頰": 8841,
      "頷": 8842,
      "頸": 8843,
      "頻": 8844,
      "頼": 8845,
      "顆": 8846,
      "題": 8847,
      "額": 8848,
      "顎": 8849,
      "顏": 8850,
      "顔": 8851,
      "顕": 8852,
      "願": 8853,
      "顛": 8854,
      "類": 8855,
      "顧": 8856,
      "顫": 8857,
      "顯": 8858,
      "顱": 8859,
      "页": 8860,
      "顶": 8861,
      "顷": 8862,
      "项": 8863,
      "顺": 8864,
      "须": 8865,
      "顽": 8866,
      "顾": 8867,
      "顿": 8868,
      "颁": 8869,
      "颂": 8870,
      "预": 8871,
      "颅": 8872,
      "领": 8873,
      "颇": 8874,
      "颈": 8875,
      "颊": 8876,
      "颌": 8877,
      "颏": 8878,
      "颐": 8879,
      "频": 8880,
      "颓": 8881,
      "颖": 8882,
      "颗": 8883,
      "题": 8884,
      "颚": 8885,
      "颜": 8886,
      "额": 8887,
      "颞": 8888,
      "颠": 8889,
      "颤": 8890,
      "颧": 8891,
      "風": 8892,
      "颯": 8893,
      "颶": 8894,
      "颼": 8895,
      "飄": 8896,
      "飆": 8897,
      "风": 8898,
      "飓": 8899,
      "飕": 8900,
      "飘": 8901,
      "飙": 8902,
      "飚": 8903,
      "飛": 8904,
      "飞": 8905,
      "食": 8906,
      "飢": 8907,
      "飧": 8908,
      "飨": 8909,
      "飯": 8910,
      "飲": 8911,
      "飴": 8912,
      "飼": 8913,
      "飽": 8914,
      "飾": 8915,
      "餃": 8916,
      "餅": 8917,
      "餉": 8918,
      "養": 8919,
      "餌": 8920,
      "餐": 8921,
      "餒": 8922,
      "餓": 8923,
      "餘": 8924,
      "餞": 8925,
      "餡": 8926,
      "館": 8927,
      "餮": 8928,
      "餵": 8929,
      "餿": 8930,
      "饅": 8931,
      "饉": 8932,
      "饋": 8933,
      "饑": 8934,
      "饒": 8935,
      "饕": 8936,
      "饗": 8937,
      "饞": 8938,
      "饥": 8939,
      "饨": 8940,
      "饪": 8941,
      "饭": 8942,
      "饮": 8943,
      "饯": 8944,
      "饰": 8945,
      "饱": 8946,
      "饲": 8947,
      "饵": 8948,
      "饶": 8949,
      "饷": 8950,
      "饺": 8951,
      "饼": 8952,
      "饿": 8953,
      "馀": 8954,
      "馁": 8955,
      "馄": 8956,
      "馅": 8957,
      "馆": 8958,
      "馈": 8959,
      "馊": 8960,
      "馋": 8961,
      "馍": 8962,
      "馏": 8963,
      "馐": 8964,
      "馑": 8965,
      "馒": 8966,
      "首": 8967,
      "香": 8968,
      "馥": 8969,
      "馨": 8970,
      "馬": 8971,
      "馭": 8972,
      "馮": 8973,
      "馱": 8974,
      "馳": 8975,
      "馴": 8976,
      "駁": 8977,
      "駄": 8978,
      "駅": 8979,
      "駆": 8980,
      "駈": 8981,
      "駐": 8982,
      "駒": 8983,
      "駕": 8984,
      "駛": 8985,
      "駝": 8986,
      "駟": 8987,
      "駡": 8988,
      "駭": 8989,
      "駱": 8990,
      "駿": 8991,
      "騁": 8992,
      "騎": 8993,
      "騒": 8994,
      "験": 8995,
      "騙": 8996,
      "騨": 8997,
      "騰": 8998,
      "騷": 8999,
      "騾": 9000,
      "驅": 9001,
      "驕": 9002,
      "驗": 9003,
      "驚": 9004,
      "驟": 9005,
      "驢": 9006,
      "马": 9007,
      "驭": 9008,
      "驮": 9009,
      "驯": 9010,
      "驰": 9011,
      "驱": 9012,
      "驳": 9013,
      "驴": 9014,
      "驶": 9015,
      "驷": 9016,
      "驹": 9017,
      "驻": 9018,
      "驼": 9019,
      "驽": 9020,
      "驾": 9021,
      "驿": 9022,
      "骁": 9023,
      "骂": 9024,
      "骄": 9025,
      "骆": 9026,
      "骇": 9027,
      "骋": 9028,
      "验": 9029,
      "骏": 9030,
      "骑": 9031,
      "骗": 9032,
      "骚": 9033,
      "骛": 9034,
      "骜": 9035,
      "骠": 9036,
      "骡": 9037,
      "骤": 9038,
      "骨": 9039,
      "骯": 9040,
      "骰": 9041,
      "骷": 9042,
      "骸": 9043,
      "骼": 9044,
      "髂": 9045,
      "髄": 9046,
      "髅": 9047,
      "髋": 9048,
      "髏": 9049,
      "髑": 9050,
      "髒": 9051,
      "髓": 9052,
      "體": 9053,
      "高": 9054,
      "髡": 9055,
      "髦": 9056,
      "髪": 9057,
      "髭": 9058,
      "髮": 9059,
      "髻": 9060,
      "鬃": 9061,
      "鬆": 9062,
      "鬍": 9063,
      "鬓": 9064,
      "鬚": 9065,
      "鬛": 9066,
      "鬣": 9067,
      "鬥": 9068,
      "鬧": 9069,
      "鬨": 9070,
      "鬱": 9071,
      "鬲": 9072,
      "鬼": 9073,
      "鬾": 9074,
      "魁": 9075,
      "魂": 9076,
      "魄": 9077,
      "魅": 9078,
      "魇": 9079,
      "魉": 9080,
      "魏": 9081,
      "魔": 9082,
      "魘": 9083,
      "魚": 9084,
      "魣": 9085,
      "魯": 9086,
      "魷": 9087,
      "鮎": 9088,
      "鮑": 9089,
      "鮒": 9090,
      "鮟": 9091,
      "鮨": 9092,
      "鮪": 9093,
      "鮫": 9094,
      "鮭": 9095,
      "鮮": 9096,
      "鯉": 9097,
      "鯊": 9098,
      "鯛": 9099,
      "鯨": 9100,
      "鯰": 9101,
      "鰍": 9102,
      "鰐": 9103,
      "鰥": 9104,
      "鰨": 9105,
      "鰭": 9106,
      "鰯": 9107,
      "鰹": 9108,
      "鰻": 9109,
      "鱆": 9110,
      "鱇": 9111,
      "鱈": 9112,
      "鱒": 9113,
      "鱔": 9114,
      "鱗": 9115,
      "鱷": 9116,
      "鱸": 9117,
      "鱻": 9118,
      "鱼": 9119,
      "鱿": 9120,
      "鲀": 9121,
      "鲁": 9122,
      "鲈": 9123,
      "鲍": 9124,
      "鲐": 9125,
      "鲑": 9126,
      "鲔": 9127,
      "鲗": 9128,
      "鲛": 9129,
      "鲜": 9130,
      "鲡": 9131,
      "鲢": 9132,
      "鲣": 9133,
      "鲤": 9134,
      "鲥": 9135,
      "鲨": 9136,
      "鲩": 9137,
      "鲫": 9138,
      "鲭": 9139,
      "鲮": 9140,
      "鲱": 9141,
      "鲳": 9142,
      "鲵": 9143,
      "鲶": 9144,
      "鲷": 9145,
      "鲸": 9146,
      "鲹": 9147,
      "鲻": 9148,
      "鲽": 9149,
      "鲾": 9150,
      "鳃": 9151,
      "鳄": 9152,
      "鳅": 9153,
      "鳉": 9154,
      "鳌": 9155,
      "鳍": 9156,
      "鳎": 9157,
      "鳏": 9158,
      "鳐": 9159,
      "鳕": 9160,
      "鳖": 9161,
      "鳗": 9162,
      "鳞": 9163,
      "鳟": 9164,
      "鳥": 9165,
      "鳩": 9166,
      "鳫": 9167,
      "鳳": 9168,
      "鳴": 9169,
      "鳶": 9170,
      "鴃": 9171,
      "鴇": 9172,
      "鴉": 9173,
      "鴎": 9174,
      "鴒": 9175,
      "鴛": 9176,
      "鴨": 9177,
      "鴬": 9178,
      "鴻": 9179,
      "鴿": 9180,
      "鵄": 9181,
      "鵑": 9182,
      "鵜": 9183,
      "鵝": 9184,
      "鵞": 9185,
      "鵡": 9186,
      "鵪": 9187,
      "鵬": 9188,
      "鵲": 9189,
      "鶉": 9190,
      "鶏": 9191,
      "鶤": 9192,
      "鶨": 9193,
      "鶪": 9194,
      "鶯": 9195,
      "鶴": 9196,
      "鶺": 9197,
      "鷄": 9198,
      "鷉": 9199,
      "鷓": 9200,
      "鷗": 9201,
      "鷲": 9202,
      "鷹": 9203,
      "鷺": 9204,
      "鸊": 9205,
      "鸌": 9206,
      "鸚": 9207,
      "鸛": 9208,
      "鸞": 9209,
      "鸟": 9210,
      "鸠": 9211,
      "鸡": 9212,
      "鸢": 9213,
      "鸣": 9214,
      "鸥": 9215,
      "鸦": 9216,
      "鸨": 9217,
      "鸫": 9218,
      "鸬": 9219,
      "鸭": 9220,
      "鸮": 9221,
      "鸯": 9222,
      "鸳": 9223,
      "鸵": 9224,
      "鸸": 9225,
      "鸽": 9226,
      "鸾": 9227,
      "鸿": 9228,
      "鹃": 9229,
      "鹅": 9230,
      "鹈": 9231,
      "鹉": 9232,
      "鹊": 9233,
      "鹋": 9234,
      "鹌": 9235,
      "鹏": 9236,
      "鹑": 9237,
      "鹓": 9238,
      "鹕": 9239,
      "鹗": 9240,
      "鹜": 9241,
      "鹞": 9242,
      "鹣": 9243,
      "鹤": 9244,
      "鹦": 9245,
      "鹩": 9246,
      "鹪": 9247,
      "鹫": 9248,
      "鹬": 9249,
      "鹰": 9250,
      "鹱": 9251,
      "鹳": 9252,
      "鹵": 9253,
      "鹸": 9254,
      "鹹": 9255,
      "鹼": 9256,
      "鹽": 9257,
      "鹿": 9258,
      "麂": 9259,
      "麋": 9260,
      "麒": 9261,
      "麓": 9262,
      "麗": 9263,
      "麝": 9264,
      "麟": 9265,
      "麥": 9266,
      "麦": 9267,
      "麩": 9268,
      "麵": 9269,
      "麸": 9270,
      "麺": 9271,
      "麻": 9272,
      "麼": 9273,
      "麽": 9274,
      "麾": 9275,
      "麿": 9276,
      "黃": 9277,
      "黄": 9278,
      "黍": 9279,
      "黎": 9280,
      "黏": 9281,
      "黑": 9282,
      "黒": 9283,
      "黔": 9284,
      "默": 9285,
      "黙": 9286,
      "黛": 9287,
      "黜": 9288,
      "黝": 9289,
      "點": 9290,
      "黠": 9291,
      "黢": 9292,
      "黧": 9293,
      "黨": 9294,
      "黩": 9295,
      "黯": 9296,
      "黷": 9297,
      "鼎": 9298,
      "鼓": 9299,
      "鼠": 9300,
      "鼬": 9301,
      "鼴": 9302,
      "鼹": 9303,
      "鼻": 9304,
      "鼾": 9305,
      "齁": 9306,
      "齊": 9307,
      "齋": 9308,
      "齎": 9309,
      "齐": 9310,
      "齒": 9311,
      "齔": 9312,
      "齟": 9313,
      "齠": 9314,
      "齡": 9315,
      "齢": 9316,
      "齣": 9317,
      "齦": 9318,
      "齧": 9319,
      "齬": 9320,
      "齿": 9321,
      "龄": 9322,
      "龈": 9323,
      "龊": 9324,
      "龋": 9325,
      "龌": 9326,
      "龍": 9327,
      "龐": 9328,
      "龕": 9329,
      "龙": 9330,
      "龚": 9331,
      "龛": 9332,
      "龜": 9333,
      "龟": 9334,
      "ꌢ": 9335,
      "간": 9336,
      "공": 9337,
      "과": 9338,
      "녕": 9339,
      "뇳": 9340,
      "는": 9341,
      "딚": 9342,
      "루": 9343,
      "름": 9344,
      "뭐": 9345,
      "뱾": 9346,
      "시": 9347,
      "안": 9348,
      "예": 9349,
      "요": 9350,
      "우": 9351,
      "이": 9352,
      "존": 9353,
      "주": 9354,
      "지": 9355,
      "쵽": 9356,
      "펳": 9357,
      "하": 9358,
      "": 9359,
      "": 9360,
      "": 9361,
      "": 9362,
      "": 9363,
      "": 9364,
      "": 9365,
      "": 9366,
      "": 9367,
      "": 9368,
      "": 9369,
      "": 9370,
      "": 9371,
      "": 9372,
      "": 9373,
      "": 9374,
      "": 9375,
      "": 9376,
      "": 9377,
      "": 9378,
      "": 9379,
      "": 9380,
      "": 9381,
      "": 9382,
      "": 9383,
      "": 9384,
      "": 9385,
      "": 9386,
      "": 9387,
      "": 9388,
      "": 9389,
      "": 9390,
      "": 9391,
      "": 9392,
      "": 9393,
      "": 9394,
      "": 9395,
      "": 9396,
      "": 9397,
      "": 9398,
      "": 9399,
      "": 9400,
      "": 9401,
      "": 9402,
      "": 9403,
      "": 9404,
      "": 9405,
      "": 9406,
      "": 9407,
      "": 9408,
      "": 9409,
      "": 9410,
      "": 9411,
      "": 9412,
      "": 9413,
      "": 9414,
      "": 9415,
      "": 9416,
      "": 9417,
      "": 9418,
      "": 9419,
      "": 9420,
      "": 9421,
      "": 9422,
      "": 9423,
      "": 9424,
      "": 9425,
      "": 9426,
      "": 9427,
      "": 9428,
      "": 9429,
      "": 9430,
      "": 9431,
      "": 9432,
      "": 9433,
      "": 9434,
      "": 9435,
      "": 9436,
      "": 9437,
      "": 9438,
      "": 9439,
      "": 9440,
      "": 9441,
      "": 9442,
      "": 9443,
      "": 9444,
      "": 9445,
      "": 9446,
      "": 9447,
      "": 9448,
      "": 9449,
      "": 9450,
      "": 9451,
      "": 9452,
      "": 9453,
      "": 9454,
      "": 9455,
      "": 9456,
      "": 9457,
      "": 9458,
      "": 9459,
      "": 9460,
      "": 9461,
      "": 9462,
      "": 9463,
      "": 9464,
      "": 9465,
      "": 9466,
      "": 9467,
      "": 9468,
      "": 9469,
      "": 9470,
      "": 9471,
      "": 9472,
      "": 9473,
      "": 9474,
      "": 9475,
      "": 9476,
      "": 9477,
      "": 9478,
      "": 9479,
      "": 9480,
      "": 9481,
      "": 9482,
      "": 9483,
      "": 9484,
      "": 9485,
      "": 9486,
      "": 9487,
      "": 9488,
      "": 9489,
      "": 9490,
      "": 9491,
      "": 9492,
      "": 9493,
      "": 9494,
      "": 9495,
      "": 9496,
      "": 9497,
      "": 9498,
      "": 9499,
      "": 9500,
      "": 9501,
      "": 9502,
      "": 9503,
      "": 9504,
      "": 9505,
      "": 9506,
      "": 9507,
      "": 9508,
      "": 9509,
      "": 9510,
      "": 9511,
      "": 9512,
      "": 9513,
      "": 9514,
      "": 9515,
      "": 9516,
      "": 9517,
      "": 9518,
      "": 9519,
      "": 9520,
      "": 9521,
      "": 9522,
      "": 9523,
      "": 9524,
      "": 9525,
      "": 9526,
      "": 9527,
      "": 9528,
      "": 9529,
      "": 9530,
      "": 9531,
      "": 9532,
      "": 9533,
      "": 9534,
      "": 9535,
      "": 9536,
      "": 9537,
      "": 9538,
      "": 9539,
      "": 9540,
      "": 9541,
      "": 9542,
      "": 9543,
      "": 9544,
      "": 9545,
      "": 9546,
      "": 9547,
      "": 9548,
      "": 9549,
      "": 9550,
      "": 9551,
      "": 9552,
      "": 9553,
      "": 9554,
      "": 9555,
      "": 9556,
      "": 9557,
      "": 9558,
      "": 9559,
      "": 9560,
      "": 9561,
      "": 9562,
      "": 9563,
      "": 9564,
      "": 9565,
      "": 9566,
      "": 9567,
      "": 9568,
      "": 9569,
      "": 9570,
      "": 9571,
      "": 9572,
      "": 9573,
      "": 9574,
      "": 9575,
      "": 9576,
      "": 9577,
      "": 9578,
      "": 9579,
      "": 9580,
      "": 9581,
      "": 9582,
      "": 9583,
      "": 9584,
      "": 9585,
      "": 9586,
      "": 9587,
      "": 9588,
      "": 9589,
      "": 9590,
      "": 9591,
      "": 9592,
      "": 9593,
      "": 9594,
      "": 9595,
      "": 9596,
      "": 9597,
      "": 9598,
      "": 9599,
      "": 9600,
      "": 9601,
      "": 9602,
      "": 9603,
      "": 9604,
      "": 9605,
      "": 9606,
      "": 9607,
      "": 9608,
      "": 9609,
      "": 9610,
      "": 9611,
      "": 9612,
      "": 9613,
      "": 9614,
      "": 9615,
      "": 9616,
      "": 9617,
      "": 9618,
      "": 9619,
      "": 9620,
      "": 9621,
      "": 9622,
      "": 9623,
      "": 9624,
      "": 9625,
      "": 9626,
      "": 9627,
      "": 9628,
      "": 9629,
      "": 9630,
      "": 9631,
      "": 9632,
      "": 9633,
      "": 9634,
      "": 9635,
      "": 9636,
      "": 9637,
      "": 9638,
      "": 9639,
      "": 9640,
      "": 9641,
      "": 9642,
      "": 9643,
      "": 9644,
      "": 9645,
      "": 9646,
      "": 9647,
      "": 9648,
      "": 9649,
      "": 9650,
      "": 9651,
      "": 9652,
      "": 9653,
      "": 9654,
      "": 9655,
      "": 9656,
      "": 9657,
      "": 9658,
      "": 9659,
      "": 9660,
      "": 9661,
      "": 9662,
      "": 9663,
      "": 9664,
      "": 9665,
      "": 9666,
      "": 9667,
      "": 9668,
      "": 9669,
      "": 9670,
      "": 9671,
      "": 9672,
      "": 9673,
      "": 9674,
      "": 9675,
      "": 9676,
      "": 9677,
      "": 9678,
      "": 9679,
      "": 9680,
      "": 9681,
      "": 9682,
      "": 9683,
      "": 9684,
      "": 9685,
      "": 9686,
      "": 9687,
      "": 9688,
      "": 9689,
      "": 9690,
      "": 9691,
      "": 9692,
      "": 9693,
      "": 9694,
      "": 9695,
      "": 9696,
      "": 9697,
      "": 9698,
      "": 9699,
      "": 9700,
      "": 9701,
      "": 9702,
      "": 9703,
      "": 9704,
      "": 9705,
      "": 9706,
      "": 9707,
      "": 9708,
      "": 9709,
      "": 9710,
      "": 9711,
      "": 9712,
      "": 9713,
      "": 9714,
      "": 9715,
      "": 9716,
      "": 9717,
      "": 9718,
      "": 9719,
      "": 9720,
      "": 9721,
      "": 9722,
      "": 9723,
      "": 9724,
      "": 9725,
      "": 9726,
      "": 9727,
      "": 9728,
      "": 9729,
      "": 9730,
      "": 9731,
      "": 9732,
      "": 9733,
      "": 9734,
      "": 9735,
      "": 9736,
      "": 9737,
      "": 9738,
      "": 9739,
      "": 9740,
      "": 9741,
      "": 9742,
      "": 9743,
      "": 9744,
      "": 9745,
      "": 9746,
      "": 9747,
      "": 9748,
      "": 9749,
      "": 9750,
      "": 9751,
      "": 9752,
      "": 9753,
      "": 9754,
      "": 9755,
      "": 9756,
      "": 9757,
      "": 9758,
      "": 9759,
      "": 9760,
      "": 9761,
      "": 9762,
      "": 9763,
      "": 9764,
      "": 9765,
      "": 9766,
      "": 9767,
      "": 9768,
      "": 9769,
      "": 9770,
      "": 9771,
      "": 9772,
      "": 9773,
      "": 9774,
      "": 9775,
      "": 9776,
      "": 9777,
      "": 9778,
      "": 9779,
      "": 9780,
      "": 9781,
      "": 9782,
      "": 9783,
      "": 9784,
      "": 9785,
      "": 9786,
      "": 9787,
      "": 9788,
      "": 9789,
      "": 9790,
      "": 9791,
      "": 9792,
      "": 9793,
      "": 9794,
      "": 9795,
      "": 9796,
      "": 9797,
      "": 9798,
      "": 9799,
      "": 9800,
      "": 9801,
      "": 9802,
      "": 9803,
      "": 9804,
      "": 9805,
      "": 9806,
      "": 9807,
      "": 9808,
      "": 9809,
      "": 9810,
      "": 9811,
      "": 9812,
      "": 9813,
      "": 9814,
      "": 9815,
      "": 9816,
      "": 9817,
      "": 9818,
      "": 9819,
      "": 9820,
      "": 9821,
      "": 9822,
      "": 9823,
      "": 9824,
      "": 9825,
      "": 9826,
      "": 9827,
      "": 9828,
      "": 9829,
      "": 9830,
      "": 9831,
      "": 9832,
      "": 9833,
      "": 9834,
      "": 9835,
      "": 9836,
      "": 9837,
      "": 9838,
      "": 9839,
      "": 9840,
      "": 9841,
      "": 9842,
      "": 9843,
      "": 9844,
      "": 9845,
      "": 9846,
      "": 9847,
      "": 9848,
      "": 9849,
      "": 9850,
      "": 9851,
      "": 9852,
      "": 9853,
      "": 9854,
      "": 9855,
      "": 9856,
      "": 9857,
      "": 9858,
      "": 9859,
      "": 9860,
      "": 9861,
      "": 9862,
      "": 9863,
      "": 9864,
      "": 9865,
      "": 9866,
      "": 9867,
      "": 9868,
      "": 9869,
      "": 9870,
      "": 9871,
      "": 9872,
      "": 9873,
      "": 9874,
      "": 9875,
      "": 9876,
      "": 9877,
      "": 9878,
      "": 9879,
      "": 9880,
      "": 9881,
      "": 9882,
      "": 9883,
      "": 9884,
      "": 9885,
      "": 9886,
      "": 9887,
      "": 9888,
      "": 9889,
      "": 9890,
      "": 9891,
      "": 9892,
      "": 9893,
      "": 9894,
      "": 9895,
      "": 9896,
      "": 9897,
      "": 9898,
      "": 9899,
      "": 9900,
      "": 9901,
      "": 9902,
      "": 9903,
      "": 9904,
      "": 9905,
      "": 9906,
      "": 9907,
      "": 9908,
      "": 9909,
      "": 9910,
      "": 9911,
      "": 9912,
      "": 9913,
      "": 9914,
      "": 9915,
      "": 9916,
      "": 9917,
      "": 9918,
      "": 9919,
      "": 9920,
      "": 9921,
      "": 9922,
      "": 9923,
      "": 9924,
      "": 9925,
      "": 9926,
      "": 9927,
      "": 9928,
      "": 9929,
      "": 9930,
      "": 9931,
      "": 9932,
      "": 9933,
      "": 9934,
      "": 9935,
      "": 9936,
      "": 9937,
      "": 9938,
      "": 9939,
      "": 9940,
      "": 9941,
      "": 9942,
      "": 9943,
      "": 9944,
      "": 9945,
      "": 9946,
      "": 9947,
      "": 9948,
      "": 9949,
      "": 9950,
      "": 9951,
      "": 9952,
      "": 9953,
      "": 9954,
      "": 9955,
      "": 9956,
      "": 9957,
      "": 9958,
      "": 9959,
      "": 9960,
      "": 9961,
      "": 9962,
      "": 9963,
      "": 9964,
      "": 9965,
      "": 9966,
      "": 9967,
      "": 9968,
      "": 9969,
      "": 9970,
      "": 9971,
      "": 9972,
      "": 9973,
      "": 9974,
      "": 9975,
      "": 9976,
      "": 9977,
      "": 9978,
      "": 9979,
      "": 9980,
      "": 9981,
      "": 9982,
      "": 9983,
      "": 9984,
      "": 9985,
      "": 9986,
      "": 9987,
      "": 9988,
      "": 9989,
      "": 9990,
      "": 9991,
      "": 9992,
      "": 9993,
      "": 9994,
      "": 9995,
      "": 9996,
      "": 9997,
      "": 9998,
      "": 9999,
      "": 10000,
      "": 10001,
      "": 10002,
      "": 10003,
      "": 10004,
      "": 10005,
      "": 10006,
      "": 10007,
      "": 10008,
      "": 10009,
      "": 10010,
      "": 10011,
      "兩": 10012,
      "禮": 10013,
      "立": 10014,
      "行": 10015,
      "﨑": 10016,
      "ﬁ": 10017,
      "ﬂ": 10018,
      "﵃": 10019,
      "﷓": 10020,
      "︰": 10021,
      "︱": 10022,
      "︳": 10023,
      "︶": 10024,
      "︸": 10025,
      "︹": 10026,
      "︺": 10027,
      "︽": 10028,
      "︾": 10029,
      "︿": 10030,
      "﹀": 10031,
      "﹁": 10032,
      "﹄": 10033,
      "﹉": 10034,
      "﹊": 10035,
      "﹋": 10036,
      "﹍": 10037,
      "﹎": 10038,
      "﹐": 10039,
      "﹑": 10040,
      "﹒": 10041,
      "﹔": 10042,
      "﹖": 10043,
      "﹗": 10044,
      "﹙": 10045,
      "﹚": 10046,
      "﹛": 10047,
      "﹜": 10048,
      "﹝": 10049,
      "﹞": 10050,
      "﹟": 10051,
      "﹠": 10052,
      "﹡": 10053,
      "﹣": 10054,
      "ﺀ": 10055,
      "ﺁ": 10056,
      "ﺃ": 10057,
      "ﺄ": 10058,
      "ﺅ": 10059,
      "ﺆ": 10060,
      "ﺇ": 10061,
      "ﺈ": 10062,
      "ﺊ": 10063,
      "ﺋ": 10064,
      "ﺌ": 10065,
      "ﺍ": 10066,
      "ﺎ": 10067,
      "ﺏ": 10068,
      "ﺐ": 10069,
      "ﺑ": 10070,
      "ﺒ": 10071,
      "ﺓ": 10072,
      "ﺔ": 10073,
      "ﺕ": 10074,
      "ﺖ": 10075,
      "ﺗ": 10076,
      "ﺘ": 10077,
      "ﺙ": 10078,
      "ﺚ": 10079,
      "ﺛ": 10080,
      "ﺜ": 10081,
      "ﺝ": 10082,
      "ﺟ": 10083,
      "ﺠ": 10084,
      "ﺡ": 10085,
      "ﺢ": 10086,
      "ﺣ": 10087,
      "ﺤ": 10088,
      "ﺧ": 10089,
      "ﺨ": 10090,
      "ﺩ": 10091,
      "ﺪ": 10092,
      "ﺫ": 10093,
      "ﺬ": 10094,
      "ﺭ": 10095,
      "ﺮ": 10096,
      "ﺯ": 10097,
      "ﺰ": 10098,
      "ﺱ": 10099,
      "ﺲ": 10100,
      "ﺳ": 10101,
      "ﺴ": 10102,
      "ﺶ": 10103,
      "ﺷ": 10104,
      "ﺸ": 10105,
      "ﺹ": 10106,
      "ﺺ": 10107,
      "ﺻ": 10108,
      "ﺼ": 10109,
      "ﺾ": 10110,
      "ﺿ": 10111,
      "ﻀ": 10112,
      "ﻂ": 10113,
      "ﻃ": 10114,
      "ﻄ": 10115,
      "ﻆ": 10116,
      "ﻇ": 10117,
      "ﻈ": 10118,
      "ﻉ": 10119,
      "ﻊ": 10120,
      "ﻋ": 10121,
      "ﻌ": 10122,
      "ﻏ": 10123,
      "ﻐ": 10124,
      "ﻑ": 10125,
      "ﻒ": 10126,
      "ﻓ": 10127,
      "ﻔ": 10128,
      "ﻕ": 10129,
      "ﻖ": 10130,
      "ﻗ": 10131,
      "ﻘ": 10132,
      "ﻙ": 10133,
      "ﻚ": 10134,
      "ﻛ": 10135,
      "ﻜ": 10136,
      "ﻝ": 10137,
      "ﻞ": 10138,
      "ﻟ": 10139,
      "ﻠ": 10140,
      "ﻡ": 10141,
      "ﻢ": 10142,
      "ﻣ": 10143,
      "ﻤ": 10144,
      "ﻥ": 10145,
      "ﻦ": 10146,
      "ﻧ": 10147,
      "ﻨ": 10148,
      "ﻩ": 10149,
      "ﻪ": 10150,
      "ﻫ": 10151,
      "ﻬ": 10152,
      "ﻭ": 10153,
      "ﻮ": 10154,
      "ﻯ": 10155,
      "ﻰ": 10156,
      "ﻱ": 10157,
      "ﻲ": 10158,
      "ﻳ": 10159,
      "ﻴ": 10160,
      "ﻵ": 10161,
      "ﻷ": 10162,
      "ﻹ": 10163,
      "ﻺ": 10164,
      "ﻻ": 10165,
      "ﻼ": 10166,
      "﻿": 10167,
      "！": 10168,
      "＂": 10169,
      "＃": 10170,
      "＄": 10171,
      "％": 10172,
      "＆": 10173,
      "＇": 10174,
      "（": 10175,
      "）": 10176,
      "＊": 10177,
      "＋": 10178,
      "，": 10179,
      "－": 10180,
      "．": 10181,
      "／": 10182,
      "０": 10183,
      "１": 10184,
      "２": 10185,
      "３": 10186,
      "４": 10187,
      "５": 10188,
      "６": 10189,
      "７": 10190,
      "８": 10191,
      "９": 10192,
      "：": 10193,
      "；": 10194,
      "＜": 10195,
      "＝": 10196,
      "＞": 10197,
      "？": 10198,
      "＠": 10199,
      "Ａ": 10200,
      "Ｂ": 10201,
      "Ｃ": 10202,
      "Ｄ": 10203,
      "Ｅ": 10204,
      "Ｆ": 10205,
      "Ｇ": 10206,
      "Ｈ": 10207,
      "Ｉ": 10208,
      "Ｊ": 10209,
      "Ｋ": 10210,
      "Ｌ": 10211,
      "Ｍ": 10212,
      "Ｎ": 10213,
      "Ｏ": 10214,
      "Ｐ": 10215,
      "Ｑ": 10216,
      "Ｒ": 10217,
      "Ｓ": 10218,
      "Ｔ": 10219,
      "Ｕ": 10220,
      "Ｖ": 10221,
      "Ｗ": 10222,
      "Ｘ": 10223,
      "Ｙ": 10224,
      "Ｚ": 10225,
      "［": 10226,
      "＼": 10227,
      "］": 10228,
      "＾": 10229,
      "＿": 10230,
      "｀": 10231,
      "ａ": 10232,
      "ｂ": 10233,
      "ｃ": 10234,
      "ｄ": 10235,
      "ｅ": 10236,
      "ｆ": 10237,
      "ｇ": 10238,
      "ｈ": 10239,
      "ｉ": 10240,
      "ｊ": 10241,
      "ｋ": 10242,
      "ｌ": 10243,
      "ｍ": 10244,
      "ｎ": 10245,
      "ｏ": 10246,
      "ｐ": 10247,
      "ｑ": 10248,
      "ｒ": 10249,
      "ｓ": 10250,
      "ｔ": 10251,
      "ｕ": 10252,
      "ｖ": 10253,
      "ｗ": 10254,
      "ｘ": 10255,
      "ｙ": 10256,
      "ｚ": 10257,
      "｛": 10258,
      "｜": 10259,
      "｝": 10260,
      "～": 10261,
      "｡": 10262,
      "｢": 10263,
      "｣": 10264,
      "､": 10265,
      "･": 10266,
      "ｧ": 10267,
      "ｨ": 10268,
      "ｩ": 10269,
      "ｪ": 10270,
      "ｫ": 10271,
      "ｬ": 10272,
      "ｭ": 10273,
      "ｮ": 10274,
      "ｯ": 10275,
      "ｰ": 10276,
      "ｱ": 10277,
      "ｲ": 10278,
      "ｳ": 10279,
      "ｴ": 10280,
      "ｵ": 10281,
      "ｶ": 10282,
      "ｷ": 10283,
      "ｸ": 10284,
      "ｹ": 10285,
      "ｺ": 10286,
      "ｻ": 10287,
      "ｼ": 10288,
      "ｽ": 10289,
      "ｾ": 10290,
      "ｿ": 10291,
      "ﾀ": 10292,
      "ﾁ": 10293,
      "ﾂ": 10294,
      "ﾃ": 10295,
      "ﾄ": 10296,
      "ﾅ": 10297,
      "ﾆ": 10298,
      "ﾈ": 10299,
      "ﾉ": 10300,
      "ﾊ": 10301,
      "ﾋ": 10302,
      "ﾌ": 10303,
      "ﾍ": 10304,
      "ﾎ": 10305,
      "ﾏ": 10306,
      "ﾐ": 10307,
      "ﾑ": 10308,
      "ﾒ": 10309,
      "ﾓ": 10310,
      "ﾔ": 10311,
      "ﾕ": 10312,
      "ﾖ": 10313,
      "ﾗ": 10314,
      "ﾘ": 10315,
      "ﾙ": 10316,
      "ﾚ": 10317,
      "ﾛ": 10318,
      "ﾜ": 10319,
      "ﾝ": 10320,
      "ﾞ": 10321,
      "ﾟ": 10322,
      "￡": 10323,
      "￣": 10324,
      "￭": 10325,
      "￮": 10326,
      "�": 10327,
      "𡃁": 10328,
      "񈡔": 10329,
      "񐨒": 10330,
      "񔲷": 10331,
      "򆁱": 10332,
      "򌭼": 10333,
      "򕟔": 10334,
      "򕟹": 10335,
      "򕟿": 10336,
      "򵥵": 10337,
      "򸼸": 10338,
      "򻡌": 10339,
      "򽩼": 10340,
      "򿪵": 10341,
      "򿪻": 10342,
      "󐡐": 10343,
      "󓚼": 10344,
      "󡣊": 10345,
      "󣬕": 10346,
      "󰦱": 10347,
      "󼯈": 10348,
      "󼯔": 10349,
      "􄿂": 10350,
      "th": 10351,
      "en": 10352,
      "in": 10353,
      "on": 10354,
      "an": 10355,
      "the": 10356,
      "re": 10357,
      "at": 10358,
      "ou": 10359,
      "er": 10360,
      "2en": 10361,
      "or": 10362,
      "al": 10363,
      "it": 10364,
      "is": 10365,
      "to": 10366,
      "es": 10367,
      "of": 10368,
      "ion": 10369,
      "ed": 10370,
      "ing": 10371,
      "ng": 10372,
      "ar": 10373,
      "and": 10374,
      "ch": 10375,
      "as": 10376,
      "vi": 10377,
      "he": 10378,
      "you": 10379,
      "om": 10380,
      "le": 10381,
      "ent": 10382,
      "st": 10383,
      "..": 10384,
      "ve": 10385,
      "ic": 10386,
      "ja": 10387,
      "ation": 10388,
      "zh": 10389,
      "2vi": 10390,
      "2ja": 10391,
      "2zh": 10392,
      "ll": 10393,
      "se": 10394,
      "me": 10395,
      "be": 10396,
      "ro": 10397,
      "no": 10398,
      "for": 10399,
      "tr": 10400,
      "de": 10401,
      "ac": 10402,
      "nh": 10403,
      "ay": 10404,
      "that": 10405,
      "ig": 10406,
      "ha": 10407,
      "ly": 10408,
      "ld": 10409,
      "wi": 10410,
      "lo": 10411,
      "con": 10412,
      "ment": 10413,
      "...": 10414,
      "im": 10415,
      "we": 10416,
      "ut": 10417,
      "ec": 10418,
      "00": 10419,
      "ver": 10420,
      "wh": 10421,
      "ter": 10422,
      "su": 10423,
      "ta": 10424,
      "et": 10425,
      "ce": 10426,
      "The": 10427,
      "ra": 10428,
      "id": 10429,
      "un": 10430,
      "go": 10431,
      "ông": 10432,
      "kh": 10433,
      "ôi": 10434,
      "res": 10435,
      "do": 10436,
      "li": 10437,
      "pro": 10438,
      "ht": 10439,
      "ad": 10440,
      "ke": 10441,
      "ur": 10442,
      "ti": 10443,
      "ir": 10444,
      "te": 10445,
      "com": 10446,
      "with": 10447,
      "are": 10448,
      "You": 10449,
      "Th": 10450,
      "200": 10451,
      "all": 10452,
      "ab": 10453,
      "ol": 10454,
      "ight": 10455,
      "là": 10456,
      "qu": 10457,
      "ag": 10458,
      "ne": 10459,
      "out": 10460,
      "am": 10461,
      "us": 10462,
      "ate": 10463,
      "ph": 10464,
      "il": 10465,
      "oun": 10466,
      "was": 10467,
      "em": 10468,
      "ho": 10469,
      "ould": 10470,
      "od": 10471,
      "now": 10472,
      "not": 10473,
      "ess": 10474,
      "per": 10475,
      "không": 10476,
      "gi": 10477,
      "have": 10478,
      "one": 10479,
      "ther": 10480,
      "ust": 10481,
      "this": 10482,
      "ies": 10483,
      "so": 10484,
      "man": 10485,
      "tion": 10486,
      "po": 10487,
      "ul": 10488,
      "ity": 10489,
      "ant": 10490,
      "ations": 10491,
      "par": 10492,
      "We": 10493,
      "fr": 10494,
      "if": 10495,
      "by": 10496,
      "He": 10497,
      "Wh": 10498,
      "ma": 10499,
      "por": 10500,
      "ome": 10501,
      "tôi": 10502,
      "end": 10503,
      "ex": 10504,
      "your": 10505,
      "sa": 10506,
      "here": 10507,
      "our": 10508,
      "ない": 10509,
      "ap": 10510,
      "sh": 10511,
      "No": 10512,
      "mo": 10513,
      "Ch": 10514,
      "pe": 10515,
      "my": 10516,
      "It": 10517,
      "って": 10518,
      "wor": 10519,
      "pl": 10520,
      "có": 10521,
      "ts": 10522,
      "uc": 10523,
      "up": 10524,
      "ple": 10525,
      "ri": 10526,
      "know": 10527,
      "ial": 10528,
      "ong": 10529,
      "anh": 10530,
      "った": 10531,
      "co": 10532,
      "can": 10533,
      "In": 10534,
      "An": 10535,
      "thing": 10536,
      "port": 10537,
      "ang": 10538,
      "ok": 10539,
      "ber": 10540,
      "right": 10541,
      "ấy": 10542,
      "ist": 10543,
      "ill": 10544,
      "ên": 10545,
      "đi": 10546,
      "ết": 10547,
      "der": 10548,
      "get": 10549,
      "from": 10550,
      "ational": 10551,
      "19": 10552,
      "si": 10553,
      "est": 10554,
      "ard": 10555,
      "ain": 10556,
      "uy": 10557,
      "ời": 10558,
      "úng": 10559,
      "king": 10560,
      "ff": 10561,
      "What": 10562,
      "Un": 10563,
      "will": 10564,
      "nà": 10565,
      "ind": 10566,
      "ow": 10567,
      "au": 10568,
      "don": 10569,
      "what": 10570,
      "its": 10571,
      "pr": 10572,
      "して": 10573,
      "red": 10574,
      "fo": 10575,
      "ary": 10576,
      "iz": 10577,
      "Tôi": 10578,
      "St": 10579,
      "fe": 10580,
      "pec": 10581,
      "bi": 10582,
      "ud": 10583,
      "ới": 10584,
      "cl": 10585,
      "ủa": 10586,
      "um": 10587,
      "And": 10588,
      "nó": 10589,
      "ance": 10590,
      "national": 10591,
      "ack": 10592,
      "của": 10593,
      "just": 10594,
      "ượ": 10595,
      "ột": 10596,
      "ep": 10597,
      "bl": 10598,
      "el": 10599,
      "oug": 10600,
      "but": 10601,
      "some": 10602,
      "Com": 10603,
      "there": 10604,
      "part": 10605,
      "ited": 10606,
      "và": 10607,
      "国家": 10608,
      "ted": 10609,
      "cho": 10610,
      "委员": 10611,
      "mit": 10612,
      "na": 10613,
      "会议": 10614,
      "委员会": 10615,
      "him": 10616,
      "ive": 10617,
      "they": 10618,
      "đâ": 10619,
      "like": 10620,
      "đã": 10621,
      "way": 10622,
      "した": 10623,
      "any": 10624,
      "ah": 10625,
      "sẽ": 10626,
      "我们": 10627,
      "her": 10628,
      "ace": 10629,
      "ence": 10630,
      "Con": 10631,
      "ải": 10632,
      "ất": 10633,
      "has": 10634,
      "ược": 10635,
      "about": 10636,
      "coun": 10637,
      "very": 10638,
      "ại": 10639,
      "over": 10640,
      "ated": 10641,
      "联合": 10642,
      "ven": 10643,
      "đó": 10644,
      "một": 10645,
      "whi": 10646,
      "gì": 10647,
      "ions": 10648,
      "问题": 10649,
      "ice": 10650,
      "pre": 10651,
      "other": 10652,
      "ally": 10653,
      "United": 10654,
      "inter": 10655,
      "who": 10656,
      "lop": 10657,
      "would": 10658,
      "ồi": 10659,
      "been": 10660,
      "ers": 10661,
      "ine": 10662,
      "them": 10663,
      "cá": 10664,
      "velop": 10665,
      "ous": 10666,
      "act": 10667,
      "ười": 10668,
      "want": 10669,
      "form": 10670,
      "did": 10671,
      "ans": 10672,
      "had": 10673,
      "their": 10674,
      "ass": 10675,
      "dis": 10676,
      "ure": 10677,
      "iss": 10678,
      "ge": 10679,
      "ry": 10680,
      "ci": 10681,
      "国际": 10682,
      "ink": 10683,
      "ble": 10684,
      "ener": 10685,
      "ates": 10686,
      "work": 10687,
      "got": 10688,
      "ast": 10689,
      "ase": 10690,
      "were": 10691,
      "need": 10692,
      "ish": 10693,
      "工作": 10694,
      "mu": 10695,
      "That": 10696,
      "ie": 10697,
      "bo": 10698,
      "联合国": 10699,
      "str": 10700,
      "pos": 10701,
      "được": 10702,
      "reg": 10703,
      "ear": 10704,
      "から": 10705,
      "ia": 10706,
      "người": 10707,
      "pres": 10708,
      "la": 10709,
      "làm": 10710,
      "comm": 10711,
      "phải": 10712,
      "under": 10713,
      "hi": 10714,
      "his": 10715,
      "ments": 10716,
      "fer": 10717,
      "10": 10718,
      "报告": 10719,
      "which": 10720,
      "rồi": 10721,
      "ound": 10722,
      "ty": 10723,
      "see": 10724,
      "Nations": 10725,
      "này": 10726,
      "able": 10727,
      "ces": 10728,
      "ord": 10729,
      "should": 10730,
      "ct": 10731,
      "ach": 10732,
      "发展": 10733,
      "199": 10734,
      "ough": 10735,
      "gra": 10736,
      "ities": 10737,
      "Anh": 10738,
      "age": 10739,
      "time": 10740,
      "reat": 10741,
      "eneral": 10742,
      "So": 10743,
      "なた": 10744,
      "あなた": 10745,
      "come": 10746,
      "develop": 10747,
      "んだ": 10748,
      "ip": 10749,
      "off": 10750,
      "wn": 10751,
      "ret": 10752,
      "ting": 10753,
      "Oh": 10754,
      "する": 10755,
      "This": 10756,
      "more": 10757,
      "ến": 10758,
      "组织": 10759,
      "ical": 10760,
      "gr": 10761,
      "chúng": 10762,
      "hu": 10763,
      "ần": 10764,
      "think": 10765,
      "min": 10766,
      "But": 10767,
      "ree": 10768,
      "vent": 10769,
      "ện": 10770,
      "pen": 10771,
      "thể": 10772,
      "一个": 10773,
      "Sec": 10774,
      "countr": 10775,
      "day": 10776,
      "cô": 10777,
      "As": 10778,
      "how": 10779,
      "ser": 10780,
      "như": 10781,
      "cr": 10782,
      "vis": 10783,
      "tee": 10784,
      "です": 10785,
      "biết": 10786,
      "art": 10787,
      "ire": 10788,
      "ild": 10789,
      "ew": 10790,
      "ank": 10791,
      "ue": 10792,
      "ves": 10793,
      "đây": 10794,
      "ose": 10795,
      "nói": 10796,
      "back": 10797,
      "son": 10798,
      "こと": 10799,
      "eah": 10800,
      "ậu": 10801,
      "ình": 10802,
      "ution": 10803,
      "General": 10804,
      "12": 10805,
      "Re": 10806,
      "miss": 10807,
      "mà": 10808,
      "she": 10809,
      "với": 10810,
      "それ": 10811,
      "mber": 10812,
      "mittee": 10813,
      "ai": 10814,
      "Kh": 10815,
      "ốn": 10816,
      "could": 10817,
      "tin": 10818,
      "ign": 10819,
      "政府": 10820,
      "ậy": 10821,
      "cu": 10822,
      "All": 10823,
      "gan": 10824,
      "fore": 10825,
      "take": 10826,
      "关于": 10827,
      "ving": 10828,
      "sup": 10829,
      "say": 10830,
      "ob": 10831,
      "States": 10832,
      "提供": 10833,
      "ます": 10834,
      "good": 10835,
      "They": 10836,
      "going": 10837,
      "ople": 10838,
      "Committee": 10839,
      "gon": 10840,
      "ều": 10841,
      "方面": 10842,
      "international": 10843,
      "ある": 10844,
      "いる": 10845,
      "cur": 10846,
      "cess": 10847,
      "lại": 10848,
      "ition": 10849,
      "also": 10850,
      "cả": 10851,
      "bet": 10852,
      "以及": 10853,
      "ved": 10854,
      "tive": 10855,
      "leg": 10856,
      "again": 10857,
      "incl": 10858,
      "gonna": 10859,
      "Coun": 10860,
      "look": 10861,
      "wo": 10862,
      "when": 10863,
      "sao": 10864,
      "sub": 10865,
      "sel": 10866,
      "cre": 10867,
      "gram": 10868,
      "ress": 10869,
      "Không": 10870,
      "ao": 10871,
      "Yeah": 10872,
      "Well": 10873,
      "社会": 10874,
      "pol": 10875,
      "report": 10876,
      "这些": 10877,
      "cent": 10878,
      "new": 10879,
      "决议": 10880,
      "int": 10881,
      "oper": 10882,
      "year": 10883,
      "call": 10884,
      "ari": 10885,
      "ak": 10886,
      "then": 10887,
      "ick": 10888,
      "Nh": 10889,
      "Go": 10890,
      "ưa": 10891,
      "She": 10892,
      "fin": 10893,
      "enc": 10894,
      "ning": 10895,
      "安全": 10896,
      "resol": 10897,
      "tain": 10898,
      "ắn": 10899,
      "people": 10900,
      "spec": 10901,
      "tal": 10902,
      "Mr": 10903,
      "thế": 10904,
      "ganiz": 10905,
      "ative": 10906,
      "nào": 10907,
      "ave": 10908,
      "cial": 10909,
      "ubl": 10910,
      "plement": 10911,
      "ật": 10912,
      "Do": 10913,
      "其他": 10914,
      "ause": 10915,
      "他们": 10916,
      "ống": 10917,
      "where": 10918,
      "ft": 10919,
      "20": 10920,
      "行动": 10921,
      "into": 10922,
      "Is": 10923,
      "rel": 10924,
      "cer": 10925,
      "15": 10926,
      "代表": 10927,
      "lie": 10928,
      "down": 10929,
      "those": 10930,
      "ction": 10931,
      "Pro": 10932,
      "cil": 10933,
      "ory": 10934,
      "特别": 10935,
      "di": 10936,
      "đang": 10937,
      "De": 10938,
      "情况": 10939,
      "通过": 10940,
      "执行": 10941,
      "human": 10942,
      "trong": 10943,
      "muốn": 10944,
      "fa": 10945,
      "br": 10946,
      "meet": 10947,
      "requ": 10948,
      "vid": 10949,
      "There": 10950,
      "UN": 10951,
      "Council": 10952,
      "11": 10953,
      "sy": 10954,
      "包括": 10955,
      "let": 10956,
      "tle": 10957,
      "every": 10958,
      "有关": 10959,
      "かった": 10960,
      "để": 10961,
      "ublic": 10962,
      "sp": 10963,
      "机构": 10964,
      "sure": 10965,
      "ơi": 10966,
      "add": 10967,
      "ngh": 10968,
      "ơn": 10969,
      "进行": 10970,
      "How": 10971,
      "only": 10972,
      "make": 10973,
      "gu": 10974,
      "wom": 10975,
      "ác": 10976,
      "ident": 10977,
      "partic": 10978,
      "ck": 10979,
      "may": 10980,
      "方案": 10981,
      "jec": 10982,
      "mission": 10983,
      "秘书": 10984,
      "nment": 10985,
      "bod": 10986,
      "uyện": 10987,
      "hap": 10988,
      "ors": 10989,
      "well": 10990,
      "ừng": 10991,
      "ater": 10992,
      "tell": 10993,
      "ững": 10994,
      "af": 10995,
      "什么": 10996,
      "cond": 10997,
      "fir": 10998,
      "mon": 10999,
      "If": 11000,
      "khi": 11001,
      "Hey": 11002,
      "いい": 11003,
      "stand": 11004,
      "uck": 11005,
      "所有": 11006,
      "ull": 11007,
      "made": 11008,
      "rough": 11009,
      "ite": 11010,
      "op": 11011,
      "没有": 11012,
      "そう": 11013,
      "lp": 11014,
      "tri": 11015,
      "ms": 11016,
      "present": 11017,
      "med": 11018,
      "than": 11019,
      "countries": 11020,
      "includ": 11021,
      "inform": 11022,
      "aff": 11023,
      "かれ": 11024,
      "said": 11025,
      "よう": 11026,
      "member": 11027,
      "公约": 11028,
      "ating": 11029,
      "cái": 11030,
      "igh": 11031,
      "人权": 11032,
      "đâu": 11033,
      "kill": 11034,
      "ef": 11035,
      "),": 11036,
      "ren": 11037,
      "ca": 11038,
      "ướ": 11039,
      "cậu": 11040,
      "Ad": 11041,
      "eng": 11042,
      "cons": 11043,
      "inv": 11044,
      "mar": 11045,
      "pri": 11046,
      "such": 11047,
      "ài": 11048,
      "development": 11049,
      "ân": 11050,
      "经济": 11051,
      "two": 11052,
      "どう": 11053,
      "mb": 11054,
      "low": 11055,
      "implement": 11056,
      "ise": 11057,
      "ession": 11058,
      "through": 11059,
      "lear": 11060,
      "vention": 11061,
      "いた": 11062,
      "view": 11063,
      "fun": 11064,
      "ures": 11065,
      "理事": 11066,
      "comp": 11067,
      "read": 11068,
      "vậy": 11069,
      "Ok": 11070,
      "ific": 11071,
      "その": 11072,
      "Lo": 11073,
      "họ": 11074,
      "program": 11075,
      "Tr": 11076,
      "れる": 11077,
      "rights": 11078,
      "these": 11079,
      "đến": 11080,
      "ây": 11081,
      "resolution": 11082,
      "self": 11083,
      "person": 11084,
      "大会": 11085,
      "妇女": 11086,
      "oup": 11087,
      "Secret": 11088,
      "ful": 11089,
      "Chúng": 11090,
      "òn": 11091,
      "ếu": 11092,
      "この": 11093,
      "Inter": 11094,
      "conom": 11095,
      "れた": 11096,
      "nghĩ": 11097,
      "For": 11098,
      "bu": 11099,
      "ner": 11100,
      "ular": 11101,
      "ought": 11102,
      "理事会": 11103,
      "những": 11104,
      "support": 11105,
      "My": 11106,
      "ility": 11107,
      "Em": 11108,
      "Don": 11109,
      "dra": 11110,
      "didn": 11111,
      "ái": 11112,
      "合作": 11113,
      "活动": 11114,
      "về": 11115,
      "Gover": 11116,
      "13": 11117,
      "可能": 11118,
      "too": 11119,
      "ait": 11120,
      "help": 11121,
      "いて": 11122,
      "long": 11123,
      "llow": 11124,
      "dec": 11125,
      "建议": 11126,
      "じゃ": 11127,
      "rest": 11128,
      "stem": 11129,
      "nhi": 11130,
      "des": 11131,
      "ọi": 11132,
      "does": 11133,
      "something": 11134,
      "top": 11135,
      "ữa": 11136,
      "car": 11137,
      "Okay": 11138,
      "ạn": 11139,
      "Come": 11140,
      "organiz": 11141,
      "pon": 11142,
      "ối": 11143,
      "chuyện": 11144,
      "law": 11145,
      "ũng": 11146,
      "2006": 11147,
      ").": 11148,
      "child": 11149,
      "thì": 11150,
      "lit": 11151,
      "urn": 11152,
      "2001": 11153,
      "use": 11154,
      "Let": 11155,
      "first": 11156,
      "women": 11157,
      "thấy": 11158,
      "2005": 11159,
      "side": 11160,
      "must": 11161,
      "cus": 11162,
      "需要": 11163,
      "ằng": 11164,
      "Ng": 11165,
      "项目": 11166,
      "--": 11167,
      "land": 11168,
      "set": 11169,
      "には": 11170,
      "这一": 11171,
      "belie": 11172,
      "缔约": 11173,
      "find": 11174,
      "でも": 11175,
      "Al": 11176,
      "人员": 11177,
      "never": 11178,
      "30": 11179,
      "vo": 11180,
      "meeting": 11181,
      "body": 11182,
      "14": 11183,
      "ual": 11184,
      "trans": 11185,
      "row": 11186,
      "imin": 11187,
      "これ": 11188,
      "cause": 11189,
      "eff": 11190,
      "2002": 11191,
      "Co": 11192,
      "规定": 11193,
      "世界": 11194,
      "2000": 11195,
      "ày": 11196,
      "contin": 11197,
      "semb": 11198,
      "chứ": 11199,
      "决定": 11200,
      "stit": 11201,
      "sembly": 11202,
      "appro": 11203,
      "before": 11204,
      "guy": 11205,
      "gy": 11206,
      "tiv": 11207,
      "including": 11208,
      "issu": 11209,
      "system": 11210,
      "tec": 11211,
      "Se": 11212,
      "put": 11213,
      "sul": 11214,
      "2004": 11215,
      "ange": 11216,
      "bị": 11217,
      "ult": 11218,
      "Assembly": 11219,
      "根据": 11220,
      "和平": 11221,
      "Có": 11222,
      "ước": 11223,
      "cord": 11224,
      "bas": 11225,
      "可以": 11226,
      "ide": 11227,
      "orry": 11228,
      "fl": 11229,
      "prom": 11230,
      "Commission": 11231,
      "cũng": 11232,
      "采取": 11233,
      "Why": 11234,
      "ầu": 11235,
      "vào": 11236,
      "try": 11237,
      "session": 11238,
      "Ho": 11239,
      "To": 11240,
      "information": 11241,
      "んな": 11242,
      "Who": 11243,
      "chỉ": 11244,
      "区域": 11245,
      "vers": 11246,
      "really": 11247,
      "ってる": 11248,
      "先生": 11249,
      "Dec": 11250,
      "ference": 11251,
      "Ta": 11252,
      "air": 11253,
      "しい": 11254,
      "提出": 11255,
      "đấy": 11256,
      "18": 11257,
      "ệc": 11258,
      "little": 11259,
      "mean": 11260,
      "against": 11261,
      "sit": 11262,
      "儿童": 11263,
      "pt": 11264,
      "Rep": 11265,
      "mer": 11266,
      "most": 11267,
      "Cô": 11268,
      "なら": 11269,
      "2003": 11270,
      "giờ": 11271,
      "Ex": 11272,
      "必须": 11273,
      "respon": 11274,
      "ced": 11275,
      "cap": 11276,
      "主义": 11277,
      "State": 11278,
      "ties": 11279,
      "conomic": 11280,
      "Mo": 11281,
      "God": 11282,
      "24": 11283,
      "aw": 11284,
      "years": 11285,
      "ask": 11286,
      "ug": 11287,
      "Just": 11288,
      "vel": 11289,
      "give": 11290,
      "tions": 11291,
      "place": 11292,
      "ever": 11293,
      "Or": 11294,
      "duc": 11295,
      "16": 11296,
      "after": 11297,
      "Bo": 11298,
      "order": 11299,
      "Yes": 11300,
      "重要": 11301,
      "keep": 11302,
      "àn": 11303,
      "main": 11304,
      "れて": 11305,
      "even": 11306,
      "ưng": 11307,
      "concer": 11308,
      "Ar": 11309,
      "region": 11310,
      "Và": 11311,
      "知道": 11312,
      "ween": 11313,
      "inte": 11314,
      "25": 11315,
      "计划": 11316,
      "val": 11317,
      "Secretary": 11318,
      "sho": 11319,
      "xt": 11320,
      "彼女": 11321,
      "col": 11322,
      "Right": 11323,
      "follow": 11324,
      "ami": 11325,
      "care": 11326,
      "权利": 11327,
      "thôi": 11328,
      "措施": 11329,
      "att": 11330,
      "commun": 11331,
      "秘书长": 11332,
      "sur": 11333,
      "ica": 11334,
      "plan": 11335,
      "ons": 11336,
      "còn": 11337,
      "àng": 11338,
      "17": 11339,
      "mat": 11340,
      "life": 11341,
      "ship": 11342,
      "world": 11343,
      "法律": 11344,
      "ận": 11345,
      "cần": 11346,
      "nữa": 11347,
      "ember": 11348,
      "tabl": 11349,
      "Mar": 11350,
      "ss": 11351,
      "import": 11352,
      "much": 11353,
      "ùng": 11354,
      "operation": 11355,
      "between": 11356,
      "ươ": 11357,
      "Par": 11358,
      "のか": 11359,
      "peri": 11360,
      "peace": 11361,
      "管理": 11362,
      "happen": 11363,
      "Where": 11364,
      "head": 11365,
      "still": 11366,
      "mình": 11367,
      "activ": 11368,
      "必要": 11369,
      "tak": 11370,
      "ters": 11371,
      "ado": 11372,
      "支持": 11373,
      "êu": 11374,
      "成员": 11375,
      "việc": 11376,
      "men": 11377,
      "sin": 11378,
      "full": 11379,
      "Le": 11380,
      "hand": 11381,
      "Gr": 11382,
      "Now": 11383,
      "ườ": 11384,
      "ành": 11385,
      "ốt": 11386,
      "clo": 11387,
      "号决议": 11388,
      "Convention": 11389,
      "International": 11390,
      "effec": 11391,
      "技术": 11392,
      "establ": 11393,
      "num": 11394,
      "establish": 11395,
      "va": 11396,
      "私は": 11397,
      "commend": 11398,
      "gover": 11399,
      "bal": 11400,
      "led": 11401,
      "努力": 11402,
      "mor": 11403,
      "ten": 11404,
      "あなたが": 11405,
      "thứ": 11406,
      "rit": 11407,
      "fri": 11408,
      "继续": 11409,
      "Wor": 11410,
      "icle": 11411,
      "úc": 11412,
      "ques": 11413,
      "ath": 11414,
      "ường": 11415,
      "át": 11416,
      "being": 11417,
      "plo": 11418,
      "ider": 11419,
      "认为": 11420,
      "ắc": 11421,
      "May": 11422,
      ".\"": 11423,
      "tribut": 11424,
      "ền": 11425,
      "cour": 11426,
      "doing": 11427,
      "注意": 11428,
      "friend": 11429,
      "level": 11430,
      "bro": 11431,
      "secur": 11432,
      "ict": 11433,
      "love": 11434,
      "irl": 11435,
      "implementation": 11436,
      "主席": 11437,
      "さい": 11438,
      "2007": 11439,
      "many": 11440,
      "Hu": 11441,
      "要求": 11442,
      "cal": 11443,
      "great": 11444,
      "okay": 11445,
      "won": 11446,
      "ards": 11447,
      "particular": 11448,
      "ready": 11449,
      "because": 11450,
      "wer": 11451,
      "less": 11452,
      "last": 11453,
      "ắt": 11454,
      "Jo": 11455,
      "不是": 11456,
      "tro": 11457,
      "các": 11458,
      "Government": 11459,
      "Look": 11460,
      "nec": 11461,
      "届会议": 11462,
      "ここ": 11463,
      "ade": 11464,
      "shall": 11465,
      "ki": 11466,
      "rất": 11467,
      "Nhưng": 11468,
      "provid": 11469,
      "如果": 11470,
      "country": 11471,
      "security": 11472,
      "dif": 11473,
      "why": 11474,
[...]
